<unk>	0
<s>	0
</s>	0
<0x00>	0
<0x01>	0
<0x02>	0
<0x03>	0
<0x04>	0
<0x05>	0
<0x06>	0
<0x07>	0
<0x08>	0
<0x09>	0
<0x0A>	0
<0x0B>	0
<0x0C>	0
<0x0D>	0
<0x0E>	0
<0x0F>	0
<0x10>	0
<0x11>	0
<0x12>	0
<0x13>	0
<0x14>	0
<0x15>	0
<0x16>	0
<0x17>	0
<0x18>	0
<0x19>	0
<0x1A>	0
<0x1B>	0
<0x1C>	0
<0x1D>	0
<0x1E>	0
<0x1F>	0
<0x20>	0
<0x21>	0
<0x22>	0
<0x23>	0
<0x24>	0
<0x25>	0
<0x26>	0
<0x27>	0
<0x28>	0
<0x29>	0
<0x2A>	0
<0x2B>	0
<0x2C>	0
<0x2D>	0
<0x2E>	0
<0x2F>	0
<0x30>	0
<0x31>	0
<0x32>	0
<0x33>	0
<0x34>	0
<0x35>	0
<0x36>	0
<0x37>	0
<0x38>	0
<0x39>	0
<0x3A>	0
<0x3B>	0
<0x3C>	0
<0x3D>	0
<0x3E>	0
<0x3F>	0
<0x40>	0
<0x41>	0
<0x42>	0
<0x43>	0
<0x44>	0
<0x45>	0
<0x46>	0
<0x47>	0
<0x48>	0
<0x49>	0
<0x4A>	0
<0x4B>	0
<0x4C>	0
<0x4D>	0
<0x4E>	0
<0x4F>	0
<0x50>	0
<0x51>	0
<0x52>	0
<0x53>	0
<0x54>	0
<0x55>	0
<0x56>	0
<0x57>	0
<0x58>	0
<0x59>	0
<0x5A>	0
<0x5B>	0
<0x5C>	0
<0x5D>	0
<0x5E>	0
<0x5F>	0
<0x60>	0
<0x61>	0
<0x62>	0
<0x63>	0
<0x64>	0
<0x65>	0
<0x66>	0
<0x67>	0
<0x68>	0
<0x69>	0
<0x6A>	0
<0x6B>	0
<0x6C>	0
<0x6D>	0
<0x6E>	0
<0x6F>	0
<0x70>	0
<0x71>	0
<0x72>	0
<0x73>	0
<0x74>	0
<0x75>	0
<0x76>	0
<0x77>	0
<0x78>	0
<0x79>	0
<0x7A>	0
<0x7B>	0
<0x7C>	0
<0x7D>	0
<0x7E>	0
<0x7F>	0
<0x80>	0
<0x81>	0
<0x82>	0
<0x83>	0
<0x84>	0
<0x85>	0
<0x86>	0
<0x87>	0
<0x88>	0
<0x89>	0
<0x8A>	0
<0x8B>	0
<0x8C>	0
<0x8D>	0
<0x8E>	0
<0x8F>	0
<0x90>	0
<0x91>	0
<0x92>	0
<0x93>	0
<0x94>	0
<0x95>	0
<0x96>	0
<0x97>	0
<0x98>	0
<0x99>	0
<0x9A>	0
<0x9B>	0
<0x9C>	0
<0x9D>	0
<0x9E>	0
<0x9F>	0
<0xA0>	0
<0xA1>	0
<0xA2>	0
<0xA3>	0
<0xA4>	0
<0xA5>	0
<0xA6>	0
<0xA7>	0
<0xA8>	0
<0xA9>	0
<0xAA>	0
<0xAB>	0
<0xAC>	0
<0xAD>	0
<0xAE>	0
<0xAF>	0
<0xB0>	0
<0xB1>	0
<0xB2>	0
<0xB3>	0
<0xB4>	0
<0xB5>	0
<0xB6>	0
<0xB7>	0
<0xB8>	0
<0xB9>	0
<0xBA>	0
<0xBB>	0
<0xBC>	0
<0xBD>	0
<0xBE>	0
<0xBF>	0
<0xC0>	0
<0xC1>	0
<0xC2>	0
<0xC3>	0
<0xC4>	0
<0xC5>	0
<0xC6>	0
<0xC7>	0
<0xC8>	0
<0xC9>	0
<0xCA>	0
<0xCB>	0
<0xCC>	0
<0xCD>	0
<0xCE>	0
<0xCF>	0
<0xD0>	0
<0xD1>	0
<0xD2>	0
<0xD3>	0
<0xD4>	0
<0xD5>	0
<0xD6>	0
<0xD7>	0
<0xD8>	0
<0xD9>	0
<0xDA>	0
<0xDB>	0
<0xDC>	0
<0xDD>	0
<0xDE>	0
<0xDF>	0
<0xE0>	0
<0xE1>	0
<0xE2>	0
<0xE3>	0
<0xE4>	0
<0xE5>	0
<0xE6>	0
<0xE7>	0
<0xE8>	0
<0xE9>	0
<0xEA>	0
<0xEB>	0
<0xEC>	0
<0xED>	0
<0xEE>	0
<0xEF>	0
<0xF0>	0
<0xF1>	0
<0xF2>	0
<0xF3>	0
<0xF4>	0
<0xF5>	0
<0xF6>	0
<0xF7>	0
<0xF8>	0
<0xF9>	0
<0xFA>	0
<0xFB>	0
<0xFC>	0
<0xFD>	0
<0xFE>	0
<0xFF>	0
ས་	-0
ི་	-1
ང་	-2
ད་	-3
ན་	-4
ག་	-5
ལ་	-6
ར་	-7
བྱ	-8
འི་	-9
གས་	-10
ོ་	-11
ྱི་	-12
མ་	-13
ེ་	-14
བ་	-15
དང་	-16
ེད་	-17
ོད་	-18
ུ་	-19
ོང་	-20
བྱེད་	-21
ིག་	-22
ོན་	-23
ྒྱ	-24
ཀྱི་	-25
ིས་	-26
རྒྱ	-27
པ་	-28
ོས་	-29
འག	-30
སྤ	-31
ས།	-32
ངས་	-33
ནས་	-34
ོགས་	-35
ིན་	-36
ུས་	-37
བས་	-38
པའི་	-39
དག	-40
སྐ	-41
ད།	-42
ུང་	-43
འད	-44
གྱི་	-45
ོག་	-46
ེན་	-47
ོར་	-48
ུལ་	-49
ཁྱ	-50
རྩ	-51
དེ་	-52
གཞ	-53
ལས་	-54
གྲ	-55
གི་	-56
བྱས་	-57
ཐུ	-58
ེས་	-59
ན།	-60
གཏ	-61
གས	-62
སྒ	-63
ོས།	-64
དགོས།	-65
ེལ་	-66
སྤྱ	-67
རི	-68
རང་	-69
མི་	-70
ེར་	-71
ུར་	-72
བར	-73
འབ	-74
དཔ	-75
དུ་	-76
བས	-77
མས་	-78
ུགས་	-79
ྱིས་	-80
མཁ	-81
དང་།	-82
ནི་	-83
ོབ་	-84
ཞི	-85
པར་	-86
བའི་	-87
ཁྲ	-88
ོད།	-89
སྤྱོད་	-90
ལྟ	-91
སླ	-92
སྦ	-93
རྒྱུ	-94
གཞི་	-95
འཕ	-96
སྐྱ	-97
བྱ་	-98
ོལ་	-99
ཞིག་	-100
ལག་	-101
སྒྲ	-102
འབྲ	-103
ནུས་	-104
ོའི་	-105
བ།	-106
སྦྱ	-107
དབྱ	-108
ཡོད་	-109
གཏོང་	-110
གྲངས་	-111
ཚད་	-112
ིད་	-113
སྲ	-114
སྟ	-115
ཡོད།	-116
སློབ་	-117
ཀྱིས་	-118
ཐབས་	-119
རེ	-120
འཇ	-121
ུག་	-122
འ་	-123
ཚོགས་	-124
བཅ	-125
བཟ	-126
པོ་	-127
གཅ	-128
ེགས་	-129
ཕྱ	-130
ིང་	-131
འགྲ	-132
འཛ	-133
ྲ་	-134
དགོས་	-135
ཁྱེད་	-136
ནང་	-137
ན་གྱི་	-138
ིགས་	-139
དོན་	-140
སྔ	-141
མཐ	-142
རྩལ་	-143
རིག་	-144
རེད།	-145
ོངས་	-146
བཞ	-147
ཞིབ་	-148
དམ	-149
དུས་	-150
ཆ་	-151
འཕྲ	-152
སྦྱོང་	-153
གནས་	-154
དག་	-155
ཡིན་	-156
འཚ	-157
རིགས་	-158
ཚོད་	-159
ཐུབ།	-160
གན	-161
བཀ	-162
བྱེད་དགོས།	-163
སོགས་	-164
ཐུབ་	-165
སྣ	-166
འབྲེལ་	-167
རིམ་	-168
ྱུར་	-169
ིན།	-170
རྒྱུ་	-171
ཁ་	-172
དེ	-173
ིའི་	-174
ལེགས་	-175
ུན་	-176
བར་	-177
མཚ	-178
བཞིན་	-179
ལྟ་	-180
པ།	-181
རྟ	-182
ལྡ	-183
ཡང་	-184
འཁ	-185
མང་	-186
གསར་	-187
མཁོ་	-188
བྱས་ནས་	-189
སྒྲིག་	-190
ལག་རྩལ་	-191
ུབ་	-192
གཞི་གྲངས་	-193
དབྱེ་	-194
ལེན་	-195
དང	-196
གོ་	-197
འུ་	-198
རོགས་	-199
ཏེ་	-200
གཉ	-201
མཉ	-202
འགན་	-203
ཆེ་	-204
གིས་	-205
ཡིན།	-206
ཤེས་	-207
ཐོན་	-208
གཤ	-209
རྒྱུད་	-210
སྨ	-211
བསམ་	-212
བྱུང་	-213
རྣ	-214
ཐག་	-215
སུ་	-216
ེ།	-217
ཆེན་	-218
རྐ	-219
ཐོག་	-220
སྤྱི་	-221
དཔེར་	-222
མ་ཟ	-223
སློབ་སྦྱོང་	-224
གནད་	-225
བདེ་	-226
མཉམ་	-227
ཆས་	-228
བརྟ	-229
སྤྲ	-230
གླ	-231
འགྱུར་	-232
ཤུགས་	-233
ང་ཚ	-234
བརྡ	-235
ཕྱོགས་	-236
གཅོད་	-237
བཤ	-238
གྱིས་	-239
དོ་	-240
མེད་	-241
ཀྲ	-242
ྱང་	-243
པ་དང་	-244
འདྲ་	-245
རྒྱུན་	-246
ོག	-247
རིག་ནུས་	-248
ཁྱབ་	-249
བླ	-250
གལ་	-251
པ་དང་།	-252
ཐག་གཅོད་	-253
རུ་	-254
ུད་	-255
འདོན་	-256
ལྟར་	-257
རྫ	-258
ོམ་	-259
ཚོང་	-260
བཟོ་	-261
མ་ཟད།	-262
མཐུ	-263
ལྷ	-264
བྱེད་པའི་	-265
ཀྱང་	-266
ཚུལ་	-267
དྲ	-268
བཀོལ་	-269
རྐྱ	-270
ཏུ་	-271
ཁྲོད་	-272
ཇུས་	-273
ཁྱོད་	-274
ཆར་	-275
འདི་	-276
ཕན་	-277
མ།	-278
བསྡ	-279
ཐེ	-280
སྐད་	-281
རང་བཞིན་	-282
དེའི་	-283
བརྩ	-284
རྐྱེན་	-285
མཁན་	-286
ཆུང་	-287
དམིགས་	-288
འདྲ	-289
འཛིན་	-290
ཁྱེད་རང་	-291
དཔེ་	-292
སྒོ་	-293
སྔོན་	-294
ཡིག་	-295
ུངས་	-296
བྱེད་ཐུབ།	-297
ེམས་	-298
ཁོངས་	-299
ལོ་	-300
དཔེར་ན།	-301
འཆར་	-302
དེ་བས་	-303
བཏ	-304
བརྒྱུད་	-305
དམ་	-306
དྲ་	-307
ིར་	-308
རྣམ་	-309
ཆོག་	-310
AI	-311
ར།	-312
སྐབས་	-313
སྔར་	-314
ཡོང་	-315
གང་	-316
སྤྱད་	-317
ཞིང་	-318
གནད་དོན་	-319
ལྡན་	-320
སྲིད་	-321
འཇོག་	-322
བཅས་	-323
གཤམ་	-324
ུའུ་	-325
རྒྱལ་	-326
སྡ	-327
ལམ་	-328
པ་མ་ཟད།	-329
མང	-330
ཐང་	-331
འཕྲུལ་	-332
དངོས་	-333
སྲུང་	-334
ྙན་	-335
སྤྱི་ཚོགས་	-336
དབྱེ་ཞིབ་	-337
སྤེལ་	-338
འཕེལ་	-339
འཁོར་	-340
དབ	-341
གསལ་	-342
སྤྲོད་	-343
བརྟེན་	-344
ལ།	-345
བ་དང་	-346
ཉིད་	-347
ཟླ	-348
ཡི་	-349
ལས་འགན་	-350
པ་རེད།	-351
དུས་ཚོད་	-352
འགུལ་	-353
རྫས་	-354
ཁང་	-355
ཆོག	-356
བཅོས་	-357
ཡུལ་	-358
བེད་	-359
གཏན་	-360
བློ་	-361
རྗ	-362
འཕྲིན་	-363
ུ།	-364
མཐོ་	-365
མཁན་གྱི་	-366
གཅིག་	-367
སྨན་	-368
ང་ཚོས་	-369
ེང་	-370
ཁག་	-371
གཞན་	-372
པས་	-373
བྱ་དགོས།	-374
རམ་	-375
ིམ་	-376
ཁོ་	-377
མོ་	-378
འོ་	-379
སྐུལ་	-380
གསུ	-381
རེ་	-382
འབྲས་	-383
དཔྱ	-384
བཟོས་	-385
སྦྱོར་	-386
ཏེ།	-387
རོགས་རམ་	-388
ཚང་	-389
རུ་གཏོང་	-390
དུང་	-391
ཅན་གྱི་	-392
ཡིས་	-393
རང་ཉིད་	-394
འཛུགས་	-395
མིའི་	-396
ཐོབ་	-397
བྱེད་པར་	-398
མཐོང་	-399
རྒྱུས་	-400
དོ་དམ་	-401
ཆོས་	-402
ལ་བརྟེན་	-403
ཤིག་	-404
ཞུ་	-405
རྒྱབ་	-406
ཁེ་	-407
གྲོང་	-408
ུའི་	-409
བཏང་	-410
འགའ་	-411
པས།	-412
རྒྱ་	-413
ཁུངས་	-414
དབང་	-415
མིས་	-416
མངོན་	-417
ཧྲ	-418
བྱེད་ཐབས་	-419
གོང་	-420
རྒྱས་	-421
མད	-422
ཚན་	-423
གཟ	-424
དངུལ་	-425
འཇགས་	-426
དཔྱད་	-427
མང་པོ་	-428
བཤད་	-429
གལ་ཏེ་	-430
སྐོར་	-431
འཚམ་	-432
ཞབས་	-433
ཁྱེད་རང་གི་	-434
བྱས་ཏེ་	-435
གཞིགས་	-436
འཇུག་	-437
འཁྲ	-438
བྱེད་དགོས་	-439
བརྙན་	-440
ཞིག་ཡིན་	-441
གསོ་	-442
འགྲན་	-443
ཁོང་	-444
བྲ	-445
མཛ	-446
སེམས་	-447
བྱེད་ཐུབ་	-448
གཙ	-449
སྣང་	-450
འཁེལ་	-451
འགོད་	-452
མི་འདྲ་	-453
སྣ་	-454
གཉིས་	-455
བསྟ	-456
དབྱི	-457
བརྡ་	-458
མིན་	-459
འོན་	-460
སྙ	-461
རྗེས་	-462
སོགས་ཀྱི་	-463
མཐུན་	-464
གནས་ཚུལ་	-465
སྒོ་ནས་	-466
འོན་ཀྱང་	-467
འཚོལ་	-468
ཅང་	-469
ལས་ཀ	-470
སྔར་ལས་	-471
འཕེལ་རྒྱས་	-472
འེ་	-473
ཟླ་	-474
ི་ལྟར་	-475
ཁྱེད་ཀྱིས་	-476
ེབས་	-477
བཙ	-478
ཉིན་	-479
ཁྱད་	-480
རྩིས་	-481
ཁུལ་	-482
ནད་	-483
དེ་དག་	-484
བདེ་འཇགས་	-485
བྱེད་པ།	-486
གྲུབ་	-487
གད	-488
ངང་	-489
གློག་	-490
དབྱིབས་	-491
གྱ	-492
བརྗ	-493
ཧ་	-494
བྱས་ན་	-495
ཁྱོད་ཀྱིས་	-496
རྟོགས་	-497
ནུས་པ་	-498
ཞུགས་	-499
ཆ་འཕྲིན་	-500
ཀྲུང་	-501
ཆེས་	-502
སྲུང་སྐྱ	-503
བཀོལ་སྤྱོད་	-504
བེད་སྤྱོད་	-505
ཡང་ན་	-506
ཡིད་	-507
ཚོར་	-508
ཀྱི་ཡོད།	-509
ྒྱུར་	-510
ཨང་	-511
རྩི་	-512
ཇི་ལྟར་	-513
ཅན་	-514
ིས།	-515
བསྒྲ	-516
བས།	-517
རྟགས་	-518
ཤེས་རྟོགས་	-519
སྐྲ	-520
འབྱུང་	-521
བུ་	-522
རྩོམ་	-523
གོ་རིམ་	-524
པོའི་	-525
ཆུ་	-526
འཕྲུལ་ཆས་	-527
བྱས་ཏེ།	-528
ཆེ་བའི་	-529
གྲོས་	-530
རང་འགུལ་	-531
ཇེ་	-532
སྟེ།	-533
ཚོགས་པའི་	-534
ཉེན་	-535
མ་ལག་	-536
ལྡོག་	-537
རོལ་	-538
བཀོད་	-539
མཚོན་	-540
བརྡར་	-541
སི་	-542
སྐྱོར་	-543
འདི་དག་	-544
ཕྱིར་	-545
གཤིས་	-546
འགྲོ་	-547
དེ་ནི་	-548
རི་	-549
རིང་	-550
ཐད་	-551
ཁྱབ་ཁོངས་	-552
ིལ་	-553
ངོས་	-554
སྟངས་	-555
ཧ་ཅང་	-556
ཐེབས་	-557
དུ་གཏོང་	-558
ཁྱེར་	-559
ཤུགས་རྐྱེན་	-560
རང་ཉིད་ཀྱི་	-561
རིན་	-562
སྤྱད་ནས་	-563
རྡ	-564
དགའ་	-565
མིག་	-566
ལྷག་	-567
ནང་དུ་	-568
ཐོན་རྫས་	-569
རླ	-570
པའི་སྒོ་ནས་	-571
མཐུད་	-572
▁གསུ	-573
ལོའི་	-574
མིས་བཟོས་	-575
འགོ་	-576
ཀུང་	-577
ིད།	-578
གས།	-579
▁གསུམ།	-580
ོར་ཡ	-581
གཉིས།	-582
རྣམས་	-583
གཞུང་	-584
རིས་	-585
རིག་གནས་	-586
བོ་	-587
ཞིང་།	-588
དེས་	-589
མཁོ་འདོན་	-590
སྤུས་	-591
མའི་	-592
ིམས་	-593
ིང་།	-594
ཅིག་	-595
རྒ	-596
སྦྱོང་བརྡར་	-597
ཁོར་ཡ	-598
ད་དུང་	-599
དཀ	-600
ལོན་	-601
ཐབས་ཇུས་	-602
ོ།	-603
རྩའི་	-604
སྨན་བཅོས་	-605
དཔེ་དབྱིབས་	-606
ཚིགས་	-607
འདིས་	-608
ཁོར་ཡུག་	-609
འོས་	-610
མར་	-611
སྲིད།	-612
རྒྱུར་	-613
ལས་རིགས་	-614
ལ་བརྟེན་ནས་	-615
ཤས་	-616
གཏན་འཁེལ་	-617
ཞེས་	-618
རྒྱབ་སྐྱོར་	-619
ོམས་	-620
ངོ་	-621
ཉུང་	-622
ཁྱིམ་	-623
བསྡུར་	-624
བཞི	-625
ིག	-626
ཆད་	-627
གཙོ་	-628
ཚུད་	-629
ཁྲིམས་	-630
དགོས་མཁོ་	-631
▁གཉིས།	-632
ཧྥ	-633
སྐྲུན་	-634
ཁྱེད་ཀྱི་	-635
རྩ་	-636
འཆར་གཞི་	-637
སྨྱ	-638
སྟོན་	-639
བཤེར་	-640
ཚོད་འཛིན་	-641
ཆེད་	-642
འམ་	-643
རྩི་ཐབས་	-644
ངེས་	-645
ེད།	-646
ཉམས་	-647
འཚོ་	-648
འབྲེལ་བ་	-649
སྲོལ་	-650
སློབ་སྦྱོང་གི་	-651
ལྗ	-652
ཁོ་ཚ	-653
བྱེད་པ་	-654
འབྲེལ་བའི་	-655
འདྲེན་	-656
རྒྱུས་ལོན་	-657
ལུགས་	-658
བསྐྱ	-659
མཁོ་མཁན་གྱི་	-660
རུང་	-661
འགན་ལེན་	-662
སྨྱན་	-663
གྲོང་ཁྱེར་	-664
ལུས་	-665
བརྒྱུད་རིམ་	-666
ཁྱེད་ལ་	-667
མིང་	-668
ཚེ་	-669
ཚབ་	-670
ཕྲ	-671
མཐོར་	-672
རྒྱག་	-673
བསམ་འཆར་	-674
ནོར་	-675
འབྱེད་	-676
གཉེར་	-677
མཇ	-678
ཞབས་ཞུ་	-679
ཁྱད་ཆོས་	-680
ཨ་	-681
ཆེན་པོ་	-682
am	-683
མཐོ་རུ་གཏོང་	-684
ཟབ་	-685
བྱ་སྤྱོད་	-686
མདོར་	-687
གཞིགས་ནས་	-688
བ་དང་།	-689
འདེད་	-690
དཔེར་ན་	-691
ཁེ་ལས་	-692
ལག་ཆ་	-693
མཚན་	-694
གཏོད་	-695
མཇུག་	-696
རང་གི་	-697
བསམ་བློ་	-698
རྒྱལ་ཁ	-699
གསང་	-700
རྒྱུའི་	-701
དམིགས་ཡུལ་	-702
ལི་	-703
མྱུར་	-704
ཁྲོད་ཀྱི་	-705
ཚེས་	-706
ཚད་དང་	-707
པ་ཞིག་	-708
ཁྲིད་	-709
ཡོ་	-710
མྱ	-711
ལྡན་པའི་	-712
འདེགས་	-713
ཡོང་བ་	-714
ཐོན་ཁུངས་	-715
ལ་དབྱེ་ཞིབ་	-716
ལན་	-717
ནས།	-718
དཔག་	-719
ུམ་	-720
མི་ཐབས་	-721
བརྗོད་	-722
དེར་	-723
ེའི་	-724
འཐ	-725
གཏོང་དགོས།	-726
on	-727
རྙ	-728
མཉམ་ལས་	-729
གཟུགས་	-730
ཆོད་	-731
ཡོངས་	-732
ཡག་	-733
འདོན་སྤྲོད་	-734
བྱས་པ་	-735
▁མདོར་	-736
འཁྱ	-737
སྟབས་	-738
རང་བྱུང་	-739
བད	-740
ཡོད་པ་རེད།	-741
སྒྲུབ་	-742
མྱོང་	-743
མཐོང་ཆུང་	-744
འགོག་	-745
རའི་	-746
བརྩེ་	-747
གཤམ་གྱི་	-748
ྭ་	-749
ལྟ་བ	-750
རྣམ་གྲངས་	-751
ཐེག་	-752
མངོན་འགྱུར་	-753
བར་གྱི་	-754
ཟིན་	-755
སྣོན་	-756
མོད།	-757
སྒྱུར་	-758
འབྱ	-759
བཞི།	-760
མིའི་རིགས་	-761
དམ།	-762
དབྱེ་འབྱེད་	-763
གླིང་	-764
▁བཞི།	-765
སྟེགས་	-766
མེ་	-767
er	-768
ཆེ་རུ་གཏོང་	-769
བསྒྲགས་	-770
ནང་དོན་	-771
བྱང་	-772
སྐྱེད་	-773
Ti	-774
▁མདོར་ན།	-775
ཕྱོད་	-776
རྒྱལ་ཁབ་	-777
ཕན་འབྲས་	-778
མོད།འོན་ཀྱང་	-779
ཁམས་	-780
ཅི་	-781
བརྩི་	-782
ལ་གཞིགས་ནས་	-783
ལས་ཀའི་	-784
སྒེར་	-785
བྱེད་ཀྱི་ཡོད།	-786
སྨྱན་སྦྱོར་	-787
ཉེན་ཁ་	-788
ཁག་ཐེག་	-789
ཁ་ཤས་	-790
ཁྲོད་དུ་	-791
རྒྱུ་རྐྱེན་	-792
བཟང་	-793
དོ་སྣང་	-794
སྔོན་དཔག་	-795
ཤོས་	-796
ངའི་	-797
ཉེར་	-798
མཁན་གྱིས་	-799
རབས་	-800
ལེགས་སུ་	-801
མཚམས་	-802
ངས།	-803
རེས་	-804
ཁྱོད་ལ་	-805
འགྲུལ་	-806
རྩེད་	-807
amb	-808
ཀུང་ས	-809
ཞིབ་འཇུག་	-810
Lamb	-811
TiLamb	-812
སྣ་ཚོགས་	-813
སྲུང་སྐྱོང་	-814
དྲ་ཚིགས་	-815
སྦྲ	-816
མཚུངས་	-817
མང་པོ་ཞིག་	-818
ཀྲུང་ག	-819
པོར་	-820
དེའི་ནང་	-821
ལོར་	-822
གསུམ་	-823
བྱ་དགོས་	-824
རྣམ་པ་	-825
ཕྱི་	-826
ི།	-827
ཞི་	-828
མི་རྣམས་	-829
ལ་རྒྱུས་ལོན་	-830
ལྗོངས་	-831
གཤམ་དུ་	-832
ོགས།	-833
གཏིང་	-834
བྱས་པའི་	-835
བྱ་རྒྱུ་	-836
ཉོ་	-837
མོའི་	-838
ེན།	-839
བསྐྱར་	-840
རླངས་	-841
མགྱ	-842
དམངས་	-843
ཐོག་ཏུ་	-844
སྐྱོད་	-845
ོན།	-846
འདེམས་	-847
ེབ་	-848
le	-849
▁གཅ	-850
བཀོད་སྒྲིག་	-851
ལས་ཀ་	-852
ཁྲོམ་	-853
མགྱོགས་	-854
ཅིང་།	-855
འབྲེལ་ཡོད་	-856
གྲངས་གཞི་	-857
གསར་གཏོད་	-858
ཇུས་འགོད་	-859
དེང་	-860
འདྲི་	-861
སྤུས་ཚད་	-862
སྐབས།	-863
སྤྱད་དེ་	-864
in	-865
ཉེར་སྤྱོད་	-866
ཞིག་ཡིན།	-867
བྱེད་སྟངས་	-868
སྤྲོ་	-869
གཞི་གྲངས་ཀྱི་	-870
ང་ལ་	-871
སྐྱོང་	-872
བརྟག་	-873
ཐོ་	-874
རང་བཞིན་དང་	-875
བསྡུ་	-876
མེད་པར་	-877
ལས་ཕྱོད་	-878
ཡང་དག་	-879
ཡོད་པ་	-880
བདེ་ཐང་	-881
ཚིག་	-882
དེ།	-883
དམག་	-884
གོ་སྐབས་	-885
ལྟ་བུ།	-886
སྲུང་སྐྱོབ་	-887
རྟེན་	-888
གཞིའི་	-889
གང་དག་	-890
གསར་སྤེལ་	-891
འམ་ཡང་ན་	-892
འཁྲབ་	-893
གཏིང་ཟབ་	-894
ཚོད་ལྟ་	-895
སྔར་ལས་ལྷག་	-896
སྐྱེས་	-897
ཐུབ་པ་	-898
ེམ་	-899
སྒྲིག་ཆས་	-900
འབེབས་	-901
བཙུགས་	-902
མཁན་ལ་	-903
མཐོར་འདེགས་	-904
ཐེངས་	-905
གཏུག་	-906
སྙན་	-907
or	-908
འབྱོར་	-909
གཏམ་	-910
གལ་ཆེན་	-911
བསྟར་	-912
ང་ཚོའི་	-913
འདོད་	-914
མཛོད་	-915
ནན་	-916
ཚད་ལེན་	-917
ཙམ་	-918
སྤྱོད་མཁན་གྱི་	-919
ེར།	-920
ནང་གི་	-921
སྒེར་གྱི་	-922
ལོ་རྒྱུས་	-923
ཞིབ་བཤེར་	-924
གསར་པ་	-925
མི་འདྲ་བའི་	-926
འབོར་	-927
ཀྲུང་གོའི་	-928
སྐར་	-929
གཞན་དག་	-930
ེས།	-931
རླངས་འཁོར་	-932
ཚུད་ཡོད།	-933
ཐོག་ནས་	-934
བུད་	-935
ཐ་	-936
རེའུ་	-937
ཐོན་སྐྱེད་	-938
འཁྱོངས་	-939
ལ་གྱི་	-940
སྟེང་	-941
གཡ	-942
སློབ་གས	-943
ཤོག་	-944
ཕོ་	-945
རྐང་	-946
ལག་རྩལ་གྱིས་	-947
བྱ་ཐབས་	-948
དགེ་	-949
ཀླ	-950
ུག	-951
འོས་འཚམ་	-952
སྡེ་	-953
མ་དངུལ་	-954
རོགས་བྱས་ནས་	-955
ལྟས་	-956
ཡག་པོ་	-957
ངལ་	-958
དམིགས་ཚད་	-959
སྔར་བས་	-960
ཡོད་པའི་	-961
ཁྱོད་ཀྱི་	-962
བསྒྱུར་	-963
ག་གི་	-964
བྱས་ཆོག	-965
▁གཅིག	-966
དུ།	-967
གདངས་	-968
▁ངས་	-969
ཤིག་ཡིན་	-970
བརྟག་དཔྱད་	-971
བུད་མེད་	-972
གཙོ་བོ་	-973
ཞུའི་	-974
རྒྱུན་འཁྱོངས་	-975
རྨ	-976
མི་སྣ་	-977
དེ་བས་ལེགས་	-978
དུས་ཐོག་ཏུ་	-979
བྱས་ཆོག་	-980
རིན་ཐང་	-981
རྫོང་	-982
ཕན་པ་	-983
ཁྱེད་རང་ལ་	-984
མཚོ་	-985
སྐུལ་འདེད་	-986
གྲོན་	-987
གྲགས་	-988
འགྲུབ་	-989
ལ་བརྟེན་པའི་	-990
ལག་བསྟར་	-991
འདིའི་	-992
འགྱུར་ལྡོག་	-993
མ་འ	-994
རང་བཞིན་གྱི་	-995
སྒོར་	-996
འང་	-997
th	-998
འགྲིག་	-999
གཏོང་ཐུབ།	-1000
རྡུལ་	-1001
ཚབ་ཨང་	-1002
རྩོད་	-1003
ཞིང་ཆེན་	-1004
ཚོགས་པའི་ཁོངས་	-1005
ཞིག་རེད།	-1006
ལ་ཤུགས་རྐྱེན་	-1007
མེད།	-1008
ལྟ་ཞིབ་	-1009
བརྩེ་དུང་	-1010
དབྱངས་	-1011
གྲོས་འགོ་	-1012
ལེགས་སྒྲིག་	-1013
གཏན་འབེབས་	-1014
བཅའ་	-1015
བཅས་ཀྱི་	-1016
གནམ་	-1017
བྱ་རིམ་	-1018
ལོའི་ཟླ་	-1019
ཇུས་གཞི་	-1020
ཁོང་ཚ	-1021
འདི་དག་གིས་	-1022
དཀའ་	-1023
དྲང་	-1024
དཔལ་	-1025
བསྡུས་	-1026
གྱུར་	-1027
སྐྱོན་	-1028
རེའུ་མིག་	-1029
ཁོ་ཚོའི་	-1030
སྤྱི་ཚོགས་ཀྱི་	-1031
དེ་བས་མང་	-1032
ཚོང་གཉེར་	-1033
རང་བྱུང་སྐད་	-1034
འདུ་	-1035
གཏད་	-1036
སྲིད་གཞུང་	-1037
ཐབས་ལམ་	-1038
སྟེ་	-1039
བརྩམས་	-1040
སོ་	-1041
སློང་	-1042
བཀག་	-1043
ཆེད་ལས་	-1044
འོག་	-1045
བྱས།	-1046
མི་འདྲ་བ་	-1047
བཀོལ་ནས་	-1048
དང་ལེན་	-1049
མ་འོངས་	-1050
ཤིང་	-1051
འབྲི་	-1052
དེ་བཞིན་	-1053
གྲོགས་	-1054
oo	-1055
ོའུ་	-1056
བརྩོན་	-1057
བལྟས་	-1058
དང་མཉམ་	-1059
སླ་	-1060
ལྕ	-1061
སྟོ	-1062
རེའི་	-1063
བོད་	-1064
འདྲ་མཉམ་	-1065
བཟུང་	-1066
མིའི་རིགས་ཀྱི་	-1067
གནད་དོན་ཐག་གཅོད་	-1068
ལྟ་སྐུལ་	-1069
སྐྱེ་	-1070
རེ་བ་	-1071
ུས།	-1072
རེད་	-1073
པ་ནི་	-1074
ལས་ཆོད་	-1075
སྒྲ་	-1076
མཛེས་	-1077
འདུས་	-1078
དགོས་མཁོ་དང་	-1079
ཡོ་བྱ	-1080
ཆགས་	-1081
ཆེར་	-1082
གསོག་	-1083
འབྲེལ་གཏུག་	-1084
སྐད་གདངས་	-1085
ལྡོག་འདྲེན་	-1086
ལེ་	-1087
པར་མ་ཟད།	-1088
▁གོང་	-1089
ཉེ་	-1090
དྲག་	-1091
ཤེས་བྱ་	-1092
ཐིག་	-1093
ཁ་གཏད་	-1094
གཙང་	-1095
སློབ་གསོའི་	-1096
དེབ་	-1097
བརྒ	-1098
ཡིད་ཆེས་	-1099
བྱེད་ཀྱི་	-1100
ཚུན་	-1101
ཟློས་	-1102
རྒོལ་	-1103
སམ་	-1104
མཉེན་	-1105
འགྲིམ་	-1106
ུའེ་	-1107
མུ་	-1108
རིགས་རྒྱུད་	-1109
ས་ཁུལ་	-1110
ཡུན་	-1111
བྱས་ཡོད།	-1112
སྟབས་བདེ་	-1113
ཉི་	-1114
མིན་པའི་	-1115
ཅེས་	-1116
བཞག་	-1117
ུར།	-1118
སོགས་ལྟ་བུ།	-1119
ཁང་གི་	-1120
ཀ་	-1121
གནོན་	-1122
བརྙན་རིས་	-1123
ཡོད་པས་	-1124
ཐེ་	-1125
ོར།	-1126
སྟོབས་	-1127
ཡ་	-1128
སྤྱིའི་	-1129
མོང་	-1130
ཅུང་	-1131
རི་མོ་	-1132
རྟོག་	-1133
ད་སྤྱོད་	-1134
ཡོན་	-1135
འགལ་	-1136
འོས་འཚམ་གྱི་	-1137
ཉུང་དུ་གཏོང་	-1138
རང་འགུལ་ངང་	-1139
འཕྲད་	-1140
སོང་	-1141
བཞིན་ཡོད།	-1142
ཡོད་དེ།	-1143
རྩེ་	-1144
འཕྲུལ་འཁོར་	-1145
ཀུན་	-1146
ལྷོད་	-1147
ཟེར།	-1148
གདམ་	-1149
སྐོར་གྱི་	-1150
དམིགས་བས	-1151
པེ་	-1152
འདི་ནི་	-1153
མ་ཟད་	-1154
འགྲིམ་འགྲུལ་	-1155
དམའ་	-1156
སྤེལ་རེས་	-1157
རྒན་	-1158
སྔོན་ལ་	-1159
ཕན་པ་ཡོད།	-1160
དཔལ་འབྱོར་	-1161
བརྡའི་	-1162
ཚུགས་	-1163
གཤམ་གསལ་	-1164
འཚམ་པའི་	-1165
དར་	-1166
ཚད།	-1167
དཀར་	-1168
སྤོ་	-1169
ཆའི་	-1170
འདེབས་	-1171
འགྲན་བསྡུར་	-1172
ཞིག་ཡིན་ཞིང་།	-1173
ཐུང་	-1174
མི་སྒེར་གྱི་	-1175
འགག་	-1176
བྱེད་སྐབས་	-1177
གླེང་	-1178
བ་ནི་	-1179
ཡོ་བྱད་	-1180
འཛིང་	-1181
ཕན་ཚུན་	-1182
བེད་སྤྱད་ནས་	-1183
ཚགས་	-1184
འདེམ་	-1185
དབྱི་	-1186
ཐུབ་པའི་	-1187
སློབ་གསོ་	-1188
གྲས་	-1189
སློབ་སྦྱོང་དང་	-1190
ཅིན་	-1191
ཐུན་	-1192
འཛད་སྤྱོད་	-1193
ཚོང་རྟགས་	-1194
དྲ་ཐོག་	-1195
བསྟུན་	-1196
ཆབས་	-1197
མཉེན་ཆས་	-1198
འགྲན་སློང་	-1199
སྙོམས་	-1200
གྲུབ་འབྲས་	-1201
དང་འབྲེལ་བ་	-1202
ིའུ་	-1203
ཇི་ལྟར་བྱས་ནས་	-1204
ཤ་	-1205
བདག་	-1206
དུ་འཇུག་	-1207
བརྡ་ཁྱབ་	-1208
ལེགས་པོ་	-1209
པའམ་ཡང་ན་	-1210
འབྲེལ་འདྲ	-1211
re	-1212
རོལ་རྩེད་	-1213
ཁྲོམ་རའི་	-1214
བདེའི་	-1215
ཆབས་ཅིག་	-1216
རིག་ནུས་ལག་རྩལ་	-1217
བྱེད་ནུས་	-1218
མཐའ་	-1219
བསམ་ཚུལ་	-1220
བྱེད་ཆོག་	-1221
འབྲེལ་འདྲིས་	-1222
རང་འགུལ་ཅན་གྱི་	-1223
དབྱིན་	-1224
འགྲན་རྩོད་	-1225
རྙོག་	-1226
བརྒལ་	-1227
Py	-1228
སྙིང་	-1229
ཀུང་སིའི་	-1230
རང་བཞིན་ལ་	-1231
an	-1232
མུ་མཐུད་	-1233
དུས་མཚུངས་	-1234
ཁུར་	-1235
གནོད་	-1236
སྡོད་	-1237
འགྱ	-1238
བྱེད་སྒོ་	-1239
ལེགས་སུ་གཏོང་	-1240
ཁྱོན་	-1241
ས་གནས་	-1242
ཐབས་ཤེས་	-1243
ཉམས་མྱོང་	-1244
thon	-1245
བཅའ་ཁྲིམས་	-1246
ཐུན་མོང་	-1247
རིག་ནུས་ཀྱིས་	-1248
ཡུལ་སྐོར་	-1249
སྒྱ	-1250
ཁྱིམ་ཚང་	-1251
དོན་དངོས་	-1252
དེ་བས་མང་བ་	-1253
གཞན་ཡང་	-1254
རླུང་	-1255
དབྱང་	-1256
གློག་རྡུལ་	-1257
ཚང་མ་	-1258
ཁོ་ཚོས་	-1259
ཱ་	-1260
སྐྱེལ་	-1261
དེ་ལས་	-1262
རིན་གོང་	-1263
མགོ་	-1264
གལ་ཆ	-1265
ཡོང་བ་བྱེད་དགོས།	-1266
ལེགས་བཅོས་	-1267
ཀློག་	-1268
བདམས་	-1269
སྒུལ་	-1270
རིགས་དབྱེ་	-1271
ཞིག་ཏུ་	-1272
སུ།	-1273
ཚད་གཞི་	-1274
ུགས།	-1275
འགྲེམས་	-1276
འཁྲུལ་	-1277
ཞིག་ཡིན་པས།	-1278
རྙོག་འཛིང་	-1279
ཤུགས་སྣོན་	-1280
ཚོང་རའི་	-1281
བཏོན་	-1282
ཚོད་སྐོར་	-1283
at	-1284
བྱས་པ་བརྒྱུད་	-1285
རྒྱུན་ཆད་	-1286
གཅིག་ཏུ་	-1287
ུའོ་	-1288
ཞབས་ཞུའི་	-1289
ངོ་སྤྲོད་	-1290
བྱེད་ཆོག	-1291
བརྩི་འཇོག་	-1292
ལོག་	-1293
ཉར་	-1294
མ་གནས་	-1295
ཟོག་	-1296
ཡོད་པས།	-1297
རྒྱུན་མཐུད་	-1298
འབབ་	-1299
ལྡན་གྱི་	-1300
ནོར་འཁྲུལ་	-1301
ཕྱིན་	-1302
en	-1303
བསྐྲུན་	-1304
འདུག	-1305
ལྔ	-1306
རྒྱུན་ཆད་མེད་པར་	-1307
འཇལ་	-1308
ཁྲི་	-1309
ཡོད་དམ།	-1310
འཕར་	-1311
མ་འཇོག་	-1312
བཟོ་དགོས།	-1313
བརྟན་	-1314
གཞག་	-1315
དང་མི་	-1316
དྲན་	-1317
རྩོམ་ཡིག་	-1318
པོས་	-1319
དབང་རྩའི་	-1320
གདོང་	-1321
▁AI	-1322
བ་རེད།	-1323
འཛམ་	-1324
it	-1325
ལག་ལེན་	-1326
མཁོ་མཁན་	-1327
རྒྱུགས་	-1328
འཛམ་གླིང་	-1329
ཚང་མར་	-1330
རང་གཤིས་	-1331
སྲོག་	-1332
བྲིས་	-1333
བྱས་ན།	-1334
ཚད་ལ་	-1335
རྒྱའི་	-1336
ཕ་	-1337
ཤིང་།	-1338
རིམ་པ་	-1339
བཅུག་	-1340
ཀུང་སི་	-1341
ངོས་འཛིན་	-1342
ེག་	-1343
རེར་	-1344
ཀྲོའུ་	-1345
ཧུར་	-1346
མཉམ་སྤྱོད་	-1347
མེད་པའི་	-1348
མ་དཔེ་	-1349
Python	-1350
ལས་དོན་	-1351
གང་འདྲ་	-1352
བོའི་	-1353
ཚད་མཐོ་རུ་གཏོང་	-1354
རྒྱུ་རེད།	-1355
བྱེད་པ་དང་	-1356
ཡིག་ཆ་	-1357
འཚོ་བ་	-1358
ཡིན་པ་	-1359
རྩ་འཛུགས་	-1360
སྤྲོ་སྣང་	-1361
གི་རེད།	-1362
ུལ།	-1363
ཨུ་	-1364
ཁྱབ་ཁོངས་སུ་	-1365
བྱེད་པར་རོགས་རམ་	-1366
ཆུང་དུ་གཏོང་	-1367
ང་ཚོར་	-1368
གི་ཡོད།	-1369
མཁས་	-1370
འཐུས་	-1371
སྒོའི་	-1372
བྱེད་མི་	-1373
ཐོབ་ཐང་	-1374
པར་དུ་	-1375
གདེང་	-1376
འཕེལ་ཕྱོགས་	-1377
ཚན་རིག་	-1378
སློབ་ཚན་	-1379
འཚམས་	-1380
རྙེད་	-1381
དུས་ཚོད་དང་	-1382
རུ་ཁག་	-1383
ཡོང་བར་	-1384
གླུ་	-1385
ལས་བཟོ་	-1386
མཇུག་འབྲས་	-1387
སློབ་མའི་	-1388
སམ།	-1389
▁དེ་	-1390
དགོས་པ་མ་ཟད།	-1391
འཚོ་བའི་	-1392
བྱེ་	-1393
ཆེ་བ་	-1394
བཏང་ནས་	-1395
བཞི་	-1396
བྱའི་	-1397
སོགས་ཚུད་ཡོད།	-1398
ལ་བསམ་བློ་	-1399
ཧྲི་	-1400
བསམ་གཞིགས་	-1401
སྦྲེལ་	-1402
ན་ཏ	-1403
མི་སྣ	-1404
གྲུ་	-1405
འབྱུང་འགྱུར་	-1406
མགྱོགས་མྱུར་	-1407
ཧྲིལ་	-1408
སེམས་ཁམས་	-1409
བཟའ་	-1410
མོས་	-1411
ཉན་	-1412
མཐོ་བའི་	-1413
ཟས་	-1414
དངུལ་རྩའི་	-1415
རྨང་	-1416
གཞོན་	-1417
རྩལ་ནུས་	-1418
གདེང་འཇོག་	-1419
པོ།	-1420
བརྗེ་	-1421
གོ་བ་	-1422
▁ཁྱེད་རང་གི་	-1423
ཁྱེད་རང་གིས་	-1424
དཔེ་དབྱིབས་ཀྱི་	-1425
འདང་	-1426
གར་	-1427
ལག་རྩལ་གྱི་	-1428
ཞིག་གི་	-1429
ar	-1430
བསྒྲུབ་	-1431
ཤར་	-1432
བྱེད་མཁན་	-1433
བལྟས་ན་	-1434
ཁུལ་གྱི་	-1435
ཞིབ་ཕྲ	-1436
སྟེགས་བུ་	-1437
ཇེ་མཐོར་	-1438
ཕྱོགས་ཀྱི་	-1439
ཐོན་རྫས་ཀྱི་	-1440
ཐབས།	-1441
འབད་	-1442
བཟོའི་	-1443
ཀུན་སྤྱོད་	-1444
ཕན་ནུས་	-1445
ac	-1446
ཁའི་	-1447
རོགས།	-1448
རོལ་དབྱངས་	-1449
སྒྱུ་	-1450
བཅུ་	-1451
ལས་རོགས་	-1452
སློབ་གྲ	-1453
སྤྱིར་	-1454
ཞིབ་ཕྲའི་	-1455
བསམ་གཞ	-1456
རྒྱུན་དུ་	-1457
དམིགས་བསལ་གྱི་	-1458
st	-1459
ཁྱབ་བསྒྲགས་	-1460
དགོས་པའི་	-1461
ལྟ་བུ་	-1462
ཤིག་ཡིན།	-1463
ཉམས་ལེན་	-1464
སའི་	-1465
ཡོད་ཅིང་།	-1466
འོད་	-1467
བཤད་ན།	-1468
སླེབས་	-1469
ཕྲ་	-1470
མདུན་	-1471
ཐུབ་པ་མ་ཟད།	-1472
ཚན་རྩལ་	-1473
སྐྱིད་	-1474
ཡོངས་ཀྱི་	-1475
བརྒྱབ་	-1476
རྩིས་རྒྱག་	-1477
ལྟའི་	-1478
ུན་གྱི་	-1479
▁-	-1480
རང་ལ་	-1481
དེ་དང་	-1482
དབང་རྩའི་དྲ་	-1483
ཚོགས་ཀྱི་	-1484
འབོར་ཆེན་	-1485
བློ་རྩེ་	-1486
དཔོན་	-1487
སྲིད་ཇུས་	-1488
གནང་	-1489
འགན་འཁྲ	-1490
lo	-1491
འི	-1492
པ་སྟེ།	-1493
གནོན་ཤུགས་	-1494
ཁོང་ཚོའི་	-1495
▁གལ་ཏེ་	-1496
འོས་སྦྱོར་	-1497
གཏོང་བའི་	-1498
སྟོང་	-1499
བརྟེན།	-1500
ལྟེ་	-1501
ནི་ཧ་ཅང་	-1502
ཅིང་	-1503
གསར་འགྱུར་	-1504
རབས་ཀྱི་	-1505
འཁུར་	-1506
ཡིན་ཞིང་།	-1507
མི་དམངས་	-1508
ཞིག་གིས་	-1509
ལ་སྲུང་སྐྱོབ་	-1510
སྡེབ་	-1511
ཁ་པར་	-1512
འགའ་ཡོད་དེ།	-1513
ལྷ་	-1514
བསམ་གཞིག་	-1515
སྨི་	-1516
དགོས་མཁ	-1517
འདིར་	-1518
ཏོག་	-1519
ཐ་སྙ	-1520
བྱེད་པ་དང་།	-1521
ཁྲལ་	-1522
སྒྱུ་རྩལ་	-1523
གཞིར་	-1524
རྗེས་འདེད་	-1525
ཕོ་མོའི་	-1526
ནུས་པ་དང་	-1527
ཡིན་པས།	-1528
འཚོལ་ཞིབ་	-1529
བྱུང་བའི་	-1530
རྒྱུར་རོགས་རམ་	-1531
དང་པོ་	-1532
རྟེན་འབྱུང་	-1533
སྐད་ཆ་	-1534
གློག་བརྙན་	-1535
ནམ་	-1536
ཧྭ་	-1537
དེར་བརྟེན།	-1538
ལིན་	-1539
ཡིན་པའི་	-1540
དེ་རིགས་	-1541
གནད་དོན་ལ་	-1542
གེ་	-1543
al	-1544
དགའ་ཕྱོགས་	-1545
རང་བྱུང་སྐད་བརྡ་	-1546
གྲོང་ཁྱེར་གྱི་	-1547
རང་གཤིས་ཅན་གྱི་	-1548
ཡིད་ཚ	-1549
ལུས་རྩལ་	-1550
བྱས་ཚེ་	-1551
ཐོག་མར་	-1552
ལེགས་འགྲུབ་	-1553
ཆེ་རུ་	-1554
ཐད་ཀྱི་	-1555
རིག་ནུས་ཀྱི་	-1556
ལྷོ་	-1557
མ་དངུལ་འཇོག་	-1558
གོམས་	-1559
དང་མཐུན་	-1560
རྟེན་འབྱུང་གྲངས་	-1561
རྩིས་འཁོར་	-1562
ལྕགས་	-1563
ཐ་སྙད་	-1564
ཆོག་སྟེ།	-1565
བྱ་རྒྱུའི་	-1566
ཚོ་	-1567
མི་འདྲ་བར་	-1568
ལ་སྐུལ་འདེད་	-1569
འཁོར་སྐྱོད་	-1570
ཕོག་	-1571
བྱེད་དགོས་པའི་	-1572
ལ་རྒྱབ་སྐྱོར་	-1573
སྐུལ་མ་	-1574
ཁེ་ལས་ཀྱིས་	-1575
ཞིབ།	-1576
བྱས་པ་རེད།	-1577
སྔ་	-1578
ལྟ་ཞིབ་ཚད་ལེན་	-1579
▁གོང་གི་	-1580
མཉམ་དུ་	-1581
མངའ་	-1582
ཆེ་ཤོས་	-1583
སྦྲག་	-1584
རྩོམ་སྒྲིག་	-1585
ང་གི་	-1586
སློབ་ཁྲིད་	-1587
སྡུག་	-1588
དགོས།དཔེར་ན།	-1589
ལ་བ	-1590
མུ་མཐུད་དུ་	-1591
ལས་རིགས་ཀྱི་	-1592
རེ་རེའི་	-1593
ཤིན་	-1594
རིགས་ཀྱི་	-1595
ཞན་	-1596
བཅད་	-1597
པུའུ་	-1598
དྲིལ་	-1599
གའི་	-1600
མཆ	-1601
ཡན་	-1602
ཡོང་བའི་	-1603
▁འོན་ཀྱང་	-1604
སྡོམ་	-1605
སྐུ་	-1606
ཚལ་	-1607
མི་དང་	-1608
ཆབ་	-1609
མི་རྣམས་ཀྱིས་	-1610
གནོད་འཚ	-1611
ཆུད་	-1612
བློ་རྩེ་གཅིག་ཏུ་	-1613
ཁོ་ཚོར་	-1614
བྱ་བ་	-1615
ཁྱད་པར་	-1616
རྟོན་	-1617
སྣེ་	-1618
གསོ་སྦྱོང་	-1619
སེལ་	-1620
སྔར་ལས་ལེགས་	-1621
ལུའུ་	-1622
འབྲེལ་ཡོད་ཀྱི་	-1623
འཛུགས་སྐྲུན་	-1624
བགོ་	-1625
བཏང་སྟེ་	-1626
འཚོང་	-1627
ལྟར་བྱས་ན་	-1628
གལ་ཆེའི་	-1629
ཡིད་རྟོན་	-1630
དགེ་རྒན་	-1631
དེའི་ནང་དུ་	-1632
རྒྱུ་ཡིན།	-1633
རྒྱུན་གྱི་	-1634
རུང་།	-1635
འཚམས་འདྲི་	-1636
ཡོད་པ་དང་།	-1637
བྱེ་བྲ	-1638
ཐོག་གི་	-1639
རང་ཉིད་ལ་	-1640
ནུབ་	-1641
གནད་འཁེལ་	-1642
དེ་དག་གིས་	-1643
ལེགས་སྒྱུར་	-1644
དཔོག་	-1645
འཐབ་	-1646
ཟུར་	-1647
འདུ་ཤེས་	-1648
ཚང་མས་	-1649
ཏ་	-1650
གཏམ་རྒྱུད་	-1651
ཡར་	-1652
ཁོང་གིས་	-1653
▁༢	-1654
གཏོགས་	-1655
དྲང་གཞག་	-1656
གཤིས་ནུས་	-1657
གསལ་བཤད་	-1658
པ་དཔེར་ན།	-1659
ཀྲུང་གོ་	-1660
ལ་དོ་སྣང་	-1661
རྒྱུན་མཐོང་	-1662
ཅ་	-1663
གཤམ་ནི་	-1664
འཕྲུལ་ཆས་ཀྱི་	-1665
ལས་སྟེགས་	-1666
སྐོང་	-1667
བྱ་དགའ་	-1668
ཡིག་ཆའི་	-1669
ལས་བརྒལ་	-1670
སྐར་མ་	-1671
ལས།	-1672
ཚོས་	-1673
om	-1674
དམིགས་འབ	-1675
སློབ་མ་	-1676
བྱེད་སྐབས།	-1677
ཐོགས་	-1678
མ་འོངས་པའི་	-1679
ཧོ་	-1680
ལ་ཤུགས་སྣོན་	-1681
as	-1682
དུས་བཀག་	-1683
ཐུབ་པ་བྱེད་དགོས།	-1684
ཀྲང་	-1685
ལག་རྩལ་དང་	-1686
མི་གཞན་	-1687
བླངས་	-1688
སོ་ས	-1689
འགྲེལ་	-1690
གོས་	-1691
མེད་ཀྱི་	-1692
ལས་ཁུངས་	-1693
བབ་	-1694
འབད་བརྩོན་	-1695
ཡང་དག་པའི་	-1696
ཁྲོད་དུ།	-1697
དོན།	-1698
དབྱེ་ཞིབ།	-1699
ཕལ་	-1700
ཟ་	-1701
ཡུན་རིང་	-1702
གནམ་གཤིས་	-1703
ནང་ཞུགས་	-1704
ལྔ་	-1705
རྗེས།	-1706
དང་མཉམ་ལས་	-1707
གནོད་འཚེ་	-1708
བྱ་རིམ་སྒྲིག་	-1709
བྱེད་པ་མ་ཟད།	-1710
རྣམ་པའི་	-1711
སྔོན་འགོག་	-1712
དམིགས་འབེན་	-1713
པར།	-1714
ཡོད་ན།	-1715
རིག་གནས་ཀྱི་	-1716
ལྷན་	-1717
སྡུད་	-1718
ཧྥུ་	-1719
གཞིགས་ན།	-1720
ནུས་ཤུགས་	-1721
འཛུགས་དགོས།	-1722
ལན་འདེབས་	-1723
ཤོར་	-1724
ལས་ཕྱོད་དང་	-1725
གཞི་གྲངས་ལ་	-1726
ཡིན་པ་དང་།	-1727
ཉོ་སྒྲུབ་	-1728
▁--	-1729
བརྩམས་ཆོས་	-1730
འཛད་སྤྱོད་པའི་	-1731
ལོངས་	-1732
མ་ལག་གི་	-1733
སྤྱོད་མཁན་གྱིས་	-1734
ཛ་	-1735
འགན་འཁྲི་	-1736
དྲ་རྒྱའི་	-1737
ཁེ་ལས་ཀྱི་	-1738
དྲོད་	-1739
བསྡོམས་	-1740
གསར་བ་	-1741
འཆར་འགོད་	-1742
དྲ་ཚིགས་ཀྱི་	-1743
སྤྲད་	-1744
ཝུའུ་	-1745
ཡིད་ཚིམ་	-1746
ལས་འག	-1747
མཇུག་མཐ	-1748
ཆ་དང་	-1749
ཚོད་ལྟའི་	-1750
གྲ་	-1751
ཞེས་པའི་	-1752
རྒྱ་ཁྱབ་	-1753
ཞིག་ལ་	-1754
རྔ	-1755
དེ་གའི་	-1756
མིན།	-1757
གྱི་ཡོད།	-1758
ལས་གནས་	-1759
རྒྱུན་མཐོང་གི་	-1760
སུམ་	-1761
སྣ་མང་	-1762
བསྐ	-1763
ཐོར་	-1764
གསང་དོན་	-1765
ལ་རོགས་རམ་	-1766
བྱིས་	-1767
ed	-1768
ཆེད།	-1769
བདེ་འཇགས་ཀྱི་	-1770
ཟམ་	-1771
གསོ་རིག་	-1772
ཡོད་མོད།འོན་ཀྱང་	-1773
དགོས་མཁོར་	-1774
མུའུ་	-1775
ཀུང་སིས་	-1776
ངན་	-1777
འདོད།	-1778
ནི།	-1779
སྟབས་བདེའི་	-1780
སློབ་ཆེན་	-1781
རྒྱུ་མཚན་	-1782
བྱེད་དུ་འཇུག་	-1783
ཤུགས་རྐྱེན་ཐེབས་	-1784
དང་ཐག་གཅོད་	-1785
འཛིན།	-1786
གོ་བ་ལེན་	-1787
ཝང་	-1788
སིའི་	-1789
བག་	-1790
ཚ་	-1791
ཚོགས་སྤྱི་	-1792
དགོས་པ་	-1793
བྱ་བའི་	-1794
ཆབ་སྲིད་	-1795
བློ་ཡིད་ཚིམ་	-1796
ཝེ་	-1797
ར་སྤྲོད་	-1798
དོན་རྐྱེན་	-1799
བཟོ་བ།	-1800
ཐུག་	-1801
▁བ་	-1802
གཤམ་གསལ་གྱི་	-1803
ཆད་པར་	-1804
ལས་ཞུགས་	-1805
མྱུར་ཚད་	-1806
གདན་	-1807
ནད་པའི་	-1808
སྒྲོམ་	-1809
པར་ཁག་ཐེག་	-1810
གསལ་པོ་	-1811
ཨེ་	-1812
རྒྱུན་ལྡན་	-1813
ལྟ་བ་	-1814
བརྩི་སྲུང་	-1815
ཡིན་ན	-1816
བྱེད་རོགས་	-1817
དཔྱད་དཔོག་	-1818
དུག་	-1819
ནག་	-1820
སོགས་ཡིན།	-1821
བརླ	-1822
བམ།	-1823
ཉུང་དུ་	-1824
དང་དབྱེ་ཞིབ་	-1825
རྒྱབ་ལྗོངས་	-1826
འཕེལ་རྒྱས་ཀྱི་	-1827
སྟེང་དུ་	-1828
ཉོ་ཚོང་	-1829
མ་རྐང་	-1830
▁TiLamb	-1831
སྐད་བརྡ་	-1832
ic	-1833
བཟོས་ནས་	-1834
བསྟན་	-1835
རང་གིས་	-1836
གནའ་	-1837
བྲིན་	-1838
ཞའོ་	-1839
བརྙན་ལམ་	-1840
མཁའ་	-1841
ཡའི་	-1842
ངེས་པར་དུ་	-1843
རྣམ་གྲངས་ཀྱི་	-1844
གནད་ལ་	-1845
ཕུལ་	-1846
གྲ་སྒྲིག་	-1847
འགུག་	-1848
ཕལ་ཆེར་	-1849
རྒྱལ་སྤྱིའི་	-1850
ཁྱིམ་ཆས་	-1851
སྲིད་གཞུང་གིས་	-1852
ནུས་ལྡན་གྱི་	-1853
བཙུགས་ནས་	-1854
དུམ་	-1855
ཁ་སྣོན་	-1856
ནུས་ཁུངས་	-1857
སླར་	-1858
ཆུང་ཆུང་	-1859
ཆག་	-1860
འ།	-1861
མགྲོན་	-1862
ཁྲོད་ནས་	-1863
བྲོ་	-1864
གཞི་རྩའི་	-1865
ཐོབ་པའི་	-1866
དད་	-1867
ཡིད་དབང་	-1868
བཞིན།	-1869
ཅན་དང་	-1870
▁ངའི་	-1871
སྔར་བཞིན་	-1872
མོལ་	-1873
དེ་ནས་	-1874
འདུག་	-1875
སྐྱེ་དངོས་	-1876
ཁ་ཕྱོགས་	-1877
དུས་ཚོད་ཀྱི་	-1878
མི་ཆད་པར་	-1879
གཞས་	-1880
གསལ།	-1881
རིའི་	-1882
དུ་བཅུག་	-1883
མཛུབ་	-1884
བཟོ་སྐྲུན་	-1885
འདྲེས་	-1886
ཕོ་མོའི་དབྱེ་	-1887
གི་ཡོད་པ་རེད།	-1888
ཚུར་	-1889
ཞུས་	-1890
བསྲ	-1891
མང་པོའི་	-1892
རང་བཞིན།	-1893
གཉིས་ཀྱི་	-1894
ཟབ་མོ་	-1895
བློས་	-1896
དམར་	-1897
ཆུ་ཚོད་	-1898
རྗེ་	-1899
བསྡུ་ལེན་	-1900
ཧན་	-1901
མི་རྣམས་ལ་	-1902
རྒྱུན་པར་	-1903
པ་བྱེད་དགོས།	-1904
ངེས་ཅན་	-1905
སྔའི་	-1906
འགའ་ཡིན།	-1907
ཆ།	-1908
བོར་	-1909
མི་ཐབས་ཀྱི་	-1910
ཁུག་	-1911
ཀྲུའུ་	-1912
གནས་ཚུལ་ལ་	-1913
བརྒྱུད་དེ་	-1914
ཤེ་	-1915
eb	-1916
དང་རྒྱབ་སྐྱོར་	-1917
གཏོང་བ།	-1918
ལུང་	-1919
མང་དུ་གཏོང་	-1920
རྒྱལ་ཁབ་ཀྱི་	-1921
དབར་གྱི་	-1922
བདེ་ཐང་གི་	-1923
བྱེད་པ་ནི་	-1924
མཚམས་སྦྱོར་	-1925
རིགས།	-1926
ངོས་ནས་	-1927
མིར་	-1928
གམ།	-1929
ཚོའི་	-1930
ཚོགས་འད	-1931
དོ་དམ་གྱི་	-1932
བརྒྱ	-1933
ཐུབ་པ་དང་།	-1934
ཐའེ་	-1935
ཧྥ་	-1936
བགྲ	-1937
པོ་དང་	-1938
བླང་	-1939
འབྱུང་ཁུངས་	-1940
ཁ་ད	-1941
ཆེད་ལས་ཀྱི་	-1942
ཕུའུ་	-1943
བུའི་	-1944
པ་དེ་	-1945
ཉིན།	-1946
ཆེ་རུ་གཏོང་དགོས།	-1947
ཞིབ་ཕྲ་	-1948
ཧྲན་	-1949
མིང་ལ་	-1950
ཞེས་པ་ནི་	-1951
དྲིལ་བསྒྲགས་	-1952
སྐད་གྲགས་	-1953
སྨྱན་སྦྱོར་གྱི་	-1954
སྟོབས་ཤུགས་	-1955
ཁོང་གི་	-1956
དང་མཉམ་དུ་	-1957
ཕྱོགས་བསྡུས་	-1958
གོ་ལ་	-1959
སྔར་ལས་ལེགས་པར་	-1960
གཞན་པའི་	-1961
བྱས་རྗེས་	-1962
འགྲེལ་བཤད་	-1963
མགྱོགས་མྱུར་ངང་	-1964
ུན།	-1965
སྐད་ཡིག་	-1966
སྲོལ་རྒྱུན་	-1967
ལུགས་ཀྱི་	-1968
ཉེས་	-1969
སྒྲིལ་	-1970
ཁ་གསལ་	-1971
ཕུང་	-1972
རྒྱུ་ཆ་	-1973
ས་གནས་དེ་གའི་	-1974
བྱེད་ཐུབ།དཔེར་ན།	-1975
མདོག་	-1976
ངལ་གསོ་	-1977
འཕེལ་རྒྱས་འགྲོ་	-1978
ཨན་	-1979
འཁྲབ་སྟོན་	-1980
གནད་ལ་འཁེལ་	-1981
དགའ་པོ་	-1982
རྩལ།	-1983
རོགས་པ་	-1984
ཅན་དུ་	-1985
བརྙན་འཕྲིན་	-1986
དབུལ་	-1987
ཁྱིམ་ཚང་གི་	-1988
སྦྲག་རྫས་	-1989
འཕེལ་རྒྱས་དང་	-1990
རྡོ་	-1991
ཡུས་	-1992
ཧའེ་	-1993
གྲངས།	-1994
ཚོང་ལས་	-1995
འགོ་ཁྲིད་	-1996
ཁོང་དུ་	-1997
ྭའི་	-1998
རྒྱུ་དང་	-1999
རྒྱུ་མཚན་ནི་	-2000
མ་ལག་གིས་	-2001
ཏུང་	-2002
es	-2003
ཆུ་ཚད་	-2004
ur	-2005
དུས་མཚུངས་སུ་	-2006
བྱེད་དགོས་པ་	-2007
བདེན་	-2008
མཁོ་མཁན་ལ་	-2009
ལས་འགན་གྱི་	-2010
སྲོལ་རྒྱུན་གྱི་	-2011
ལ་ཞིབ་བཤེར་	-2012
བྱ་འགུལ་	-2013
མཐུན་གྱི་	-2014
ལག་རྩལ་དེ་	-2015
ལགས་	-2016
གཏིང་ཟབ་པའི་	-2017
བསམ་ཤེས་	-2018
ཁོང་དུ་ཆུད་	-2019
མཚན་ཉིད་	-2020
རྒྱུ་དེ་	-2021
གྱོན་	-2022
བྱུང་བ་	-2023
འདྲ་མཉམ་གྱི་	-2024
དོ་དམ་དང་	-2025
བྱས་པར་	-2026
བྱེ་བྲག་གི་	-2027
བཙལ་	-2028
འཕྲུལ་མིའི་	-2029
ུའ	-2030
ཡང་བསྐྱར་	-2031
དགོས་ན།	-2032
གློ་	-2033
ཅི་ཞིག་	-2034
གླ་	-2035
རྐྱང་	-2036
ཐག་གཅོད་ཇུས་གཞི་	-2037
བྱ་རྒྱུར་	-2038
ད་གཟ	-2039
ལས་སྒོའི་	-2040
▁S	-2041
ངར་	-2042
ད་གཟོད་	-2043
ེལ།	-2044
ཀར་	-2045
ཁྱབ་གད	-2046
རག་	-2047
རྣམ་འགྱུར་	-2048
བྲིན་ཚོང་	-2049
འཇིགས་	-2050
གདམ་ག་	-2051
འདས་	-2052
et	-2053
དོ་ཁུར་	-2054
ཟུང་	-2055
ཕྱེ་	-2056
མཐར་	-2057
ཛ་དྲག་	-2058
བཙོག་	-2059
མཉམ་འབྲེལ་	-2060
དོད་	-2061
སྨན་པས་	-2062
མཐུན་སྦྱོར་	-2063
འཕྲོག་	-2064
སྤྱོད་དགོས།	-2065
ཐེབས་པའི་	-2066
▁བ་དམ	-2067
ཅུས་	-2068
མང་པོ་ཞིག་གིས་	-2069
བྲལ་	-2070
ཉིང་	-2071
ཤིག་ཡིན་ཞིང་།	-2072
ངག་	-2073
སྨན་རྫས་	-2074
སྨྱན་གཟུགས་	-2075
འཆ	-2076
ངེས་ཀྱི་	-2077
པའམ་	-2078
ཁེ་ཕན་	-2079
པིན་	-2080
པར་རིས་	-2081
gle	-2082
བསྔ	-2083
ཀོང་	-2084
བཙན་	-2085
ུ་ག	-2086
གང་རུང་	-2087
སྤྱོད་ཀྱི་	-2088
ag	-2089
དབྱེ་ཞིབ་དང་	-2090
འདུན་	-2091
དུས་བཀག་ལྟར་	-2092
པ་ཞིག་རེད།	-2093
ཁོངས་སུ་	-2094
ལ་ཞུགས་	-2095
སྙིགས་	-2096
ཏང་	-2097
འགྲིག	-2098
དང་དེ་བཞིན་	-2099
དོ་མཉམ་	-2100
ལེགས་སྒྲུབ་	-2101
ut	-2102
སྲོག་ཆགས་	-2103
གཅིག་གི་	-2104
ལྟ་བུ་རེད།	-2105
བཀོལ་སྤྱོད་ཀྱི་	-2106
མེ་ཏོག་	-2107
ནགས་	-2108
ཆེ་ཆུང་	-2109
སྒྲིག་སྦྱོར་	-2110
ནང་འདྲེན་	-2111
མཛེས་སྡུག་	-2112
ཕུན་	-2113
ཁ་དོག་	-2114
མིག་སྔར་	-2115
ཐུབ་པར་	-2116
འཚོལ་བཤེར་	-2117
ནོར་དོན་	-2118
པའོ་	-2119
སྔོན་རྩིས་	-2120
av	-2121
འགྱངས་	-2122
དེ་དག་ལ་	-2123
སེམས་ཁྲལ་	-2124
འགན་འཁུར་	-2125
ུངས།	-2126
རན་	-2127
དགེ་མཚན་	-2128
བཀའ་	-2129
བྱེད་བདེ་	-2130
བཟང་པོ་	-2131
ནར་	-2132
མང་བའི་	-2133
ཡི་གེ་	-2134
སོགས་ཚུད་	-2135
དོན་དངོས་ཀྱི་	-2136
མེད་པ་	-2137
ཨ་རིའི་	-2138
བགོ་བཤ	-2139
བྱེད་ཚད་	-2140
ཧུར་ཐག་	-2141
མང་ཚོགས་	-2142
བླང་བྱ་	-2143
ཁག་གི་	-2144
གླུ་དབྱངས་	-2145
ཧེ་	-2146
སྙན་ཞུ་	-2147
ཀྱི་ནུས་པ་	-2148
ཁས་	-2149
གཟའ་	-2150
རྨང་གཞིའི་	-2151
ལ་མཐོང་ཆུང་	-2152
འཕེལ་རིམ་	-2153
ཐུབ་པ་དང་	-2154
གྲངས་ཐང་	-2155
ཉ་	-2156
རྟོག་བཟོའི་	-2157
གཟུགས་བརྙན་	-2158
སྤྱིར་བཏང་	-2159
དགོས་པ་དང་།	-2160
བར་དུ་	-2161
མོར་	-2162
ཕུན་སུམ་	-2163
ཐད་ནས་	-2164
འདི་ལྟར་བྱས་ན་	-2165
ཕྱོགས་སུ་	-2166
གྲོང་རྡ	-2167
ཁེ་དབང་	-2168
མཛའ་	-2169
མི་ཡོང་བ་	-2170
གཤམ་གསལ་ནི་	-2171
ཁྱབ་སྤེལ་	-2172
རིམས་	-2173
བྱུང་།	-2174
ing	-2175
སྡེ་ཁུལ་	-2176
དམིགས་ཚད་དང་	-2177
ཁྱབ་གདལ་	-2178
ཐུགས་	-2179
འཕྲོད་	-2180
ཁ་གཏད་འཇལ་	-2181
བར།	-2182
དཀའ་ངལ་	-2183
ལས་འགན་དང་	-2184
སུའུ་	-2185
ཨར་	-2186
མཚོན་པར་	-2187
ཁང་དུ་	-2188
ཡིག་གི་	-2189
མི་རིགས་	-2190
ལེགས་པའི་	-2191
འགྲིག་གི་རེད།	-2192
དྲུག་	-2193
གྲུབ་ཚུལ་	-2194
འགེལ་	-2195
རིག་ནུས་ཁྱིམ་ཆས་	-2196
མཚོ་སྔོན་	-2197
ཀྲི་	-2198
ཞུ།	-2199
ནུས་ལྡན་	-2200
བྱས་པ་དང་།	-2201
འགྲམ་	-2202
གཞི་རྒྱུ་	-2203
ཧྲིལ་པོའི་	-2204
སྲིད་པའི་	-2205
ཧུར་བརྩོན་	-2206
ཉིན་གྱི་	-2207
མས།	-2208
དུང་ཕྱ	-2209
▁བ་དམན།	-2210
ཞུགས་གྲངས་	-2211
ཐེབས་སྲིད།	-2212
གམ་	-2213
དྲི་	-2214
དབང་ཆ་	-2215
དབང་རྩའི་དྲ་རྒྱ་	-2216
གཞི་གྲངས་དང་	-2217
རར་	-2218
བདེ་སྲུང་	-2219
གཞི།	-2220
གཅོག་	-2221
Goo	-2222
གཞོལ་	-2223
ཆུའི་	-2224
འགག་རྩའི་	-2225
ཏན་	-2226
བརྩེ་དུང་གི་	-2227
ཆོག་པའི་	-2228
ལོ་རྒྱུས་ཀྱི་	-2229
བརྒྱ་	-2230
གོམ་	-2231
ch	-2232
ཕར་	-2233
རྒྱུ་ནི་	-2234
གོམས་གཤིས་	-2235
གཞི་ནས་	-2236
དོ་དམ།	-2237
ེངས་	-2238
ཙུང་	-2239
ལུའོ་	-2240
མ་འོངས་པར་	-2241
པར་རོགས་རམ་	-2242
ཟམ་མི་ཆད་པར་	-2243
རུབ་	-2244
བྱེད་དགོས་པ་དང་།	-2245
དཔེ་དེབ་	-2246
གྲོས་བསྡུར་	-2247
གོ་གནས་	-2248
སྤྱོད་མཁན་	-2249
ལ་སྔོན་དཔག་	-2250
Google	-2251
རྒྱབ་སྐྱོར་དང་	-2252
འབྲིང་	-2253
དངོས་རྫས་	-2254
ཕྱིར་ལོག་	-2255
གད་	-2256
འདུས།	-2257
ཡེ་	-2258
དངོས་ཡོད་	-2259
སྤོ་ལོའི་	-2260
ཆ་ཚང་	-2261
སྦྱོང་བརྡར་དང་	-2262
གང་ལེགས་	-2263
ཁྲེང་	-2264
གཤམ་དུ་གསལ་	-2265
པའི་ཚེས་	-2266
ཧྥེ་	-2267
ཐེན་	-2268
བྱེད།	-2269
ཤོག་བྱང་	-2270
འཕུར་	-2271
ཐོན་རྫས་དང་	-2272
རྒྱུ་ནོར་	-2273
ཡིན་ལ།	-2274
གྲབས་	-2275
དཔྱད་འཇོག་	-2276
དེར་བརྟེན་	-2277
▁A	-2278
ལ་ལྟ་	-2279
སྐད་བརྡའི་	-2280
ས་ཆ་	-2281
དཔའ་	-2282
ཁོང་ཚོས་	-2283
གནས།	-2284
སྒྲིག་སྲོལ་	-2285
བསྡུ་རུབ་	-2286
ཞིང་ལས་	-2287
རྒྱུས་མངའ་	-2288
མཇུག་མཐར།	-2289
གསོག་འཇོག་	-2290
འབུད་	-2291
ལ་དོ་དམ་	-2292
མཉམ་འཇོག་	-2293
བཤད་པ་རེད།	-2294
འདོན་རྒྱུ་ཡིན།	-2295
གཡེང་	-2296
ཀྱི་ཕན་འབྲས་	-2297
གནད་དོན་དང་	-2298
པར་གཞི་	-2299
གྱུར་ཡོད།	-2300
གསུངས་	-2301
འབྲེལ་མཐུད་	-2302
ལོ	-2303
ཚོང་རྟགས་གྲགས་	-2304
སྤྱོད་མཁན་ལ་	-2305
ཚོགས་འདུ་	-2306
ཆི་	-2307
གསར་སྒྱུར་	-2308
བློས་འགེལ་	-2309
ལེན།	-2310
ཡོད་མེད་	-2311
སྤྲིན་	-2312
འཁྲུག་	-2313
In	-2314
ཀླད་	-2315
དགོས་ངེས་ཀྱི་	-2316
ཆེ་རུ་གཏོང་ཐུབ།	-2317
མ་བྱས་	-2318
མཚུངས་ཀྱི་	-2319
བགོས་	-2320
མཐོ་རིམ་	-2321
▁རེད།	-2322
ཁྱབ་ཁོངས་ཀྱི་	-2323
བཀོལ་ཆོག	-2324
འགོ་ཚུགས་	-2325
སོགས་ཀྱིས་	-2326
བྱ་རྒྱུ་དེ་	-2327
སྟེང་གི་	-2328
ཆེ།	-2329
གསར་པའི་	-2330
གཤམ་དུ་གསལ་བ་ནི་	-2331
ཤིས་	-2332
མཁོ་སྤྲོད་	-2333
ལོ་ནས་	-2334
སྤུས་ཚད་དང་	-2335
རྒྱུད།	-2336
གསར་རྩོམ་	-2337
རིག་གནས་དང་	-2338
ཆིང་	-2339
ཤེས་རྟོགས་དང་	-2340
རིག་པའི་	-2341
བརྒྱད་	-2342
ཏི་	-2343
མི་རྣམས་ཀྱི་	-2344
ང་ཚུལ་	-2345
རྒྱང་	-2346
སྤྱི་ཁྱབ་	-2347
སར་	-2348
སྦྱོང་བརྡར་གྱི་	-2349
ཟེར་	-2350
ཇེ་ཆུང་དུ་གཏོང་	-2351
ཧྥ་རན་	-2352
མངོན་པའི་	-2353
ཡོད་པ་མ་ཟད།	-2354
ཧྲང་	-2355
ད་ལྟ་	-2356
དུ་འགྲོ་	-2357
▁ང་ཚོས་	-2358
དུས་བཅད་	-2359
ཞིན་	-2360
ཕབ་	-2361
ཐུབ་ཀྱི་	-2362
ཤོས་ཀྱི་	-2363
ཕན་ཐོགས་	-2364
དབར་	-2365
བཅོལ་	-2366
ེའུ་	-2367
ལ་སློབ་སྦྱོང་	-2368
འཇིག་	-2369
པང་	-2370
དེ་དག་གི་	-2371
ཏུའུ་	-2372
▁p	-2373
རྩེད་མོ་	-2374
ཡོང་འབབ་	-2375
འར་	-2376
བཏུང་	-2377
གསང་བའི་	-2378
བྱེད་ཐུབ་བམ།	-2379
ཕུད་	-2380
གཏོར་	-2381
གཞིས་	-2382
▁ཁྱོད་ཀྱིས་	-2383
གཞི་གྲངས་འཚོལ་	-2384
ཐོག་མའི་	-2385
བསགས་	-2386
མཚམས་འཇོག་	-2387
དེ་དག་ནི་	-2388
ཤོད་	-2389
ཐུགས་རྗེ་	-2390
ཚོར་བ་	-2391
དཔུང་	-2392
བཟོ་བཅོས་	-2393
ཁྲོད།	-2394
ཨང་ཀ	-2395
བཅུད་	-2396
ོ་མ་	-2397
ཟས་རིགས་	-2398
རིག་ནུས་ཅན་གྱི་	-2399
མཐོ་རུ་	-2400
གྲོགས་པོ་	-2401
བའམ་ཡང་ན་	-2402
ཏན་ཏ	-2403
ཚོགས་པ་	-2404
སྒུལ་ཤུགས་	-2405
བཤད།	-2406
བྱེད་མཁན་གྱི་	-2407
um	-2408
ཧུའུ་	-2409
འདང་ངེས་	-2410
བརྩེ་སེམས་	-2411
▁C	-2412
བྱེད་དགོས།འདིས་	-2413
དང་སྤྱི་ཚོགས་	-2414
སྨར་	-2415
དྲགས་	-2416
བསྔགས་	-2417
ཆ་རྐྱེན་	-2418
དུང་ཕྱུར་	-2419
▁༡	-2420
དངོས་སུ་	-2421
བོད་ལྗོངས་	-2422
ཀེ་	-2423
ཐོན་སྐྱེད་ཀྱི་	-2424
འདེམས་དགོས།	-2425
▁དེའི་	-2426
མཆན་	-2427
ལ་བརྩི་འཇོག་	-2428
གད་སྙིགས་	-2429
བདམས་ནས་	-2430
གོ་ཆོད་	-2431
འགྲུལ་པར་	-2432
གྲུབ་ཆ་	-2433
ལ་གདེང་འཇོག་	-2434
གཏོང་བ་	-2435
མོ།	-2436
ཁང་གིས་	-2437
ཇི་ལྟར་བྱས་ཏེ་	-2438
ཕྱིར་འཚོང་	-2439
ཚོགས་པའི་མཉམ་ལས་	-2440
རང་སྐྱོང་	-2441
དཔང་	-2442
ཐོ་འགོད་	-2443
བལྟ་	-2444
བརྗོད་བྱ་	-2445
ལའང་	-2446
རིམ་པའི་	-2447
བསུ་	-2448
ཨུ་ཡོན་	-2449
ཕྲན་	-2450
རྩི་ཐབས།	-2451
ལྟ་ཚུལ་	-2452
འབྱུང་འགྱུར་གྱི་	-2453
བྱེད་སྲིད།	-2454
དྲ་ངོས་	-2455
ལག་རྩལ།	-2456
སྐབས་སུ།	-2457
དུས་ཆེན་	-2458
འཇིག་རྟེན་	-2459
དཔེ་མཚོན་	-2460
དང་འདྲ་	-2461
ཕྲུ་ག	-2462
འཚོལ་བ།	-2463
བདེ་འཇགས་དང་	-2464
ad	-2465
རབ་	-2466
གཞན་གྱི་	-2467
ཁྱད་ཆོས་དང་	-2468
དུས་ཚ	-2469
ཇེ་ཉུང་དུ་གཏོང་	-2470
གཉིད་	-2471
བསྐྱར་ཟློས་	-2472
ཏན་ཏིག་	-2473
ཐུན་མོང་ཐོག་	-2474
ཆས།	-2475
ཁག་གཅིག་	-2476
ལྟེ་གནས་	-2477
ཐན་	-2478
ཞིབ་དཔྱད་	-2479
ཕམ་	-2480
སྤོ་ལོ་	-2481
འཐེན་	-2482
ཤང་	-2483
ཕན་པ་མ་ཟད།	-2484
▁ལ	-2485
གྲངས་འབོར་	-2486
སྒྲོམ་གཞི་	-2487
དུས་རབས་	-2488
འགྲིག་དང་	-2489
ལྟར་ན།	-2490
པ་ཡིན།	-2491
མི་ཚང་མར་	-2492
ཚོད་དཔག་	-2493
ཟུང་འབྲེལ་	-2494
ལམ་སྲོལ་	-2495
▁ཟླ་	-2496
མཁོ་བའི་	-2497
དང་ཡང་ན་	-2498
གྲོན་ཆུང་	-2499
ཕྲེང་	-2500
ཚད་ཀྱི་	-2501
གཉེན་	-2502
བཅས་ལ་	-2503
སམ་ཡང་ན་	-2504
རེ་རེ་	-2505
བང་	-2506
རྗེས་སུ་	-2507
དང་ལག་རྩལ་	-2508
ཅི་ལྟར་	-2509
སྲུང་འཛིན་	-2510
བསྐྱོད་	-2511
པི་	-2512
བདུན་	-2513
▁འགྲིག་དང་	-2514
བཞུར་	-2515
དེ་མིན་	-2516
ལེགས་ཆ་	-2517
ཁ་ཤས་ཀྱིས་	-2518
འཇར་	-2519
སེམས་ཤུགས་	-2520
ava	-2521
ter	-2522
གསོ་སྐྱོང་	-2523
ལྗིད་	-2524
སོགས་ལ་	-2525
ol	-2526
ཚོགས་པས་	-2527
བརྒྱུད་རིམ་ནང་	-2528
ཆོག་གམ།	-2529
ཕྱོགས་རིས་	-2530
འགུལ་སྐྱོད་	-2531
འགན་སྲུང་	-2532
ཁུ་	-2533
འཛིན་ཤོག་	-2534
བཅའ་ཁྲིམས་དང་	-2535
གྲངས་གཞིའི་	-2536
གསུངས་པ་རེད།	-2537
ཐོའི་	-2538
མིག་སྔའི་	-2539
དེ་དང་ཆབས་ཅིག་	-2540
རྒྱུ།	-2541
ཡོད་།	-2542
གསར་དུ་	-2543
ཇེ་ཆེར་	-2544
▁གཞན་ཡང་	-2545
པ་ཞིག་ལ།	-2546
ངེས་ཅན་ཞིག་	-2547
ཡིད་དབང་འཕྲོག་	-2548
འདྲ།	-2549
ཡིག་ཚགས་	-2550
ལད་	-2551
ཆས་ཀྱི་	-2552
དངོས་པོ་	-2553
ཉིན་རེའི་	-2554
ཀྱ	-2555
ཅན།	-2556
མང་པོར་	-2557
བྱས་པ་དང་	-2558
བཟའ་བཏུང་	-2559
ཆོས་ལུགས་	-2560
ཀྲུང་དབྱང་	-2561
མྱོང་ཚོར་	-2562
སྲུང་སྐྱོང་གི་	-2563
བྱེད་ཤུགས་	-2564
རྒྱག་དགོས།	-2565
གལ་ཏེ་ཁྱེད་ལ་	-2566
སློབ་གྲྭ་	-2567
སློབ་མར་	-2568
དང་སྨན་བཅོས་	-2569
སྤྱི་དམངས་	-2570
Java	-2571
བར་གཞིགས་ན།	-2572
དབྱེ་འབྱེད་དང་	-2573
མཁོ་མཁན་གྱིས་	-2574
མངོན་ཚུལ་	-2575
འཇིགས་སྐུལ་	-2576
▁འགྲིག་དང་འགྲིག	-2577
བརྟེན་ནས་	-2578
ཕྱིར་ཚོང་	-2579
ཁྲིམས་སྲོལ་	-2580
ཁོང་ཚོར་	-2581
▁(	-2582
ཐུབ་ཀྱི་ཡོད།	-2583
ལངས་	-2584
ཆ་འཕྲིན་དང་	-2585
མངགས་	-2586
རྒྱུ་དང་།	-2587
ཐད་ཀར་	-2588
གཞི་གྲངས་མཛོད་	-2589
དང་པོ།	-2590
སྙན་ངག་	-2591
བུར་	-2592
སྔོ་	-2593
ལེབ་	-2594
ཟིན་པའི་	-2595
པའི	-2596
ཚོགས་འདུའི་	-2597
བུད་མེད་ཀྱི་	-2598
ང་།	-2599
སྤྱོད།	-2600
ot	-2601
གཅོད།	-2602
ནུས་པར་	-2603
གནས་ཚུལ་དང་	-2604
ལས་བརྒལ་བའི་	-2605
གཉིས་ཀྱིས་	-2606
མཐོང་ཚོར་	-2607
བྱེད་རོགས།	-2608
དོགས་	-2609
སེ་	-2610
ཐུན་མོང་གི་	-2611
དེ་བས་ལེགས་པའི་	-2612
མན་	-2613
གང་ཐུབ་	-2614
དབང་གིས་	-2615
གལ་ཏེ་ཁྱོད་ཀྱིས་	-2616
ཤིན་ཏུ་	-2617
ཞབས་ཞུ་མཁོ་འདོན་	-2618
ོངས།	-2619
བརྡ་སྤྲོད་	-2620
འཕྲུལ་མིས་	-2621
རྔུབ་	-2622
ཤིག་རེད།	-2623
སྐམ་	-2624
ལིང་	-2625
བྱེད་ཐུབ་པའི་	-2626
འགར་	-2627
རྙིང་	-2628
ལོངས་སྤྱོད་	-2629
མི་སྣའི་	-2630
སོ་སོའི་	-2631
དུས་བཅད་ལྟར་	-2632
དམིགས་བསལ་	-2633
བསྟུན་ནས་	-2634
གོ་ལ་ཧྲིལ་པོའི་	-2635
ཙེ་	-2636
འཕྲོ་	-2637
ེས	-2638
མེ་རི་	-2639
འགན་ལེན་ཏན་ཏིག་	-2640
མི་མངོན་པའི་	-2641
རྒྱ་མཚ	-2642
དམིགས་ཡུལ་ནི་	-2643
གྱོད་	-2644
ཁ་ལོ་	-2645
ལམ་གྱི་	-2646
▁གོང་གསལ་	-2647
སྤྱད་ན་	-2648
གནད་ལ་འཁེལ་བའི་	-2649
འགྲིལ་	-2650
ན་གཞོན་	-2651
སྤྲོ་བ་	-2652
གསེས་	-2653
དུས་ཚོད།	-2654
ec	-2655
ཡན་ལག་	-2656
རྒྱུད་ཀྱི་	-2657
སྤྱོད་པ།	-2658
གཞན་པ་	-2659
གཏོང་བར་	-2660
ཚད་ལྡན་	-2661
སྒྲིམ་	-2662
དོན་སྙིང་	-2663
od	-2664
ཞིག་ཡིན་ལ།	-2665
ཤེ་ན།	-2666
ཀྲོ་མ་	-2667
ཀྲོ་མ་ཀྲ	-2668
རྣམ་པ་དང་	-2669
ལྡོག་འདྲེན་དང་	-2670
Sc	-2671
ཡོད་ཅེས་	-2672
ཡངས་	-2673
ཡིན་པ་རེད།	-2674
སྔོན་ཐོབ་	-2675
ཚུལ།	-2676
དང་དོ་དམ་	-2677
བསླ	-2678
སྔོག་	-2679
pt	-2680
འགྲེམས་སྟོན་	-2681
ཆ་ཤས་	-2682
རོགས་སྐྱོར་	-2683
བྱ་དགོས་།	-2684
དགོས་སམ།	-2685
ག་ཏུ་	-2686
ཁེ་ལས་ལ་	-2687
འགུལ་རིས་	-2688
བརྗེ་རེས་	-2689
དེ་བས་ཡག་	-2690
དྲན་སྐུལ་	-2691
རྒྱན་	-2692
ཉེན་རྟོག་	-2693
སྦགས་	-2694
བསྐྱར་དུ་	-2695
དཔྱད་གཏམ་	-2696
གྲོས་འགོ་འགའ་	-2697
སྣུམ་	-2698
དང་སྤེལ་རེས་	-2699
ཁ་གཏད་གཅོག་	-2700
ཆ་སྙོམས་	-2701
འཚར་	-2702
ལམ་ཐིག་	-2703
བུན་	-2704
ཁུངས།	-2705
གང་ཞིག་	-2706
བྱ་ཡུལ་	-2707
བསྐུར་	-2708
བདེ་སྐྱིད་	-2709
སྐབས་སུ་	-2710
བྱེད་དུ་བཅུག་	-2711
ཁྲོན་	-2712
ིས	-2713
མི་རུང་།	-2714
བྱ་རྒྱུ་ནི་	-2715
བསྣ	-2716
ཝ་	-2717
མ་རྐང་འཛིན་ཤོག་	-2718
ཨ་མེ་རི་	-2719
བསམ་བློ་བཏང་	-2720
སྲིད་དམ།	-2721
རྒྱུན་སྤྱོད་ཀྱི་	-2722
▁འོ་	-2723
ནུས་རྩལ་	-2724
em	-2725
སྒྲོག་	-2726
ལེགས་སྐྱེས་	-2727
ཁས་ལེན་	-2728
ཆེན་པོའི་	-2729
ལེགས་གྲུབ་	-2730
ལྟ་བ་དང་	-2731
སྐྱེལ་འདྲེན་	-2732
ནད་རིགས་	-2733
ཁ་བརྡའི་	-2734
ཨའོ་	-2735
དགོས་མཁོ་སྐོང་	-2736
འཕྲུལ་ཆས་ཀྱིས་	-2737
ཡོད་དམ་	-2738
སྐྱེ་ཁམས་	-2739
ཕོགས་	-2740
ལྷོད་གཡེང་	-2741
སྡོང་	-2742
གལ་ཏེ་ཁྱེད་ཀྱིས་	-2743
བཟོ་སྲིད།	-2744
པོ་ཡོད།	-2745
ཚབས་	-2746
བརྗོད་གཞི་	-2747
མཛུབ་སྟོན་	-2748
སྤུས་རྟགས་	-2749
གོ་སྐབས་དང་	-2750
གཤམ་གྱི་གོ་རིམ་	-2751
མངོན་གསལ་	-2752
ཚོང་དོན་	-2753
བརྒྱུད་ནས་	-2754
གང་འདྲ་བྱས་ནས་	-2755
སྒམ་	-2756
བྱས་འབྲས་	-2757
ཡིན་ན།	-2758
རིམ་བཞིན་	-2759
འཆར་གཞི་བཟོ་	-2760
རང་ཉིད་ཀྱིས་	-2761
འདི་དག་ནི་	-2762
བྱེད་སླ་	-2763
ཕར་རྒོལ་	-2764
དང་མཉམ་དུ།	-2765
ཚེ།	-2766
དགའ་བསུ་	-2767
བྱེད་བཞིན་	-2768
གི་རེད་	-2769
དྲིས་	-2770
དེང་རབས་	-2771
im	-2772
གྲབས་ཉར་	-2773
སྒྲིག་གཞི་	-2774
ཁེར་	-2775
ཧྲུའུ་	-2776
སྒུག་	-2777
ཧ་ཅང་ཆེན་པོ་	-2778
བྱེད་ཐུབ་པས།	-2779
ཅན་དུ་འགྱུར་	-2780
ཕྱི་རྒྱལ་	-2781
སྤྱོད་གོ་ཆོད་	-2782
གལ་ཆེ།	-2783
ཤུལ་	-2784
ལུས་ཁམས་	-2785
དུས་ཡུན་རིང་	-2786
དབུགས་	-2787
འདོན་སྤེལ་	-2788
རྩ་བའི་	-2789
འོག་ཏུ་	-2790
འཚོལ་དགོས།	-2791
རྩི་ཐབས་ཀྱི་	-2792
ཐུབ་ནས་	-2793
ཅེ་	-2794
གྲངས་ཀ་	-2795
ཉེན་ཁའི་	-2796
ཚེ་སྲོག་	-2797
ཨེར་	-2798
བསམ་འཆར་དང་	-2799
ཁྱད་ཆོས་ལྡན་པའི་	-2800
ཁུང་	-2801
ཁོ་ཚོ་	-2802
ཝུན་	-2803
▁ལོ་	-2804
ཆེས་ལེགས་པའི་	-2805
ཐག་གཅོད།	-2806
མཐོང་ཆུང་དང་	-2807
སླར་གསོ་	-2808
▁f	-2809
འདུས་གྲུབ་	-2810
ལུས་ཕུང་	-2811
གཅེས་	-2812
སྦགས་བཙོག་	-2813
ིངས་	-2814
འགལ་བ་	-2815
འདུག་གས།	-2816
མན	-2817
ལུགས་མཐུན་	-2818
གང་ལགས་	-2819
མ་རེད།	-2820
ཚོར་སྣང་	-2821
བསྒྱ	-2822
ཀུའུ་	-2823
ཁོས་	-2824
གཤམ་གསལ།	-2825
གཅིག་མཐུན་	-2826
གྲོང་རྡལ་	-2827
བརྙ	-2828
གསང་བ་དང་	-2829
ལའི་	-2830
སོགས་ཡོད།	-2831
ཕྱི་རོལ་	-2832
ངོ་རྒོལ་	-2833
རྩད་	-2834
སྤོས་	-2835
བྱེད་ཐུབ་པ་མ་ཟད།	-2836
རིམ།	-2837
▁ང་	-2838
རྣམས་ལ་	-2839
རྩོམ་པ་	-2840
ཁང་།	-2841
ིན	-2842
གཤམ་གྱི་ཕྱོགས་	-2843
གྲྭ་	-2844
ཆེད་དུ་	-2845
▁མཇུག་མཐར།	-2846
རྒྱ་མཚོའི་	-2847
པ་སོགས་ཀྱི་	-2848
བཅས་ཀྱིས་	-2849
ཀྲེན་	-2850
ཀང་	-2851
ent	-2852
བསྒྱུར།	-2853
ll	-2854
གང་ལགས་ཤེ་ན།	-2855
ོད	-2856
བྱེད་བཞིན་ཡོད།	-2857
ང་ཚོ་	-2858
དུ་གནས་	-2859
བབས་	-2860
ཞང་	-2861
བརླག་	-2862
པར་བྱ་དགོས།	-2863
དེ་ལྟར་	-2864
ཡིག་སྒྱུར་	-2865
ལྕག་	-2866
རིམས་ནད་	-2867
▁༤	-2868
བྱེད་པ་དང་འབྲེལ་	-2869
ནང་འཇུག་	-2870
སུ་འཇུག་	-2871
ཟིན་ཐོ་	-2872
གནད་དོན།	-2873
དྲ་བའི་	-2874
གཞི་ཁྱོན་	-2875
ཡིན་ནམ།	-2876
རེ་བ་དང་	-2877
སྣང་ཚུལ་	-2878
དང་མི་མཐུན་	-2879
ཕུལ་བྱུང་	-2880
དང་འཚམ་	-2881
བར་སྟོང་	-2882
ཁྲག་	-2883
ཚེས	-2884
ཡིག་དེབ་	-2885
ཡིག་སྨར་	-2886
ཆིན་	-2887
མཚོན་རྟགས་	-2888
གཞན།	-2889
མཚོན་ཚུལ་	-2890
ཐོན་ལས་	-2891
▁ཇི་ལྟར་བྱས་ནས་	-2892
ས་ཚིགས་	-2893
གྲོས་ཚོགས་	-2894
ཁྲ་	-2895
གནའ་བོའི་	-2896
དམའ་རུ་གཏོང་	-2897
ཐབས་རྩལ་	-2898
དགེ་མཚན་ལྡན་པའི་	-2899
རྒྱལ་རབས་ཀྱི་	-2900
ཕ་རོལ་	-2901
བགྲོད་	-2902
སྐྱོན་ཆ་	-2903
བརྒྱུད་ནས།	-2904
ཤེལ་	-2905
ལྷིང་	-2906
གཏོང་བ་དང་	-2907
ཧོང་	-2908
རྫོང་གི་	-2909
▁P	-2910
བསྣན་	-2911
ས་ཁོངས་	-2912
བའམ་	-2913
འདི་དག་ལ་	-2914
འབར་	-2915
ཡོངས་བསྒྲགས་	-2916
ཟློས་གར་	-2917
མཚར་	-2918
▁s	-2919
འཆར་གཞི་དང་	-2920
སྐད་གྲགས་ཆོད་	-2921
ཁྲང་	-2922
དེང་རབས་ཀྱི་	-2923
མི་ལ་	-2924
གསར་བའི་	-2925
གོང་གི་	-2926
ིབ་	-2927
ཟིན་ཐོར་	-2928
སྐབས་ཀྱི་	-2929
is	-2930
སྒྲིག་འཛུགས་	-2931
ཡོད་ཀྱི་	-2932
ཨོ་	-2933
འཆམ་	-2934
རེ་བར་	-2935
མཐོ་རུ་གཏོང་ཐུབ།	-2936
ལྟོས་	-2937
རོབ་	-2938
འགྱུར།	-2939
བཅོས།	-2940
སྔོག་འདོན་	-2941
པ་ཞིག་ཡིན་	-2942
བགོ་བཤའ་	-2943
སྦྱངས་	-2944
སྒྲུང་	-2945
ཕོ་མོ་	-2946
སྔར་ལས་ལྷག་པའི་	-2947
གཟིགས་	-2948
ཧྥ་རན་སིའི་	-2949
ཁ་ཤས་ཀྱི་	-2950
གསོའི་	-2951
ཕུགས་	-2952
ནས་བཟུང་	-2953
ཆོག་པ་དང་།	-2954
ལྷུ་	-2955
མཁོ་འདོན་བྱས་ནས་	-2956
བཅའ་ཁྲིམས་ཀྱི་	-2957
སྐད་རིགས་	-2958
ཡིན་ཡང་	-2959
མེད་དུ་	-2960
ཡོངས་ནས་	-2961
གཏན་འཇགས་	-2962
དགུ་	-2963
དེ་དང་མཉམ་དུ།	-2964
གྲུབ་པའི་	-2965
པ་ལས་	-2966
གསར་འགོད་	-2967
ཚོད་འཛིན་དང་	-2968
ཡོ་རོབ་	-2969
བུད་མེད་ལ་	-2970
གཟའ་འཁོར་	-2971
ཡོང་བ་འདུག་གས།	-2972
འདིའི་རིགས་	-2973
ཤེས་བྱ་དང་	-2974
ཙི་	-2975
རུས་	-2976
ངོ་མ་	-2977
མི་སྣས་	-2978
ཡོད་ཚད་	-2979
ཤེས་བྱའི་	-2980
▁c	-2981
དང་པོའི་	-2982
མ་ལག་ལ་	-2983
ལས་ཆོད་དང་	-2984
བསྡད་	-2985
མིའི་བར་གྱི་	-2986
དཔེར་ན	-2987
བརྡའི་ཐག་གཅོད་	-2988
གསབ་	-2989
འདི་ལ་	-2990
ཨང་དང་པོ་	-2991
དང་འབྲེལ་	-2992
ook	-2993
ཡོད་པ་དང་	-2994
NN	-2995
གསུམ་པའི་	-2996
དུས།	-2997
སྐྱོབ་	-2998
ངོས་ཀྱི་	-2999
སྙོམས་སྒྲིག་	-3000
ཁེལ་	-3001
བརྡར་ཤ་	-3002
▁མིས་བཟོས་	-3003
གསེར་	-3004
ཨུ་ཡོན་ལྷན་	-3005
དུས་སུ་	-3006
བློ་འདྲི་	-3007
འབུལ་	-3008
གསོན་	-3009
ལྗང་	-3010
སློབ་མས་	-3011
ཡོད་པ་དཔེར་ན།	-3012
ལྷག་པར་དུ་	-3013
▁༣	-3014
པ་སོགས་	-3015
ཁག་ཐེག་བྱ་དགོས།	-3016
མ་རྩ་	-3017
གླེང་མོལ་	-3018
ལས་འགན་ལ་	-3019
སློབ་གསོ་དང་	-3020
གྱོང་	-3021
ལ་བལྟ་	-3022
el	-3023
མགྱོགས་སུ་	-3024
un	-3025
དྲོད་ཚད་	-3026
བྱ་སྤྱོད་ལ་	-3027
མངོན་མེད་	-3028
རྒྱུག་	-3029
འཕེལ་རྒྱས་ལ་	-3030
སྤྱོད་ཀྱི་ཡོད།	-3031
བྱེད་མཁན་གྱིས་	-3032
གཞོགས་	-3033
སེར་	-3034
གསར་གཏོད་ཀྱི་	-3035
ཚོད་འཛིན།	-3036
།།	-3037
པ་བཅས་	-3038
ཁི་	-3039
ཨའེ་	-3040
ས་ཁུལ་གྱི་	-3041
དེ་ལ་	-3042
བཞག་ནས་	-3043
འཚོ་བ་སྐྱེལ་	-3044
གལ་ཆེན་ཞིག་ཡིན།	-3045
བཀྲ	-3046
ཁར་	-3047
རིག་ནུས་དེ་	-3048
རླབས་	-3049
མཐོང་རུང་	-3050
སློག་	-3051
བར་ཆད་	-3052
གཡོལ་	-3053
རྗེས་ཀྱི་	-3054
མི་འབོར་	-3055
▁ད་	-3056
Web	-3057
འགོར་	-3058
ལིའུ་	-3059
གླིང་གི་	-3060
བ་བཅས་	-3061
ལམ་ལུགས་	-3062
བླུགས་	-3063
ཁ་བྱང་	-3064
རྨང་གཞི་	-3065
བ་དང་ཆབས་ཅིག་	-3066
བེད་སྤྱད་དེ་	-3067
ཚོང་ཟོག་	-3068
འཐུས་ཚང་	-3069
བསྐྲུན་དགོས།	-3070
བཙལ་ནས་	-3071
ཏའོ་	-3072
བརྒྱུད།	-3073
▁སྤྱིར་	-3074
སྲིད་པས།	-3075
བ་ཞིག་	-3076
རིག་གི་	-3077
ཁྱབ་ཁོངས་ནང་	-3078
▁ཉེ་	-3079
ཡང་ཡང་	-3080
སྒྲོན་	-3081
སྒོར་དུང་ཕྱུར་	-3082
བཅར་	-3083
དཔེ་ཀློག་	-3084
མནའ་	-3085
འགངས་	-3086
ཨང་གྲངས་	-3087
འདི་དག་གི་	-3088
མ་དངུལ་འཇོག་པའི་	-3089
ub	-3090
བྱ་དགོས་སམ།	-3091
▁T	-3092
ཐབས་ཇུས་འགོད་	-3093
བྱ་སྤྱོད་སྤེལ་	-3094
ཤེས།	-3095
ཚན་གྱི་	-3096
རིགས་དང་	-3097
མང་ཚོགས་ཀྱི་	-3098
ནེ་	-3099
མ་བྱས་གོང་	-3100
རང་དབང་	-3101
ལེ	-3102
གསང་བ་	-3103
སོགས།	-3104
མཁས་ཅན་	-3105
མདའ་	-3106
འཐུང་	-3107
གལ་འགངས་	-3108
ནགས་ཚལ་	-3109
ལྕགས་ལམ་	-3110
དགོངས་	-3111
མང་དུ་	-3112
ཆུས་	-3113
ཚོད་ལྟ་དང་	-3114
ཡིན་པ།	-3115
ལས་རིམ་	-3116
ིགས	-3117
SS	-3118
རྒྱལ་ཁ་	-3119
བྱེད་པའི་གོ་རིམ་	-3120
འདེམ་དགོས།	-3121
ཤིག་ཡིན་པས།	-3122
ཧེ་བག་	-3123
མཚན་སྙན་	-3124
བསམ་བློ་གཏོང་	-3125
དམིགས་ཡུལ་དང་	-3126
བྱས་པ།	-3127
མ་ཡིན་པའི་	-3128
སྙོམ་	-3129
སྲིད་གཞུང་གི་	-3130
ལིའི་	-3131
ཤེས་རྟོགས་བྱུང་	-3132
ཐི་	-3133
དུས་ཚིགས་	-3134
རྩོལ་	-3135
ལྷག་བསམ་	-3136
ཞིང་ཆེན་གྱི་	-3137
NL	-3138
པགས་	-3139
ནས་བཤད་ན།	-3140
ཨུ་རུ་	-3141
པན་	-3142
མི་ཚང་མས་	-3143
སོང་།	-3144
སོ་སོར་	-3145
དུས་ཚོད་དོ་དམ་	-3146
ཕྱིར་གཏོང་	-3147
int	-3148
id	-3149
སྟེང་ནས་	-3150
▁མི་ཐབས་	-3151
ལམ།	-3152
བྱེད་སྒོའི་	-3153
ལྷག་ཙམ་	-3154
▁M	-3155
ུད།	-3156
རི་པིན་	-3157
ཡོད་ལ།	-3158
མཐུད་མཚམས་	-3159
ཛ་དྲག་ཆེ་བའི་	-3160
གཏན་ཁེལ་	-3161
རྩིས་འཁོར་གྱི་	-3162
མི་ཆོས་	-3163
ལ་དེ་བས་	-3164
སོགས་འདུས།	-3165
གུང་	-3166
ap	-3167
ཉམས་མྱོང་དང་	-3168
རྒྱ་ཁྱོན་	-3169
ངོས་ནས་བརྗོད་	-3170
དེ་འདྲ་	-3171
ན།ཁྱེད་ཀྱིས་	-3172
སྣ་ཚོགས་ཀྱི་	-3173
གྱོང་ག	-3174
ལྟ་སྟངས་	-3175
ཁུལ་དུ་	-3176
རླངས་འཁོར་གྱི་	-3177
ལྟར།	-3178
and	-3179
གནས་ཚུལ་སྤེལ་	-3180
ལུས་པོའི་	-3181
གླ་ཕོགས་	-3182
ཧྥུའུ་	-3183
▁འོ་ན་	-3184
བྱས་པ་མ་ཟད།	-3185
དགོང་	-3186
ནུས་པ།	-3187
ow	-3188
བྱ་དགོས་པ་མ་ཟད།	-3189
སྤྱི་པའི་	-3190
ཁྱེད་ལ་རོགས་རམ་	-3191
བྱིས་པ་	-3192
བྱེད་རྒྱུ་	-3193
ལ་བརྩི་སྲུང་	-3194
དཔྱིད་	-3195
དང་འབྲེལ་འདྲིས་	-3196
ex	-3197
ོས	-3198
བུ་མོ་	-3199
ཁང་དང་	-3200
དབྱིན་ཇ	-3201
སྟེར་	-3202
ཐུབ།དཔེར་ན།	-3203
པེ་ཅིང་	-3204
ཟོན་	-3205
ཡིན་པས་	-3206
ཕྱོགས་སྟོན་	-3207
གནད་དོན་གྱི་	-3208
མགོ་སྐོར་	-3209
ཞེས་པ་	-3210
སྨན་བཅོས་ཀྱི་	-3211
འགྲོས་	-3212
སུང་	-3213
ཚབ་ཨང་གི་	-3214
དྲིན་	-3215
ཟད་	-3216
བྱ་སྤྱོད་དང་	-3217
བཏང་སྟེ།	-3218
བསམ་ཚུལ་དང་	-3219
བང་རིམ་	-3220
མི་དགོས།	-3221
ཉར་ཚགས་	-3222
ཁོར་ཡུག་ལ་	-3223
ངན་པ་	-3224
བྱེད་པ་སོགས་ཀྱི་	-3225
▁སྤྱིར་བཤད་ན།	-3226
རྒྱ་ཁྱབ་ཏུ་	-3227
ལའེ་	-3228
བརྡ་ཁྱབ་ཀྱི་	-3229
རུང་བའི་	-3230
ཚོན་	-3231
མཇུག་ཏུ་	-3232
རིགས་མི་འདྲ་བའི་	-3233
རེན་	-3234
ཐོན་རྫས་སམ་	-3235
རང་སྐྱོང་ལྗོངས་	-3236
པོད་	-3237
ལུས་སྦྱོང་	-3238
བསྟུན་ནས།	-3239
མར།	-3240
སློབ་གྲྭའི་	-3241
▁གོང་གི་དེ་ནི་	-3242
བདེ་འཇགས་ལ་	-3243
ཚོར་འདྲེན་	-3244
ཁ་བརྡ་	-3245
འདོད་འདུག	-3246
འཕྲལ་	-3247
ནང་ནས་	-3248
ཅིའི་	-3249
བསྟེན་	-3250
དམའ་བའི་	-3251
ཁེངས་	-3252
གཏམ་བཤད་	-3253
རྒྱུན་མཐུད་ངང་	-3254
གསར་གཏོད་དང་	-3255
འབྱིན་	-3256
གྱུར།	-3257
▁དེ་ནི་	-3258
འཛུལ་	-3259
སྨན་བཅོས་དང་	-3260
ངམ་	-3261
རབ་དང་	-3262
འདང་ངེས་ཤིག་	-3263
མི་གཞན་གྱི་	-3264
ཡག་ཤོས་	-3265
བཟོས་ཏེ་	-3266
ཕྱེད་	-3267
འཆར་གཞིའི་	-3268
བྱེད་དགོས་སམ།	-3269
འགྲོ་བ་	-3270
མང་པོ་ཡོད།	-3271
རིང་གི་	-3272
ཀློག་པ་	-3273
གཉིས་པའི་	-3274
ord	-3275
ཀོན་	-3276
ལ་དབྱེ་ཞིབ་དང་	-3277
རྩི་ཤིང་	-3278
ཧྲེང་	-3279
ལྐ	-3280
ཉེན་ཁ་དང་	-3281
ཐོན་པའི་	-3282
ཁེ་སྤ	-3283
མིའི་རིགས་ཀྱིས་	-3284
ལག་ཁྱེར་	-3285
ངལ་རྩོལ་	-3286
རུ་ཁག་གི་	-3287
གྲོས་མོལ་	-3288
བཟོ་ལས་	-3289
གདམ་གསེས་	-3290
ངེས།	-3291
ram	-3292
ནད་པར་	-3293
བསམ་པར་	-3294
ནད་དུག་	-3295
ཡར་ཐོན་	-3296
ཡིད་ཆེས་དང་	-3297
མི་སྒེར་	-3298
རེད་།	-3299
མཛད་	-3300
སྣོད་	-3301
བྱེད་ཆེད།	-3302
Fac	-3303
ངོ་བོ་	-3304
HT	-3305
འདྲི་རྩད་	-3306
སོན་	-3307
རྩི་ཐབས་དང་	-3308
ue	-3309
ོབ།	-3310
གྱར་	-3311
ཧྲ་	-3312
ལད་ཟློས་	-3313
ཚད་ནི་	-3314
ཀའོ་	-3315
ཚོང་ར་	-3316
ཁྲེན་	-3317
མི་འདང་	-3318
ལག་རྩལ་ལ་	-3319
ོགས	-3320
བྱེད་སྒོ་སྤེལ་	-3321
འོག་གི་	-3322
རམ་འདེགས་	-3323
ཞིམ་	-3324
མཉམ་འགུལ་	-3325
འཕྲིན།	-3326
རྒྱལ་ཡོངས་	-3327
ཚོགས་ཆུང་	-3328
སྒུལ་བདེའི་	-3329
འདིས་ཁྱེད་ལ་	-3330
དོ་སྙོམས་	-3331
ཆས་དང་	-3332
ལ་འགྱུར་ལྡོག་	-3333
པོ་ནི་	-3334
བྱེད་འདོད་	-3335
རྣམས་ཀྱིས་	-3336
རེ་བ་ཡོད།	-3337
དཔེ་རིས་	-3338
སྒོས་	-3339
ཁོའི་	-3340
དག་གིས་	-3341
བདུན།	-3342
འདུས་ཡོད།	-3343
ནན་བཤད་	-3344
གཙང་འཁྲ	-3345
ཞིག་ཡིན་པ་དང་།	-3346
ནུས་རྒྱུ་	-3347
ལས་སྒོ་	-3348
ནང་དོན་དང་	-3349
གཞི་གྲངས།	-3350
ལྟད་	-3351
ཁེར་རྐྱང་	-3352
ལ་སླེབས་	-3353
ཐུབ་པའི་འགན་ལེན་	-3354
ཚོང་གཉེར་གྱི་	-3355
རྩོམ་འབྲི་	-3356
དྲ་སྦྲེལ་	-3357
དང་བེད་སྤྱོད་	-3358
ཡོང་བའི་འགན་ལེན་	-3359
འཁྱེར་	-3360
པ་ཞིག་ཡིན།	-3361
རྣམ་པར་	-3362
ངོ་མཚར་	-3363
སྔོན་དཔག་གི་	-3364
ཤེས་ལྡན་	-3365
འཚར་ལོངས་	-3366
འཁྲབ་བྱའི་	-3367
ནས་ཐག་གཅོད་	-3368
ཕྲུ་གུ་	-3369
སྟངས།	-3370
ht	-3371
མཐོང་ཆུང་གི་	-3372
ལྡོག་ཕྱོགས་ཀྱི་	-3373
སྤུས་ཚད་མཐོ་བའི་	-3374
ཝུའེ་	-3375
རྩྭ་	-3376
མི་ཐུབ།	-3377
ཕན་ནུས་ལྡན་པའི་	-3378
སྡེ་ཁག་	-3379
ལོར།	-3380
བྱེད་པའམ་ཡང་ན་	-3381
རྩ་དོན་	-3382
ཐོས་	-3383
གཙོ་གནད་	-3384
ཐུབ་པ་མ་ཟད་	-3385
བཏང་བ་	-3386
ཆེ་བ་དང་	-3387
དང་མཐུན་པའི་	-3388
འཛོམས་	-3389
སྤྱིར་བཏང་དུ་	-3390
༢༠	-3391
ཐོག་མར།	-3392
བྱེད་བདེ་པོ་	-3393
སྐད་ཆ་ཤོད་	-3394
གསར་པ་དང་	-3395
གལ་ཆེ་ཤོས་	-3396
ལས་ཀ་དང་	-3397
གཞིར་བཟུང་	-3398
མིའི་རིགས་ལ་	-3399
དུ	-3400
ནར་འགྱངས་	-3401
ཀུན་སྤྱོད་ཀྱི་	-3402
ཁོང་ཡངས་	-3403
གན་	-3404
Faceb	-3405
སྦྲེལ་མཐུད་	-3406
ཁེ་སྤོགས་	-3407
ལམ་དུ་	-3408
ལེ་ཚན་	-3409
ིགས།	-3410
ལྟ་བུའི་	-3411
ཁོར་ཡུག་གི་	-3412
བཏགས་	-3413
རོ་	-3414
གལ་ཏེ་ཁྱེད་ཀྱི་	-3415
གཡོ་	-3416
དེ་ལྟར་བྱས་ན་	-3417
གུས་	-3418
▁འདི་ནི་	-3419
བར་རོགས་རམ་	-3420
ལྟད་མོ་	-3421
མི་ཤུགས་	-3422
ལེགས་སྒྲིག་དང་	-3423
འཕེལ་རྒྱས་ཀྱིས་	-3424
འགྲེམ་	-3425
བེད་སྤྱད་	-3426
▁བདུན།	-3427
རིག་པ་	-3428
བྱས་ཆོག་སྟེ།	-3429
ཆོག་པ་མ་ཟད།	-3430
སྤོར་	-3431
རྟ་	-3432
བར་ཐག་	-3433
ཡིན་པ་དང་	-3434
ཞབས་ཞུ།	-3435
ཚབས་ཆེན་	-3436
གཙོ་བོ་ནི་	-3437
པའི་དུས་ཚོད་	-3438
ལྡན་པའི་སྒོ་ནས་	-3439
སྲིད་འཛིན་	-3440
དཀྲ	-3441
རྒྱ་སྐྱེད་	-3442
འབྱིན་རྔུབ་	-3443
དབྱར་	-3444
.《	-3445
དུས་ཀྱི་	-3446
སྐུད་	-3447
འགྲུལ་པར་ཞབས་ཞུ་	-3448
གློ་བུར་	-3449
པོ	-3450
ཕིང་	-3451
འབོད་	-3452
གསུམ་དུ་	-3453
བྱ་སྤྱོད་ཀྱི་	-3454
li	-3455
དྲ་ཐོག་ནས་	-3456
གཉིས་པ།	-3457
ཉི་ནུས་	-3458
ཆང་	-3459
པའི་ནུས་པ་	-3460
ལ་ལྟ་ཞིབ་	-3461
ཕྱོགས་མང་པོའི་	-3462
ཉོས་	-3463
རོགས་བྱེད་ཐུབ།	-3464
གྱོང་གུན་	-3465
གཏོང་བ་དང་།	-3466
འགྲན་རྩོད་ཁ་གཏད་	-3467
བརྡར་ཤ་གཅོད་	-3468
ཏིང་	-3469
ཚོང་རྟགས་ཀྱི་	-3470
ཕྱོགས།	-3471
ལས་བཟོ་པའི་	-3472
ཐབས་ཇུས་དང་	-3473
ལྐོག་	-3474
དབྱེ་ཞིབ་ཀྱི་	-3475
དྭ	-3476
སྡེབ་སྒྲིག་	-3477
སློབ་སྦྱོང་ལ་	-3478
ལག་རྩལ་གསར་པ་	-3479
དཔའ་བོ་	-3480
ཟོས་	-3481
ཟིན་བྲིས་	-3482
རྒྱ་ཁྱབ་ངང་	-3483
བྱས་ཆོག་པ་མ་ཟད།	-3484
བསྲེས་	-3485
གྲགས་ཅན་	-3486
ཧུའེ་	-3487
res	-3488
ཚད་དང་།	-3489
སྐད་ཀྱི་	-3490
ལ་མི་	-3491
ལ་བསམ་གཞིགས་	-3492
གནས་བབ་	-3493
སོགས་རེད།	-3494
འཚོ་བཅུད་	-3495
JavaSc	-3496
དགོས་ཤིང་།	-3497
ཕྱིའི་	-3498
འཛོལ་	-3499
མཚོན།	-3500
▁མཉམ་འཇོག་	-3501
སོགས་ལྟ་བུ་རེད།	-3502
སྟེགས་བུའི་	-3503
མཛེས་ལྗོངས་	-3504
▁ཡོང་	-3505
བྱེད་ཐུབ་པ་དང་།	-3506
▁ཁྱེད་རང་གིས་	-3507
ཁྲོམ་ར་	-3508
དང་པོར་	-3509
དོན་དག་	-3510
དཀྱ	-3511
ཚོགས་ཆེན་	-3512
གཟབ་	-3513
སྣེ་མང་	-3514
འབྲས།	-3515
ོལ།	-3516
གྲོས་འགོ་འདོན་	-3517
མེ་འཁོར་	-3518
ཧུང་	-3519
ལ་གོ་བ་ལེན་	-3520
དངོས་ཟོག་	-3521
སྒྲིག་གཞིས་	-3522
བཤར་	-3523
མ་དང་	-3524
མཁྲ	-3525
འཆར་གཞི་ཞིག་	-3526
ཐུགས་རྗེ་ཆེ་	-3527
ཆེན།	-3528
རེའུ་མ	-3529
བེད་སྤྱོད་གཏོང་	-3530
ཚེག་	-3531
ཞེས་གསུངས་པ་རེད།	-3532
དགོས་།	-3533
མཐོང་ཆེན་	-3534
རྫས་འགྱུར་	-3535
མི་རེ་རེའི་	-3536
རེ་ཞུ་	-3537
ཤིག་ཏུ་	-3538
གསར་འཛུགས་	-3539
སྒོར་ཁྲི་	-3540
ཙཱ་	-3541
དེ་མིན།	-3542
ངས་ཁྱེད་རང་ལ་	-3543
▁D	-3544
རྩལ་ནུས་དང་	-3545
དྲ་བ་	-3546
བྱེད་མི་རུང་།	-3547
Tr	-3548
འགའི་	-3549
ab	-3550
རག་ལས་	-3551
ནུ་	-3552
se	-3553
ལ་དམིགས་	-3554
སྐོར།	-3555
ཞིག་ཀྱང་	-3556
དལ་	-3557
ཚད་ཇེ་མཐོར་	-3558
ཞིབ་འཇུག་དང་	-3559
སྦྱོང་བརྡ	-3560
དོན་སྤྱི་	-3561
རོགས་བྱས་ཏེ་	-3562
བོད་ཀྱི་	-3563
སྦྱར་	-3564
གལ་ཆེ་བའི་	-3565
ཨ་མེ་རི་ཁའི་	-3566
རྒྱུགས་ལེན་	-3567
བཤེར་འཚོལ་	-3568
མ་ལ	-3569
ཀའི་	-3570
བཞེས་	-3571
རྒྱུན་ལྡན་གྱི་	-3572
རིང་ལུགས་	-3573
ཞིབ་བསྡུར་	-3574
སྐབས་བསྟུན་	-3575
སིལ་	-3576
བཟོ་བའི་	-3577
སོགས་ཀྱི་ལག་རྩལ་	-3578
ཐོ།	-3579
བཤད་པའི་	-3580
ཨང་ཀིའི་	-3581
ངོས་འཛིན།	-3582
རྡུང་	-3583
ངོས་ནས་བརྗོད་ན་	-3584
འགྲིག་གི་རེད་	-3585
གསུང་	-3586
ཅུན་	-3587
ལྟེ་བའི་	-3588
▁ཇི་ལྟར་	-3589
he	-3590
སྒྲོལ་	-3591
སྦྱོང་བརྡར།	-3592
ཆེའི་	-3593
དཔེར་བརྗོད་	-3594
ཧྥེང་	-3595
ལས་གཞན།	-3596
ཉིན་རེར་	-3597
སྨྱན་སྦྱོར་ཐོག་	-3598
བརྡ་རྟགས་	-3599
མཐེབ་	-3600
བརྟན་པོ་	-3601
འདྲ་མཉམ་མིན་པའི་	-3602
འཆར་གཞི་བཟོ་བ།	-3603
འབྲས་བུ་	-3604
གཉེར་སྐྱོང་	-3605
སློབ་སྦྱོང་།	-3606
སྒྲིག	-3607
ཆེ་གྲས་	-3608
བཅངས་	-3609
བསྐྱེད་	-3610
ཕྱོགས་གཉིས་	-3611
དང་འབྲེལ་བའི་	-3612
རང་གིས་རང་ལ་	-3613
ཚགས་པར་	-3614
ེགས།	-3615
དམག་འཁྲུག་	-3616
ས་ནས་	-3617
བསྡུའི་	-3618
སེམས་ལྷོད་	-3619
ཧ་ཅང་ཡག་པོ་	-3620
ལང་	-3621
ཐག་གཅོད་ཀྱི་	-3622
ཕྱུག་	-3623
མངག་	-3624
མཁན།	-3625
ནན་ཏན་	-3626
ལ་ཚོད་འཛིན་	-3627
ML	-3628
དུམ་བུ་	-3629
ཅེས་བཤད་པ་རེད།	-3630
པ་ནས་	-3631
ཚུད་པའི་	-3632
ཚད་ཡོད་	-3633
རིགས་གཅིག་	-3634
གནམ་གྲུ་	-3635
ཆེ་རུ་འགྲོ་	-3636
NLP	-3637
ལྡན་ཡོད།	-3638
ཚིག་གི་	-3639
བསམ་འཆར་ལ་	-3640
སློབ་ཆེན་གྱི་	-3641
སྔོན་གྱི་	-3642
འགོད།	-3643
བློ་གྲོས་	-3644
ཡིན་པར་	-3645
བཀག་འགོག་	-3646
བྱེད་པའི་ལག་ཆ་	-3647
ཡ།	-3648
སྤྲོ་སྣང་དང་	-3649
དུས་ཡུན་	-3650
▁ཡོང་ང་།	-3651
བརྒྱུད་སྤྲོད་	-3652
ཐོན་གྱི་	-3653
སྤྲི་	-3654
སྒྲིག་ཆས་ཀྱི་	-3655
ཏུན་	-3656
འཕྲིན་གཏོང་	-3657
རྨས་	-3658
ཡིན་ན་	-3659
ཞུགས།	-3660
ཚོད་ལྟས་	-3661
མདུན་དུ་	-3662
མང་པོ་ཞིག་ལ་	-3663
ཡིན་ནའང་	-3664
ཆེ་རུ་བཏང་ནས་	-3665
བསྟུན་གྱི་	-3666
ན།ཁྱོད་ཀྱིས་	-3667
དཔལ་འབྱོར་གྱི་	-3668
སོགས་ཚུད་པའི་	-3669
གཏན་འཁེལ་བྱེད་པ།	-3670
ཉམས་འགྱུར་	-3671
བྱ་རིམ་གྱི་	-3672
ཆིའུ་	-3673
འཐབ་ཇུས་	-3674
སློབ་སྦྱོང་བྱེད་	-3675
འདྲའི་	-3676
ཤུ་	-3677
སྤྱོད་ཆོག་	-3678
རིགས་དབྱེ་བའི་	-3679
ནི	-3680
གསེབ་	-3681
འབྲེལ་བ་འཛུགས་	-3682
ཕྱིན་ནས་	-3683
བྲོ་བ་	-3684
གསུམ་གྱི་	-3685
▁མི་	-3686
བྱས་པ་བརྒྱུད།	-3687
▁t	-3688
སྐྱེན་	-3689
མི།	-3690
འགྲན་སློང་དང་	-3691
ཇུས་འགོད་དང་	-3692
གྱང་	-3693
མཉམ་སྡེབ་	-3694
ཐུབ་པར་མ་ཟད།	-3695
Facebook	-3696
གསལ་པོར་	-3697
ཕྱོགས་ཚད་	-3698
སྤྱི་ལེ་	-3699
ཚི་	-3700
སྤྱོད་ཚུལ་	-3701
རྒྱུར།	-3702
དེའི་ནང་གི་	-3703
སྤྱོད་སྒོ་	-3704
གང་ལ་	-3705
ཚད་འཇལ་	-3706
▁L	-3707
ལས་མི་	-3708
སྦྱིན་	-3709
ཇུས་ཐག་གཅོད་	-3710
པའེ་	-3711
སློབ་གྲྭ	-3712
གཙོ་བོའི་	-3713
ཡིའུ་	-3714
བཟོས་པའི་	-3715
སྤྲི་དཀར་	-3716
ཡོད་དགོས།	-3717
གཟིགས་སྐྱོང་	-3718
ཧྲང་ཧའེ་	-3719
དེ་བས་ཡག་པོ་	-3720
ལན་གྱི་	-3721
དྲ་ཐོག་གི་	-3722
འཇོག་དགོས།	-3723
འགྱུར་བ་	-3724
དམག་དཔུང་	-3725
བསམ་པ་	-3726
གནས་ཡོད།	-3727
ལས་འདས་	-3728
▁ང་ཚོའི་	-3729
རིག་ནུས་དང་	-3730
ལྟ་སྐུལ་དོ་དམ་	-3731
དད་མོས་	-3732
ཡིས་ད་དུང་	-3733
ཀྲེང་	-3734
གཟུགས་པོའི་	-3735
ུབས་	-3736
ལྡན།	-3737
ཡོད་དམ་།	-3738
སྡེ་ཚན་	-3739
དེ་བས་ལེགས་པ་	-3740
རྩོམ་སྒྲིག་པ།	-3741
ཉེ་བའི་	-3742
ཧའོ་	-3743
གསང་གྲངས་	-3744
འཕྲོད་བསྟེན་	-3745
པའི་ཆ་	-3746
ཐག་གཅོད་དང་	-3747
གསང་སྡོམ་	-3748
དྲ་རྒྱ་	-3749
བྱེད་པའི་ཐབས་ལམ་	-3750
ཐག་གཅོད་བྱ་དགོས།	-3751
ལ་བསམ་བློ་གཏོང་	-3752
སློབ་གསོ།	-3753
▁དེར་བརྟེན།	-3754
ག་རེ་	-3755
བཅུག	-3756
ཐབས་ཇུས་ཀྱི་	-3757
ནམ་ཡིན་ཡང་	-3758
འགལ་རྐྱེན་	-3759
ཐ་ན་	-3760
འབྲོག་	-3761
ནུས་པའི་	-3762
ཁོངས་ཀྱི་	-3763
ཐོབ་ཐུབ།	-3764
མུའུ་སི་	-3765
བསད་	-3766
གདན་ཞུའི་	-3767
པའི་གནས་ཚུལ་	-3768
སྡེ་ཁུལ་གྱི་	-3769
ཚོད་ལྟས་ར་སྤྲོད་	-3770
ངོ་སྤྲོད་བྱས་ན་	-3771
གང་ཡང་	-3772
བར་གསུམ་དུ་	-3773
སན་	-3774
བབས་ཚུགས་	-3775
སྐྱེས་པའི་	-3776
མང་པོ་ཞིག་གི་	-3777
དུད་	-3778
ort	-3779
སྤྱོད་རྒྱུ་	-3780
ཤེས་དགོས།	-3781
གནོན་ཤུགས་དང་	-3782
ཀྲོ་མ་ཀྲུའི་	-3783
རེ་རེར་	-3784
ཐོན་ཁུངས་དང་	-3785
ཚོང་ཁང་	-3786
དབྱིན་ཡིག་	-3787
མཚོན་ན།	-3788
ངས	-3789
རྐྱེན་གྱིས་	-3790
ཚད་བརྒལ་	-3791
སྨྱན་གཟུགས་ཀྱི་	-3792
ཁོག་	-3793
ལ་ངོ་རྒོལ་	-3794
ལུགས་མཐུན་གྱི་	-3795
གལ་ཏེ་ཁྱོད་ལ་	-3796
ནུས་པ་གལ་ཆེན་	-3797
སྤྱོད་ཆོག	-3798
བྲག་	-3799
སྤྲད་པའི་	-3800
བསྡོམས་རྩིས་	-3801
མཁོ་འདོན་བྱས་	-3802
གསར་པ་ཞིག་	-3803
མངོན་གསལ་དོད་	-3804
ཤེས་འདོད།	-3805
བརྗོད་བྱ་གཙོ་བོ་	-3806
བརྩམས་སྒྲུང་	-3807
ཁོངས་གཏོགས་	-3808
དྲོ་	-3809
གྲོས་མཐུན་	-3810
ནོར་འཁྲུལ་གྱི་	-3811
ཞི་བདེ་	-3812
བྱེད་སྲིད་	-3813
རྐང་རྩེད་	-3814
འཇོག	-3815
རིན་ཐང་ལྡན་པའི་	-3816
ལག་ཐོགས་	-3817
གནས་ཡུལ་	-3818
དབྱིན་ཡིག་གི་	-3819
གཏན་ཚིགས་	-3820
ལས་འགན་འགྲུབ་	-3821
ཁྲའོ་	-3822
དེ་བས་མང་བའི་	-3823
མཆོད་	-3824
དང་རིག་གནས་	-3825
གྲོང་གསེབ་	-3826
ཡིག་གཟུགས་	-3827
ཡོལ་	-3828
དྭངས་	-3829
རྩོམ་རིག་	-3830
ཀན་	-3831
ཇེ་ཉུང་དུ་	-3832
གྱོན་ཆས་	-3833
ལག་ཆ་དང་	-3834
བདེ་བླ	-3835
ཟད་གྲོན་	-3836
བྱེད་སྒོར་	-3837
བློ་རིག་	-3838
དགོས་པ་ཞིག་ལ།	-3839
བྱེད་འགོ་	-3840
ལ་གཞིགས་	-3841
གསར་བརྗ	-3842
ཞབས་འདེགས་	-3843
ཞན་ཆ་	-3844
མི་འདྲ་བ་དང་	-3845
▁ཀྲུང་གོའི་	-3846
སྐྲག་	-3847
ཀྲོའུ་ཡི་	-3848
ལ་ཁ་གཏད་འཇལ་	-3849
གློ་བུར་དུ་	-3850
ཐོག་མཐའ་	-3851
ཧུར་བརྩོན་གྱི་	-3852
བསྔགས་བརྗོད་	-3853
དགོན་	-3854
▁m	-3855
རྫུན་	-3856
རོགས་པ་བྱས་ནས་	-3857
དེ་མཚུངས་ཀྱི་	-3858
འཚག་	-3859
སོགས་ཀྱི་བྱ་ཐབས་	-3860
སྲིད་ལོ་	-3861
དངོས་གནས་	-3862
ཕྱིར་འབུད་	-3863
il	-3864
ཐིང་	-3865
འཛེར་	-3866
རེའུ་མིག	-3867
རྒྱུའི་འགན་ལེན་	-3868
འཆམ་མཐུན་	-3869
གསལ་བོ་	-3870
གང་དག་ཡོད་དམ།	-3871
ལག་ཐོགས་ཁ་པར་	-3872
ཀོ་	-3873
ཚོགས།	-3874
དགོས་ཏེ།	-3875
▁བསམ་འཆར་	-3876
བྱེད་ཐབས་འགའ་	-3877
ལས་སླ་	-3878
རྗེས་སུ།	-3879
ཕྲུག་	-3880
▁b	-3881
ཐོག་མར་སྦྱོང་	-3882
མཁར་	-3883
ཞིག་ཏུ་འགྱུར་	-3884
ཚོད་འཛིན་གྱི་	-3885
འབྲུག་	-3886
ཕོ་བྲ	-3887
ཆེན་པོས་	-3888
མནའ་འབྲེལ་	-3889
རོལ་རྩེད་ཀྱི་	-3890
ཐུབ་བམ།	-3891
▁ལོས་	-3892
ཉལ་	-3893
དགོས་མེད་ཀྱི་	-3894
རང་བྱུང་གི་	-3895
འཁོར་གྱི་	-3896
▁d	-3897
ser	-3898
▁གཤམ་དུ་	-3899
ཀྱི་རེད།	-3900
ཞོར་	-3901
ཞིབ་དཔྱད་ཚད་ལེན་	-3902
འཕེན་	-3903
ལག་རྩལ་སྤྱད་ནས་	-3904
རང་བཞིན་འགན་ལེན་	-3905
བཅས་ཚུད་ཡོད།	-3906
འཕྲུལ་འཁོར་གྱིས་	-3907
དང་བཀོལ་སྤྱོད་	-3908
གློག་ཀླད་	-3909
ul	-3910
རྐྱེན།	-3911
ལས་འགན་སྒྲུབ་	-3912
མངོན་མེད་ཀྱི་	-3913
འཛུགས་པ།	-3914
འགོད་དགོས།	-3915
ཁ་གསབ་	-3916
མཁྲེགས་	-3917
གྲོང་ཚོ་	-3918
དབུལ་ཕ	-3919
ཚོང་རར་	-3920
▁རང་གི་	-3921
བཤད་ན་	-3922
གཞན་དག་གི་	-3923
བདེ་བླག་	-3924
མའེ་	-3925
དེ་བས་ཡག་པ་	-3926
འཕོ་	-3927
ཐཱ	-3928
ཁོ་ན་	-3929
▁B	-3930
བྱེད་ཀྱི་རེད།	-3931
རིམ་སྒྲིག་	-3932
ཐུའུ་	-3933
ཆུད་ཟོས་	-3934
ནང་ཁུལ་གྱི་	-3935
འཇམ་	-3936
བསམ་བློ་ཡང་ཡང་	-3937
ཤི་	-3938
རིན་ཐང་ལྟ་བ་	-3939
ལ་ཟེར།	-3940
གང་ཡིན་	-3941
འཚོ་བར་	-3942
གཞི་གྲངས་དེ་	-3943
སྔོན་ནས་ཐག་གཅོད་	-3944
བརྐ	-3945
ཡོད་པ་སྟེ།	-3946
སྲུང་སྐྱོང་དང་	-3947
ཀྲེ་	-3948
མཚོན་ཐབས་	-3949
བརྒྱབ་ནས་	-3950
འཛམ་གླིང་གི་	-3951
འབྱུང་སྲིད།	-3952
ཚན།	-3953
བ་ཡིན།	-3954
འཕེལ་ཕྱོགས་དང་	-3955
ཐག་གཅོད་བྱེད་པར་	-3956
SE	-3957
སྒོ་རྒྱག་	-3958
ཕུན་སུམ་ཚོགས་	-3959
ཐོན་ཁུངས་ཀྱི་	-3960
ཐར་	-3961
ཆུང་བའི་	-3962
ཁྱིམ་དུ་	-3963
ལོ་ཙཱ་	-3964
ཁོར་ཡུག་དང་	-3965
ay	-3966
▁N	-3967
ན་འགྲིག་གི་རེད།	-3968
སྡོམ་རྩིས་	-3969
ཆབ་སྲིད་ཀྱི་	-3970
གློག་བརྙ	-3971
པར་བྱེད་དགོས།	-3972
དབུལ་ཕོངས་	-3973
ate	-3974
མངར་	-3975
ལྷག་ཏུ་	-3976
གྲངས་ཉུང་	-3977
རི་མོ་དང་	-3978
ཕེབས་	-3979
སྲུང་སྐྱོབ་ཀྱི་	-3980
བཀྲ་	-3981
སྐྱུར་	-3982
ཏང་གི་	-3983
༡༩	-3984
ནད་པ་	-3985
ཧྲེན་	-3986
ཞ་	-3987
ཐལ་	-3988
གློག་སྒྲོན་	-3989
ཚུར་ལན་	-3990
བསམ་འཆར་འདོན་	-3991
རྒྱལ་ཁབ་དང་	-3992
འདྲ་མཉམ་དང་	-3993
རྟགས་ཅན་གྱི་	-3994
ོ།།	-3995
རྒྱུན་བཀོལ་	-3996
ཆེས་བཟང་	-3997
our	-3998
གང་འདྲ་བྱས་ཏེ་	-3999
ཁྲོམ་རར་	-4000
བྱས་ནས།	-4001
བཀོལ་བ།	-4002
ཐོབ་ཐབས་	-4003
རྩ་བའི་རིགས་	-4004
རབ་དང་རིམ་པ་	-4005
ཡིན་པ་མ་ཟད།	-4006
མང་ཙམ་	-4007
དབྱིབས་ཀྱི་	-4008
ཕྱོགས་ཀྱིས་	-4009
འོག	-4010
དང་བསྡུར་	-4011
བརྡ་འཕྲིན་	-4012
ཞུ་གཏུག་	-4013
གདན་ཞུ་	-4014
བཀོལ་མཁན་གྱི་	-4015
སེང་	-4016
ཐུབ་པ།	-4017
བདག་གིས་	-4018
ལག་རྩལ་ནི་	-4019
ལ་གནོད་འཚེ་	-4020
བ་མ་ཟད།	-4021
wit	-4022
ཞེ་	-4023
གལ་ཆེ་བ་	-4024
འདིས་ཁྱོད་ལ་	-4025
ཆས་ཀྱིས་	-4026
ཡོད་པ།	-4027
གནད་ཚིག་	-4028
བརྩིས་	-4029
གཞི་གྲངས་ཚོགས་	-4030
མདོ་	-4031
ལུན་	-4032
སྣོལ་	-4033
ཁོ་མོའི་	-4034
དགོད་	-4035
འཕོ་འགྱུར་	-4036
གཙོ་བོར་	-4037
གླུ་གཞས་	-4038
py	-4039
བལྟ་རུང་	-4040
འཚོགས་	-4041
དགའ།	-4042
དངུལ་ལོར་	-4043
དང་བླངས་	-4044
ata	-4045
དང་གསར་གཏོད་	-4046
བསྡུ།	-4047
ལ་ཞིབ་འཇུག་	-4048
འགལ་གྱི་	-4049
ཧྲིན་	-4050
ཁྲི	-4051
ack	-4052
ཚུར་རྒོལ་	-4053
ཡིག་རྟགས་	-4054
བྱ་དགོས།དཔེར་ན།	-4055
ཨེ་ཤེ་	-4056
མཐོའི་	-4057
ཝན་	-4058
ཐེབས་རྩ་	-4059
བྱེད་ཐུབ་ལ།	-4060
ནུས།	-4061
ཆའོ་	-4062
སྐལ་	-4063
བསྐོར་	-4064
མཛའ་གྲོགས་	-4065
ཡིག	-4066
བསམ།	-4067
རིག་གཞུང་	-4068
སྐས་	-4069
ཁོ་ལ་	-4070
ཁྲུང་	-4071
བྱ་དགའ་སྤྲོད་	-4072
འཛེར་སྒྲ་	-4073
ཁ་བྲལ་	-4074
བྱ་རྒྱུ་རེད།	-4075
ཐཱན་	-4076
དགའ་ཕྱོགས་དང་	-4077
ཐུབ་པས།	-4078
དཀའ་ཁག་	-4079
དབུས་	-4080
དེ་ལས་ལྡོག་	-4081
བཏང་ཡོད།	-4082
ཡིན་མིན་	-4083
ལྗང་མདོག་	-4084
སྐུ་མགྲོན་	-4085
ཆེ་ཤོས་ཀྱི་	-4086
ཡིན་མོད།འོན་ཀྱང་	-4087
གཉེན་སྒྲིག་	-4088
གོ་རིམ་དང་	-4089
རྩ་འཛུགས་ཀྱི་	-4090
སེམས་ལ་	-4091
ཐིག་གཤིས་	-4092
མཁོ་འདོན་ཚོང་	-4093
བཅར་འདྲི་	-4094
འགག་རྩ་	-4095
ཞིག་ཡིན་པས་	-4096
▁འཕྲུལ་ཆས་	-4097
དོན་ཚན་	-4098
སྤྱོད་པའི་	-4099
ཕན་འབྲས་ལ་	-4100
འགྲན་བསྡུར་གྱི་	-4101
བསམ་བླ	-4102
འདྲ་བའི་	-4103
མི་སྣ་དང་	-4104
བྱེད་དགོས།གལ་ཏེ་	-4105
སྙིང་སྟོབས་	-4106
ལྟ་བུ་ཡིན།	-4107
▁གཞི་གྲངས་	-4108
if	-4109
གཞོགས་འདེགས་	-4110
རང་བྱུང་ཁམས་	-4111
ཐོབ་ཡོད།	-4112
དང་ལེན་བྱེད་མཁན་	-4113
འགྲོ་གྲོན་	-4114
འགོག་རྐྱེན་	-4115
ig	-4116
ཀྲའོ་	-4117
ལྷུང་	-4118
ནི་ཧ་ཅང་གལ་ཆེ།	-4119
འཚམ།	-4120
▁ཐོག་མར།	-4121
ལེགས་སུ་གཏོང་བ།	-4122
▁དེ་ན་	-4123
གཏོང་སྤྲོད་	-4124
མཐོང་རུང་ཅན་གྱི་	-4125
གཟུགས།	-4126
བྱེད་མི་ཐུབ།	-4127
བསམ་པའི་	-4128
རྒྱུན་འཛིན་	-4129
མཆོང་	-4130
སྐར་གྲངས་	-4131
ཁག་ཐེག་བྱེད་ཐུབ།	-4132
witter	-4133
བྱས་རྗེས།	-4134
སྐྲུན་གྱི་	-4135
བཀོལ་ན་	-4136
▁ངའི་རེ་བར་	-4137
བདེ་སྲུང་གི་	-4138
ནའང་	-4139
གཅིག་ལ་	-4140
མ་ལག	-4141
མྱུར་ཚད་དང་	-4142
ཐུགས་རྗེ་ཆེ།	-4143
ཁྲིད་སྟོན་	-4144
བའི་མཐོང་ཆུང་	-4145
age	-4146
འགྱུར་ཚད་	-4147
སྐད་ཆ་ཤོད་རེས་	-4148
ད་ཡོད་ཀྱི་	-4149
ཨང་ཀི་	-4150
དགོས་མཁོ་ལྟར་	-4151
དྲང་བདེན་	-4152
ལས་ཀ་བྱེད་སྟངས་	-4153
གནམ་གྲ	-4154
ལ་འཕྲད་	-4155
ཟོག་འགྲེམས་	-4156
གནས་སུ་	-4157
མི་ཐེབས་	-4158
ག་གེ་	-4159
བཞུགས་	-4160
བཞེས།	-4161
ཚོང་ལས་ཀྱི་	-4162
ཕུགས་འདུན་	-4163
འཁྲབ་གཞུང་	-4164
སྐྲན་	-4165
ཞེན་	-4166
ུའུ།	-4167
Re	-4168
ཆེས་འཚམ་པའི་	-4169
རྒྱུན་བཀོལ་གྱི་	-4170
བྱོས།	-4171
གཞུང་ལམ་	-4172
ཞིག་ཏུ་གྱུར་ཡོད།	-4173
ཚར་	-4174
རྒན་རྒ	-4175
ཁོངས་མི་	-4176
ནམ་ཡིན་ཡང་ང་ལ་	-4177
རྒྱ་གར་	-4178
▁ནི་	-4179
མགོ་བརྩམས་	-4180
སྲིད་ཇུས་དང་	-4181
གནད་འགག་	-4182
བྱ་གཞག་	-4183
ro	-4184
red	-4185
ཟབ་ཏུ་	-4186
CSS	-4187
ཁོང་ཚོ་	-4188
ཙུང་ཐུང་	-4189
དང་ལེགས་སྒྲིག་	-4190
ཚིལ་	-4191
ཀུའེ་	-4192
ཆོག་མཆན་	-4193
སྡེར་	-4194
ཚིག་དོན་	-4195
ཞི་ལྷོད་	-4196
ཆེན་གྱི་	-4197
བྱེད་མཁན་ལ་	-4198
བྱ།	-4199
ཅིག་ཡིན་ཞིང་།	-4200
ལ་བརྟག་དཔྱད་	-4201
ཡུལ་གྱི་	-4202
བྱུང་ཡོད།	-4203
བ་སོགས་ཀྱི་	-4204
དུས་མཚུངས་སུ།	-4205
འགྲམ་གྱི་	-4206
དགེ་རྒ	-4207
ཀྲུང་ཧྭ་	-4208
བྱེད་ཐབས།	-4209
ཤེད་	-4210
འབུམ་	-4211
གཡས་	-4212
མཁའ་རླུང་	-4213
རྒྱལ་ཡོངས་ཀྱི་	-4214
lelo	-4215
འདེམ་པའི་	-4216
སུན་	-4217
པ་དང་འབྲེལ་	-4218
སྙོམ་སྒྲིག་	-4219
འབུ་	-4220
གྲོས་འགོ་བཏོན་	-4221
རྒྱུར་ཕན་པ་ཡོད།	-4222
ཅི་འདྲ་	-4223
དེ་ལྟར་བྱས་ཚེ་	-4224
ལིས་	-4225
རྒན་རྒོན་	-4226
ལས་གྲོགས་	-4227
ཤུགས་དང་	-4228
བརྩམས།	-4229
སྒར་	-4230
བསྡུར་ཚད་	-4231
ཚྭ་	-4232
པ་དེས་	-4233
འཕུར་སྐྱོད་	-4234
རྟེན་འབྲེལ་	-4235
ཆེན་པོ་ཡོད།	-4236
འདྲ་མཚུངས་	-4237
ཆེས་ཆེ་བའི་	-4238
སྤྱི་ལོ	-4239
སྟབས་བདེ་བའི་	-4240
ཨུ་རུ་ས	-4241
པ་མ་ཟད་	-4242
མྱུར་དུ་	-4243
བརྩེ་བ་	-4244
དབྱི་སི་	-4245
སང་	-4246
རྒྱུར་སྐུལ་འདེད་	-4247
གང་དག་ཡོད།	-4248
གྲུ་བཞི་	-4249
གཏོགས།	-4250
དམའ་རུ་	-4251
རྡེག་	-4252
བེད་སྤྱོད་ཀྱི་	-4253
ens	-4254
དཔྱད་བསྡུར་	-4255
ist	-4256
ind	-4257
གནས་ཚུལ།	-4258
སྔོན་ཆད་	-4259
མང་བ་	-4260
སའེ་	-4261
agram	-4262
རོལ་དབྱངས་ཀྱི་	-4263
བསྒྲུབས་	-4264
ཅིའི་ཕྱིར་	-4265
ལེགས་པོ་ཞིག་	-4266
ལག་རྩལ་སྤྱད་དེ་	-4267
དྲང་གཞ	-4268
རག་ལས་ཡོད།	-4269
འདྲ་པར་	-4270
རེད་དམ།	-4271
གཅིག་སྡུད་	-4272
ནས	-4273
བཀོལ་བའི་	-4274
མི་གཞན་ལ་	-4275
ཕུལ་བྱུང་གི་	-4276
དང་གཞི་གྲངས་	-4277
དགོས་ཀྱི་ཡོད།	-4278
ཕྱི་རྒྱལ་གྱི་	-4279
()	-4280
འཕྲོ་བརླག་	-4281
རྣམ་གྲངས་དོ་དམ་	-4282
མཛོད་ཉར་	-4283
བསླབ་	-4284
དྲག་གི་	-4285
འགྲོ་སྐྱོད་	-4286
ངང་རྒྱུད་	-4287
འགྲན་ཟླ་	-4288
སླར་ཡང་	-4289
ཕྱོགས་ལ་	-4290
HTML	-4291
སྔོན་དཔ	-4292
ནད་རྟགས་	-4293
གང་དག་གིས་	-4294
ངའི་རེ་བ་དང་	-4295
གཅིག་གྱུར་	-4296
མདུན་ལམ་	-4297
ཁྲིམས་འགལ་	-4298
བ་དང་བསྟུན་ནས།	-4299
སྒྱུ་རྩལ་གྱི་	-4300
རིམ་གྱིས་	-4301
Inst	-4302
ཀུང་སིར་	-4303
དྲང་གཞག་མིན་པའི་	-4304
རགས་	-4305
ཞེས་པ་དེ་	-4306
གོ་རིམ་གྱི་	-4307
འབུར་	-4308
Instagram	-4309
སྒྲིག་ཆས་དང་	-4310
ལེགས་འགྱུར་	-4311
སྣེའི་	-4312
དར་ཁྱབ་	-4313
ཤེས་རྟོགས་ཐུབ་	-4314
འདྲིའི་	-4315
ཁོ་མོས་	-4316
ཁེའི་	-4317
སློབ་ཁྲིད་ཀྱི་	-4318
བཏོན་པའི་	-4319
བཀོལ་བཞིན་ཡོད།	-4320
དུས་ཐོག་	-4321
སློབ་དཔོན་	-4322
ཇུས།	-4323
རྣམ་པ།	-4324
ཚོམ་	-4325
ཆོས་ཉིད་	-4326
དཔེ་དབྱིབས་ལ་	-4327
ཐ་དད་	-4328
དབྱི་ཐ་	-4329
གྲལ་	-4330
སོགས་ཐད་ཀྱི་	-4331
དགེ་རྒན་གྱིས་	-4332
ོ་གླེང་	-4333
གཏན་འཁེལ་གྱི་	-4334
ཁ་སྐད་	-4335
ལས་ཁུངས་ཀྱིས་	-4336
ཨེན་	-4337
འཚོ་བ་རོལ་	-4338
གདོང་ཐུག་	-4339
བཤད་རྒྱུར།	-4340
ངང་རྒྱུད་རིང་	-4341
ཁྱབ་ཚུལ་	-4342
ཕྱི་གསལ་	-4343
སྲིད་གཞུང་དང་	-4344
གཏན་ནས་	-4345
རང་འགུལ་ཅན་	-4346
སྤར་	-4347
ཕྱི་གསལ་ནང་	-4348
གྲོང་བརྡ	-4349
དྲང་གཞག་དང་	-4350
གཞན་ཞིག་	-4351
བཏོད་	-4352
གཙང་འཁྲུ་	-4353
སྤྱི་མཐུན་	-4354
བདེ་ཐང་དང་	-4355
ce	-4356
བར་གྱི་འབྲེལ་བ་	-4357
སི་ཁྲོན་	-4358
ཁོ་མོ་	-4359
ལ་རྒྱུས་མངའ་	-4360
འབྲེལ་བར་	-4361
འཕྲུལ་ཆས་ཀྱི་མི་	-4362
བྱ་དགོས་ན།	-4363
རོགས་རམ་བྱས་ནས་	-4364
▁ཨ་	-4365
ནས་ཟླ་	-4366
མིའི་གདོང་	-4367
བཙུགས།	-4368
བཏང་བའི་	-4369
བྱེད་ཐུབ་པར་	-4370
མཛུབ་ཁྲིད་	-4371
ཉིས་	-4372
གསོད་	-4373
གལ་ཆེའི་རང་བཞིན་	-4374
བྱིས་པའི་	-4375
བརྡ་ཐོ་	-4376
》(	-4377
བསམ་ན་	-4378
ཨང་རིམ་	-4379
▁n	-4380
སྐུལ་ལྕག་	-4381
དགོས་མིན་	-4382
ཕྱིས་	-4383
ཤིག་གི་	-4384
སྐར་མའི་	-4385
མི་ཚོགས་	-4386
ཉུང་དུ་གཏོང་ཐུབ།	-4387
བཤམས་	-4388
ས་ཁམས་	-4389
དར་རྒྱས་	-4390
ཏུ་འཇུག་	-4391
ཚད་ལེན་ཚོད་ལྟ་	-4392
སོགས་ཀྱི་ཐད་	-4393
གྲྭའི་	-4394
རིང་ལུགས་ཀྱི་	-4395
ཆུང་གྲས་	-4396
སྔོན་ཐོབ་ཀྱི་	-4397
འོན་ཀྱང་།	-4398
བྱུང་བ་རེད།	-4399
བྱེད་པའི་ནུས་པ་	-4400
གསལ་གྱི་	-4401
པ་ལ་	-4402
མི་དགོས་	-4403
ཁོང་ལ་	-4404
འགྲོ་སོང་	-4405
ཞབས་འདེགས་ཞུ་	-4406
ཁྱོད་ཀྱིས་རང་གི་	-4407
སྲ་	-4408
བསམ་འཆར་འགའ་	-4409
མདངས་	-4410
ཕིན་	-4411
ཀྱི་གནད་དོན་	-4412
འབྱུང་སྲིད་པའི་	-4413
མོན་	-4414
གོ་དོན་	-4415
ལས་ཀར་	-4416
port	-4417
བྱེད་ཐུབ་ཅིང་།	-4418
བྱས་ན་ད་གཟོད་	-4419
བཟོ་ལྟ་	-4420
དཀའ་གནད་	-4421
དེ་སྔའི་	-4422
ཉེས་གསོག་	-4423
གྲས་ཤིག་ཡིན།	-4424
ཧེག་	-4425
rint	-4426
ཆོགདཔེར་ན།	-4427
ཡོང་གི་རེད།	-4428
རིས།	-4429
གཤོག་	-4430
པའི་ཆ་ནས།	-4431
བྱས་ཤིང་།	-4432
ཐབས་ལ་བརྟེན་ནས་	-4433
དཔྱད།	-4434
དང་འབྲེལ་གཏུག་	-4435
མན་གྱི་	-4436
མདོར་བསྡུས་	-4437
སྨོན།	-4438
འགན་བཞེས།	-4439
ཞིབ་འཇུག་གི་	-4440
ཏུའོ་	-4441
རྩི་ཐབས་ལ་	-4442
འབྲུ་	-4443
ཕུ་	-4444
ཡུང་	-4445
དུ་འགྱུར་	-4446
ཞིག་ཡིན་པ་	-4447
མཐོ་བ་	-4448
བྱས་པར་གཞིགས་ན།	-4449
མིན་པ་	-4450
ཤེས་སུ་འཇུག་	-4451
རང་འགུལ་གྱིས་	-4452
མིའི་དབར་གྱི་	-4453
ནི་ཀྲུང་གོའི་	-4454
བརྟན་ལྷིང་	-4455
ཚབ་བྱེད་	-4456
གསར་སྐྲུན་	-4457
འདིའི་རིགས་ཀྱིས་	-4458
གསེང་	-4459
ཁོངས།	-4460
བཟང་།	-4461
ལ་ཉན་	-4462
ཁྲིམས་འགལ་གྱི་	-4463
འཚོལ་བསྡུ་	-4464
གདོང་གཏུག་	-4465
རྔ་	-4466
འཆར་གཞི་ཞིབ་ཕྲ་	-4467
ཕེན་	-4468
ཁབ་	-4469
བྱེད་དགོས་མིན་	-4470
རང་འགུལ་གྱི་	-4471
འཚོ་བ་དང་	-4472
▁ཉིན་	-4473
བརྒྱུད་བསྒྲགས་	-4474
བཟོ་བཀོད་	-4475
འབྱེད་པའི་	-4476
Ex	-4477
བཤིག་	-4478
མཐོར་འདེགས་གཏོང་	-4479
གནས་ཐིག་	-4480
མ་གཏོགས་	-4481
ཕྲག་	-4482
arn	-4483
ལག་ཆ།	-4484
ཉིའུ་	-4485
ཕན་ནུས་ཆེ་བའི་	-4486
སྤུས་ལེགས་	-4487
ཕྱིར་གྱར་	-4488
ཆན་	-4489
ལྔའི་	-4490
མཱ་	-4491
རེ་བ་ཡིན་ན་	-4492
བགྲོ་གླེང་	-4493
གླིང་ཕྲན་	-4494
སྤྲས་	-4495
པའི་ཚེས	-4496
བཞིན་པའི་	-4497
སྟོད་	-4498
སློབ་འབྲིང་	-4499
ཁའེ་	-4500
ok	-4501
དྲི་བར་	-4502
གཟེངས་	-4503
བསྟོད་	-4504
སྤེལ།	-4505
ཀྲུའུ་ཞི་	-4506
ལྷ་ས་	-4507
ལན་སློག་	-4508
ཀུ་	-4509
རྟག་ཏུ་	-4510
ཆེན་མོ་	-4511
གཞུང་ལས་	-4512
བཏང་ན་	-4513
དངུལ་བུན་	-4514
སྤྱིའི་ཆ་	-4515
རིགས་དབྱེ་དང་	-4516
ཚོད་ལེན།	-4517
སྙན་ཞུའི་	-4518
འཛིན་གྱི་	-4519
མ་ཐུབ་	-4520
ཡོངས་སུ་	-4521
ཅིག་ཡིན།	-4522
དངོས་གཟུགས་	-4523
དངོས་སྒྱུར་	-4524
འབྲེལ་འདྲིས་ཀྱི་	-4525
འདིའི་ནང་དུ་	-4526
སླ་བའི་	-4527
ལས་ཞུགས་ཀྱི་	-4528
དབྱིན་ཇིའི་	-4529
པ་དང་ཆབས་ཅིག་	-4530
Twitter	-4531
བརྒྱུད་རིམ་ཁྲོད་	-4532
འཁྲབ་ཚན་	-4533
གྲངས་གཞི་དང་	-4534
བྱེད་ས་	-4535
▁གཅིགས	-4536
ཇེ་བཟང་	-4537
དགུན་	-4538
གཡོན་	-4539
=“	-4540
རྙེད་ཐུབ།	-4541
ཛ་དྲག་གི་	-4542
ཆད་པ་	-4543
ཐང་གི་	-4544
བྲེལ་	-4545
སྒྲ་གདངས་	-4546
ཟླ་བ་	-4547
ton	-4548
སྟེ།དཔེར་ན་	-4549
འདོད་ན།	-4550
དཀྱིལ་	-4551
སློབ་སྦྱོང་ནི་	-4552
གཞོན་པ་	-4553
སློབ་གླིང་	-4554
བརྒྱུད་རིམ་ལ་	-4555
▁W	-4556
གཏེར་	-4557
དངུལ་ཁང་	-4558
གཡོག་	-4559
est	-4560
བཟའ་བཅའ་	-4561
བེད་སྤྱོད་པའི་	-4562
རྟགས།	-4563
སུ་བསྒྱུར་	-4564
ཕྱིར་འདོན་	-4565
ིར།	-4566
དབྱིབས།	-4567
▁མཚོ་སྔོན་	-4568
གོ་ལའི་	-4569
ལྗིད་ཚད་	-4570
དཔྱད་གཞི་	-4571
རྒྱལ་རབས་	-4572
ཕན་འབྲས་དང་	-4573
འགྲེམ་སྟོན་	-4574
སྔོ་ཚལ་	-4575
ཞབས་ཞུ་དང་	-4576
པོ་ཞིག་	-4577
མི་ཚ	-4578
རྐང་དངུལ་	-4579
འགྲན་རྩོད་ཀྱི་	-4580
གང་བྱུང་	-4581
འགན་ཁུར་	-4582
གྲུབ་འབྲས་ཐོབ་	-4583
ཞེས་པར་	-4584
བཟའ་བཅ	-4585
སྤྱི་ཚོགས་དང་	-4586
ལས་རིགས།	-4587
ལུགས།	-4588
དམ་ཟ	-4589
ངུའི་	-4590
▁“	-4591
ཀྲུང་གོ་དང་	-4592
པེ་ཅིན་	-4593
མཚོན་ན་	-4594
ནད་གཞི་	-4595
རྒྱ་བསྐྱེད་	-4596
བཙུགས་ཏེ་	-4597
བྱ་རྒྱུ་ཡིན།	-4598
ཁ་ཤས་ལ་	-4599
ཧྥེ་རི་	-4600
མུའུ་སི་ལིན་	-4601
བྱེད་འདོད།	-4602
▁འདི་	-4603
བཅས་ཡིན།	-4604
གསོ་བཅོས་	-4605
མི་དགོས་པའི་	-4606
རྒྱ་ཆེར་	-4607
བུད་མེད་ཀྱིས་	-4608
ལྡན་པར་	-4609
པར	-4610
ུས	-4611
འབྱོར་གསལ།	-4612
ext	-4613
དང་མཐོང་ཆུང་	-4614
རྒྱལ་ཁའི་	-4615
ཕོ་མོའི་དབྱེ་བ་	-4616
དེ་རིགས་ཀྱིས་	-4617
དང་འཚམ་པའི་	-4618
རིག་གནས།	-4619
འཛེམ་	-4620
མའོ་	-4621
ལས་བྱུང་བའི་	-4622
ལ་འབབ་	-4623
▁ཁྱེད་རང་གིས་ངར་	-4624
སྤྱིར་བཏང་གི་	-4625
ཞིག་གསོ་	-4626
རྒྱུད་ཁོངས་	-4627
ཆོག་པ་སྟེ།	-4628
ཡུལ་ལས་འདས་	-4629
ང་ལ་རོགས་བྱས་ནས་	-4630
གྲོང་བརྡལ་	-4631
ལ་ལྟ་ཞིབ་ཚད་ལེན་	-4632
དེའི་ཁྲོད་ཀྱི་	-4633
སྨིན་	-4634
དུས་སྐབས་	-4635
པོད་ཁུག་	-4636
འགུགས་	-4637
མིའི་ཐོབ་ཐང་	-4638
སེམས་མི་	-4639
ཁུར་པོ་	-4640
ཞོགས་	-4641
བྱ་དག	-4642
འགྱུར་འབྱུང་	-4643
འདུ་ཤེས་དང་	-4644
བཏང་ནས།	-4645
ཤིག་ཡིན་ལ།	-4646
འདོན་སྤྲོད་བྱས་	-4647
དོད་པའི་	-4648
པར་ལེན་	-4649
སྐྱེན་པའི་	-4650
ཁུལ།	-4651
ཐུབ་མིན་	-4652
རྩོམ་ཡིག་ཅིག་	-4653
འཛུགས་པར་	-4654
གང་བྱུང་དུ་	-4655
མི་སྣར་	-4656
ཡི་ག	-4657
ཕེ་	-4658
ཉུང་ཤས་	-4659
སྒྲའི་	-4660
ཤེས་འདོད་འདུག	-4661
སྟབས་བདེ་དང་	-4662
དབང་པོ་	-4663
ཕུད།	-4664
བ་སོགས་	-4665
འགུལ་རྣམ་	-4666
རིགས་རྒྱུད་ཐ་དད་	-4667
ཚད་གཞི་དང་	-4668
ནོར་སྲིད་	-4669
འགོག་སྲུང་	-4670
ོམ།	-4671
རྩོམ་ཡིག་གི་	-4672
གསར་ཤོས་	-4673
ཚོགས་འདུར་	-4674
འཇགས།	-4675
བརྒྱབ་སྟེ་	-4676
སྟོབས་དང་	-4677
བར་ཕན་པ་ཡོད།	-4678
དང་།དེ་བཞིན་	-4679
བྱ་རྒྱུ།	-4680
སྡོད་ཁང་	-4681
གསོ་སྦྱོང་དང་	-4682
བརྗེད་	-4683
ཕྱོགས་ཡོངས་ནས་	-4684
དྲང་གཞག་གི་	-4685
༡༠	-4686
སྒྲིག་བཀོད་	-4687
ཚན་རིག་གི་	-4688
Trlelo	-4689
གཅིག་པའི་	-4690
སྒོ་འབྱེད་	-4691
རྩིས་འཁོར་གྱིས་	-4692
ཕྱིན་ཡོད།	-4693
ལས་བཟོ་བའི་	-4694
ཇ་	-4695
རྗེས་སྙ	-4696
རང་མོས་	-4697
ལག་ལེན་བསྟར་	-4698
རྩི་སྟངས་	-4699
གང་རུང་གི་	-4700
ཆུང་གི་	-4701
ཡུན་རིང་གི་	-4702
སྨོན་	-4703
ri	-4704
ལྷིང་འཇགས་	-4705
ན་བསམ།	-4706
ཁ་ཤས་སུ་	-4707
གློག་འཕྲིན་	-4708
ལུག་	-4709
དོན་དངོས་ཐོག་	-4710
low	-4711
བྱས་པ་དེས་	-4712
དུབ་	-4713
ཇེ་དམའ་རུ་གཏོང་	-4714
ཧྲིལ་པོར་	-4715
བྱེད་ཤེས་	-4716
▁སྤྱི་ཚོགས་	-4717
འགྲོ་བའི་	-4718
རྗོད་	-4719
ནུས་རྒྱུའི་	-4720
རང་རྒྱལ་	-4721
འགྲམ་དུ་	-4722
དགེ་རྒན་གྱི་	-4723
སྦྱོར།	-4724
--	-4725
རེ་སྒུག་	-4726
ཐོབ།	-4727
▁སྤྱི་	-4728
དང་ལྡོག་འདྲེན་	-4729
ལྟ་རྟོག་	-4730
▁མ་	-4731
ཤུན་	-4732
འཚུབ་	-4733
ནམ་ཡང་	-4734
ངལ་དུབ་	-4735
འགན་ལེན་བྱ་དགོས།	-4736
སེམས་ཀྱི་	-4737
དབྱེ།	-4738
ཆེད་ལས་མི་སྣ་	-4739
གསར་སྤེལ་གྱི་	-4740
བྱེད་རྒྱུར་	-4741
བྱ་རྒྱུ་ནི་ཧ་ཅང་	-4742
▁ཁྱེད་ཀྱིས་	-4743
འཛིན་པའི་	-4744
ཕོ་བྲང་	-4745
རྒྱུ་དེ་རེད།	-4746
ཡར་རྒྱས་	-4747
གམ་ཡང་ན་	-4748
ཁང་པའི་	-4749
ལས་བཟོའི་	-4750
ཕྱི་རོལ་གྱི་	-4751
us	-4752
བཤེར།	-4753
བསྔགས་སྐུལ་	-4754
འཕྲུལ་ཆས་མི་	-4755
གྲོང་ཁྱ	-4756
དང་པོ་ནི་	-4757
བརླིང་	-4758
ཚང་མ་ནི་	-4759
མི་འདྲ།	-4760
འགྲན་ཡའི་	-4761
ཕྱེ་ནས་	-4762
འཕར་སྣོན་	-4763
རྒྱ་ཡིག་	-4764
དེ་བས་རིག་ནུས་	-4765
སྨན་བཅོས།	-4766
ཀྲུང་གོར་	-4767
ཆོས།	-4768
of	-4769
CNN	-4770
འདེམས་ཆོག	-4771
ཁྱད་རྟགས་	-4772
བྱེད་དགོས།ང་ཚོས་	-4773
ver	-4774
རྨ་	-4775
ུབ།	-4776
▁im	-4777
མཉམ་ལས་ཀྱི་	-4778
ཚོགས་ཀྱིས་	-4779
ཁང་པ་	-4780
བྱེད་ཐུབ་མིན་	-4781
ཚད་བཀག་	-4782
གནས་ཀྱི་	-4783
ཧང་	-4784
འཕགས་	-4785
ཁ།	-4786
བཅངས་པའི་	-4787
གྲོང་ཁྱེར་དང་	-4788
དར་ཁྱབ་ཆེ་བའི་	-4789
▁མིག་སྔར་	-4790
སྔོན་དཔག་དང་	-4791
གོའི་	-4792
དབྱི་ཐ་ལིའི་	-4793
ཚོང་ཤ	-4794
གྱུར་ནས་	-4795
གཞན་ལ་	-4796
ཚོད་ལྟ་བྱས་ནས་	-4797
ཡོ་ག་	-4798
གཉིས་པ་	-4799
ནང་དོན་ལ་	-4800
དུས་ལྟར་	-4801
ས་ཁུལ་དུ་	-4802
ཚོགས་པའི་ཚོགས་	-4803
དུ་བཅུག	-4804
ཆེ་མོ་	-4805
རེའུ་མིག་གི་	-4806
Mic	-4807
ript	-4808
འཛད་སྤྱོད་པས་	-4809
བྲོའི་	-4810
སྤུས་རྟགས་ཀྱི་	-4811
JavaScript	-4812
རྣམ་པ་ཞིག་	-4813
མོ	-4814
སྣེ་ཁྲིད་	-4815
དཀའ།	-4816
op	-4817
ཁེ་དབང་དང་	-4818
▁རིག་ནུས་	-4819
གཤགས་	-4820
རོགས་རམ་བྱས་ཏེ་	-4821
དེ་རྗེས་	-4822
ལ་བསམ་གཞིག་	-4823
ན་ཏུང་	-4824
རྒྱ་ཆེ་བའི་	-4825
བརྒྱུད་རིམ་གྱི་	-4826
གསང་ཨང་	-4827
ནོར་འཁྲུལ་དང་	-4828
ཧྲེ་	-4829
དེབ་དང་	-4830
དང་འབྲེལ་བ་ཡོད་	-4831
ཚང་མའི་	-4832
གོ་ཐོས་	-4833
དང་འདྲ་བར་	-4834
འཇུག	-4835
ཨ་ཧྥེ་རི་	-4836
ག་གེ་མོ་	-4837
སློབ་ཚན་དང་	-4838
ལ་བལྟས་	-4839
བདམས་པའི་	-4840
རྫས།	-4841
ལྔ།	-4842
སྐྱེ་དངོས་ཀྱི་	-4843
གསོ་རིག་གི་	-4844
དྲན་ཤེས་	-4845
གན་རྒྱ་	-4846
རྒྱུན་མི་ཆད་པར་	-4847
དེ་བས་ཆེ་བ་	-4848
དང་མི་ཆོས་	-4849
བཏང་ཆོག	-4850
འབྱུང་སྲིད་	-4851
བསྒྲུབ་དགོས་པའི་	-4852
དམག་དཔོན་	-4853
ཐབས་ཇུས་ལ་	-4854
བཅོ་	-4855
ཁྱབ་ཁོངས་སུ།	-4856
བག་ཆགས་	-4857
གཞོན་ནུ་	-4858
ཁོངས་མིའི་	-4859
དབྱངས།	-4860
གངས་	-4861
ཁྲིམས་མཐུན་	-4862
གཏོང་གི་	-4863
ཡིན་ཏེ།	-4864
སྔར་ལས་མགྱོགས་	-4865
ཡོད།དཔེར་ན།	-4866
རང་བརྟེན་	-4867
དགོས།འདིས་	-4868
པ་བཅས་ཀྱི་	-4869
རིང་།	-4870
ཁོར་ཡུག་ཅིག་	-4871
ཆེན་པོ་ཐེབས་	-4872
སྐད་གྲགས་ཆེ་བའི་	-4873
བདེ་བླག་ངང་	-4874
ལར་	-4875
ID	-4876
མཐོང་ཐུབ།	-4877
ensor	-4878
པའང་	-4879
བྱེད་ཐབས་སྤྱད་	-4880
རྒྱལ་པོ་	-4881
དངོས་ཀྱི་	-4882
ཕོར་	-4883
ཨུ་རུ་སུའི་	-4884
གཅིག	-4885
འགན་བཅོལ་	-4886
ཤ་གནད་	-4887
བསྒྲིགས་	-4888
སྤྱི་ཚོགས་ལ་	-4889
དང་འཕེལ་རྒྱས་	-4890
གོམ་སྟབས་	-4891
ཐོན་རྫས་ལ་	-4892
རི་པིན་གྱི་	-4893
བསྒྱུར་བཅོས་	-4894
གཡོལ་ཐབས་	-4895
▁གོང་གསལ་གྱི་	-4896
སྐུལ་སློང་	-4897
ལེགས་ཆ་དང་	-4898
གཞན་དག་ལ་	-4899
སྲིན་	-4900
གྲུང་	-4901
མང་དུ་གཏོང་དགོས།	-4902
▁R	-4903
གོང་མ་	-4904
གྲོང་ཁྱེར་དུ་	-4905
བཙོངས་	-4906
མི་ཐབས་རིག་ནུས་	-4907
ནང་རྐྱེན་	-4908
སྲན་	-4909
པར་དབང་	-4910
གོང་འཕེལ་	-4911
ཡོང་ཐུབ།	-4912
བཟོ་སྲིད་	-4913
for	-4914
རྩི་ཐབས་སྤྱད་དེ་	-4915
འཚོལ་སྡུད་	-4916
བྱེ་བྲག་ཏུ་	-4917
ཡོད་པར་	-4918
མནན་	-4919
མཁན་དང་	-4920
ཞིབ་བཤེར་དང་	-4921
དམ་ཟབ་	-4922
སྲིད་ཕྱོད་	-4923
བཞུར་ཚད་	-4924
སྟར་	-4925
དུས་རིམ་	-4926
རྒྱག་པ།	-4927
སྨྱན་སྦྱོར་གྱིས་	-4928
com	-4929
ink	-4930
བྲིས་པའི་	-4931
ལྟ།	-4932
འདྲི་ཤོག་	-4933
དབྱུག་	-4934
མཐོང་རྒྱུ་	-4935
ལས་འགན་དེ་	-4936
གོམས་སྲོལ་	-4937
▁ས་	-4938
རིང་ཚད་	-4939
རེ་རེ་བཞིན་	-4940
གྲངས་གཞི་ཅན་གྱི་	-4941
གཞུང་ལུགས་	-4942
པའ	-4943
སྨན་ཁང་	-4944
མི་བྱེད་པའི་	-4945
ཀྲོང་	-4946
ཟི་	-4947
མི་རིགས་ཀྱི་	-4948
ཉིན་རེའི་ལས་རིམ་	-4949
ཆེ་བ་དང་།	-4950
སྤྱི་དམངས་ཀྱི་	-4951
དབང་པོ་སྐྱོན་	-4952
བྱ་ཐབས་སྤྱད་དེ་	-4953
བློ་དཀར་	-4954
གནས་སྤོས་	-4955
བྱེད་པ་དེ་	-4956
me	-4957
བློན་	-4958
མཇུག་མཐར་	-4959
ཐེངས་ཀྱི་	-4960
སེན་	-4961
ངས་ནས་	-4962
བདེ་འཇགས།	-4963
ཁ་གསལ་བཟོ་དགོས།	-4964
བྱེད་ཆེད་	-4965
རོང་	-4966
ion	-4967
གསོན་ཉམས་	-4968
བཀོལ་ཆོག་སྟེ།	-4969
ཐོན་པ་	-4970
ཡིན་ཞེས་	-4971
ཟིན་ཐོར་འགོད་	-4972
len	-4973
ད་རུང་	-4974
ཇི་ལྟར་ཐག་གཅོད་	-4975
འབྲེལ་ཐག་	-4976
བརྗིད་	-4977
སྤེལ་བའི་	-4978
བརྩོན་ལེན་	-4979
མི་གྲངས་	-4980
དྲ་ཚིགས་ལ་	-4981
བཀོལ་མཁན་གྱིས་	-4982
ཀློག་པ་པོ་	-4983
དེང་གི་	-4984
ཡུལ་ལྗོངས་	-4985
བློ་ཡིད་ཚིམ་ཚད་	-4986
གཅིག་སྒྲིལ་	-4987
གྲུ་གཟ	-4988
ཨུད་	-4989
ན་ཡོང་བ་འདུག་གས།	-4990
དེ་ཉིད་	-4991
སྟེ།དཔེར་ན།	-4992
ཐེ་ཞུགས་	-4993
▁དཔེར་ན།	-4994
སེམས་ཁུར་	-4995
འཁོར།	-4996
བཏོན་ནས་	-4997
དྲིས་ལན་	-4998
གཉིས་སུ་	-4999
ལོའི་ལོ་	-5000
འགྱུར་ལྡོག་དང་	-5001
ད་ལྟའི་	-5002
ལོ་རྒྱུས་དང་	-5003
གཡོད་	-5004
▁ཐོག་མར་	-5005
གཙང་སེལ་	-5006
རང་བཞིན་ལྡན་	-5007
▁དོ་སྣང་	-5008
མཚོན་གྱི་ཡོད།	-5009
མང་ཆེ་	-5010
འདི་ལྟར་	-5011
ཡིན་དགོས།	-5012
ངོ་མཚར་ཆེ་བའི་	-5013
འཚམ་ཤོས་ཀྱི་	-5014
ལ་རྒྱུས་ལོན་དང་	-5015
བོ།	-5016
བྱ་དགོས་པའི་	-5017
འཕར་བའི་	-5018
གསར་བཟོ་	-5019
དང་མཉམ་འགུལ་	-5020
གྱོད་དཔེ་	-5021
ཁྱི་	-5022
ལི	-5023
རྡུང་རྡེག་	-5024
སྤྱི་སྤྱོད་	-5025
ལ་དཔྱད་འཇོག་	-5026
བྱ་རྒྱུ་དེ་རེད།	-5027
སློབ་ཚན།	-5028
ཁྱོན་ཡོངས་ནས་	-5029
བཏོན།	-5030
བསྒྲུབ་དགོས།	-5031
བྱེད་ཐུབ་ཀྱི་	-5032
ཤིང་འབྲས་	-5033
འོས་འཚམ་ཞིག་	-5034
PE	-5035
བྱེད་ཀྱི་ཡིན།	-5036
གནས་པའི་	-5037
ངས་ཁྱེད་ལ་	-5038
ཉེན་བརྡ་	-5039
བཞག་པའི་	-5040
▁བྱེད་ཐབས་	-5041
ang	-5042
▁སྤྱིའི་ཆ་	-5043
སྐྱེས་པ་	-5044
དཀོན་	-5045
ཚེ་སྲོག་གི་	-5046
ཨང་རྟགས་	-5047
སེམས་ཁམས་ཀྱི་	-5048
འཚམ་པར་	-5049
བདེན་དཔང་	-5050
བཅས་རེད།	-5051
▁གཉིས་པ།	-5052
གྲོན་དངུལ་	-5053
ཐོབ་པ་རེད།	-5054
རྒྱུའི་རེ་བ་	-5055
བྱེད་ཆོག་གི་ཡོད།	-5056
ལ་སྔར་བས་	-5057
དེ་སྔ་	-5058
ཚད་ལེན་ཚོད་ལྟའི་	-5059
ལཱ་	-5060
ལག་ལེན་གྱི་	-5061
རྩི་ཐབས་སྤྱད་ནས་	-5062
ཞི་ཅིན་	-5063
བརྩེགས་	-5064
སྣོད་བཅུད་	-5065
སྟབས་བདེའི་ངང་	-5066
ཧ་ཅང་དགའ་པོ་	-5067
ནང་དོན།	-5068
ཐུའོ་	-5069
མ་ལག་དང་	-5070
ལས་རིགས་དང་	-5071
འཁྱོག་	-5072
བསྟུད་	-5073
ess	-5074
དབྱེ་ཞིབ་ཡོ་བྱད་	-5075
རི་བོ་	-5076
ཕྲལ་	-5077
ཐེར་	-5078
ཧྥང་	-5079
རུ་ཁག་གིས་	-5080
མ་གནས་དང་	-5081
མི་སྲིད།	-5082
པ་བརྒྱུད་	-5083
བྱེད་པར་ཁག་ཐེག་	-5084
རང་ཚུགས་	-5085
འུ།	-5086
མཐེབ་གནོན་	-5087
གང་དག་ལ་	-5088
ཕྱིས་སུ་	-5089
ཐུགས་རྗེ་ཆེ་ཞུ་	-5090
དབྱེ་འབྱེད་དང་།	-5091
ཡིན་ནམ་	-5092
པར་ཕན་པ་ཡོད།	-5093
གནས་ཚུལ་དངོས་	-5094
བའི	-5095
ངལ་གསོ་དང་	-5096
ཆེ་མོའི་	-5097
ཧྲིལ་པོ་	-5098
ཇུས་འགོད་ཀྱི་	-5099
▁གཤམ་ནི་	-5100
སུའོ་	-5101
དང་ལེགས་བཅོས་	-5102
བྱེད་ཐུབ་པས་	-5103
མཛའ་བརྩེ་	-5104
གོ་རིམ་སྒྲིག་	-5105
རོགས་ལས་	-5106
ཁྱད་ཆོས་ལེན་	-5107
ོར	-5108
དངོས་ཚན་	-5109
བརྒྱུད་རིམ་དང་	-5110
རང་བཞིན་དང་།	-5111
ུར	-5112
ཤུལ་བཞག་	-5113
ཚད་མཐུན་	-5114
མི	-5115
▁F	-5116
བྱེད་སྒོར་ཞུགས་	-5117
སྒྲིག་གཞིའི་	-5118
བྱེད་སྟངས་དང་	-5119
གནད་དོན་འགའ་	-5120
ཐུར་	-5121
ཡོད་ན་	-5122
ཅུས་ཀྱི་	-5123
ནས་ཡོང་བའི་	-5124
ངམ་ཡང་ན་	-5125
འབྱུང་བར་	-5126
མཁའ་འགྲུལ་	-5127
ཟོག་འབྲེལ་	-5128
སྤྱི་ཚོགས་ཤིག་	-5129
ཆེས་གསར་བའི་	-5130
ཀྲོ་མ་ཀྲུ་	-5131
ཚོ།	-5132
འགྱུར་ཁུག་	-5133
ཟུག་	-5134
SEO	-5135
བཟང་ཆ་	-5136
▁སྐབས་	-5137
བཏང་།	-5138
སྙམ་	-5139
བྱས་ཚུལ་	-5140
ནད་ཀྱི་	-5141
ཧྲུའུ་ཅི་	-5142
མཉམ་བསྲེས་	-5143
བརྩི་འཇོག་དང་	-5144
ཁྱོད་ཀྱིས་ང་ལ་	-5145
ཧྥན་	-5146
ཆོན་	-5147
ཡོ་བསྲ	-5148
མཚོན་བྱེད་	-5149
གླེང་སྟེགས་	-5150
རྒྱུ་དེ་ཡིན།	-5151
ཞིའི་	-5152
ཟིང་	-5153
ཞུས་ནས་	-5154
ལེགས་སུ་བཏང་སྟེ་	-5155
RO	-5156
ཚད་ཉུང་དུ་གཏོང་	-5157
ཡོད་སྲིད།	-5158
འགྲིལ་བསགས་	-5159
མི་ཆོག	-5160
ཞིབ་ཚགས་	-5161
ལ་སྐུལ་མ་	-5162
andas	-5163
དོ་དམ་ལག་ཆ་	-5164
རིན་ཐང་ལྟ་བ་དང་	-5165
ཚད་ལེན།	-5166
རིམས་འགོག་	-5167
གཉིས་པར་	-5168
▁E	-5169
འཚམ་པོ་ཡོད།	-5170
འདྲེན།	-5171
འཕྱ	-5172
ཆེ་ཞིང་	-5173
ཅིག་རེད།	-5174
མཚོན་ཡོད།	-5175
དངོས་པོའི་	-5176
དམ་ཡང་ན་	-5177
སྐད་དང་	-5178
ana	-5179
ངོས་སུ་	-5180
དྲ་གྲོགས་	-5181
བསྡུས།	-5182
སྒོ།	-5183
དེ་ཚོའི་	-5184
དམིགས་བྱའི་	-5185
ཡིད་དབང་འགུག་	-5186
དམག་གི་	-5187
ཡོད	-5188
དགོས་པ་ལས།	-5189
དང་མཉམ་སྤྱོད་	-5190
ལོ་ཚོད་	-5191
མེད་པ་དང་།	-5192
སྲང་	-5193
ཤེས་ལྡན་མི་སྣ་	-5194
བར་སྣང་	-5195
ཆེ་རུ་གཏོང་བ།	-5196
ནི་ཅི་	-5197
དུས་ཚོད་ནང་	-5198
▁I	-5199
འགྲོལ་	-5200
ཆེས་བཟང་བའི་	-5201
ཐུང་ངུའི་	-5202
ནིང་	-5203
གི་རིན་གོང་	-5204
ensorF	-5205
ཐུབ་རྒྱུ་རེད།	-5206
ཤིག་ཡིན་པ་དང་།	-5207
འཕྲད་པའི་	-5208
བཀོད་སྒྲིག་དང་	-5209
དུ་འཇུག་དགོས།	-5210
འཚོ་བའི་སྤུས་ཚད་	-5211
དྲི་བར་ལན་འདེབས་	-5212
དཀྲོལ་	-5213
དར་སྲོལ་	-5214
ཆོས་ལུགས་ཀྱི་	-5215
ཡོད་ཚེ་	-5216
ve	-5217
▁།	-5218
▁ལག་རྩལ་	-5219
དམག་དོན་	-5220
གཏམ་རྒྱུད་ཀྱི་	-5221
ཕྱོགས་རིས་ཀྱི་	-5222
emy	-5223
སྨད་	-5224
ཕ་རོལ་པོའི་	-5225
འདམ་	-5226
བརྟག་དཔྱད།	-5227
བྱུང་ན།	-5228
ud	-5229
མེད་པར་བཟོ་	-5230
མིང་།	-5231
ཀྲན་	-5232
འབྲེལ།	-5233
སྐྱོར།	-5234
རྫིང་	-5235
▁print	-5236
གྲྭ	-5237
ཁོངས་སུ་གཏོགས་	-5238
འཐུས་མི་	-5239
ཆེ་བ།	-5240
མྱུར་བགྲོད་	-5241
བསུབ་	-5242
སེམས་དང་	-5243
བརྒལ་གྱི་	-5244
ཡོ་བསྲང་	-5245
ཞིག་ཡིན་པ་དང་	-5246
གཅིག་མཚུངས་	-5247
ཆོག་ཅིང་།	-5248
ཐུབ་ཀྱི་རེད།	-5249
དང་།རིག་ནུས་	-5250
མེད་ན།	-5251
ལ་བརྟེན་ནས།	-5252
རེའུ་མིག་དང་	-5253
སྐྲུན།	-5254
ནམ།	-5255
མེད་པ།	-5256
དཔེ་སྐྲུན་	-5257
ཆེས་གལ་ཆེ་བའི་	-5258
རིགས་རྒྱུད་དང་	-5259
ལས་སླ་པོར་	-5260
བདེན་པ་	-5261
ཀི་	-5262
དེ་དུས་	-5263
བུ།	-5264
lot	-5265
ཆེན་མོའི་	-5266
བསྟུད་མར་	-5267
ལེགས་པར་	-5268
མིན་པ་དང་	-5269
དེའི་ཁྲོད་ནས་	-5270
▁ང་ལ་	-5271
ཡོ་ཆས་	-5272
རྒྱ་མཚོ་	-5273
རྐྱལ་	-5274
གྲང་	-5275
ཞའོ་མིན་	-5276
ཁྲུན་	-5277
དབུ་	-5278
ཕྱོགས་གསུམ་པའི་	-5279
▁re	-5280
རྩིས་རྒྱག་པའི་	-5281
པགས་པ་	-5282
འགྲེམས་སྤེལ་	-5283
བཙུགས་པའི་	-5284
གཏོང་རྒྱུ་	-5285
ཕག་	-5286
སེམས་དཀར་	-5287
དྲག་ཤུགས་	-5288
ཉེ་ཆར་	-5289
ནང་དུ།	-5290
ཁོང་ནི་	-5291
གྲམ་	-5292
འགན་འཁྲི་དང་	-5293
ནན་པོ་	-5294
ཁག་གིས་	-5295
ལྷུ་ཚིགས་	-5296
གསར་སྤེལ་དང་	-5297
ཏེན་	-5298
བྱེད་ཐུབ་།	-5299
འགོ་བརྩམས་	-5300
▁རྒྱལ་ཁབ་	-5301
ཐབས་ཇུས།	-5302
འགྱུར་ལྡོག་གི་	-5303
མཉམ་འདྲེས་	-5304
བཀོལ་སྤྱོད་ལ་	-5305
Sp	-5306
རྩ།	-5307
▁ལྔ།	-5308
གལ་འགངས་ཤིན་ཏུ་	-5309
རླུང་འཕྲིན་	-5310
མཆོག་	-5311
སངས་	-5312
སྤུ་	-5313
སི་ཁྲ	-5314
བསྒྱུར་བའི་	-5315
མི་གཤིས་	-5316
གནས་ཚུལ་འོག་	-5317
གྲངས་ཚད་	-5318
སྐད་འཕྲིན་	-5319
རང་བྱུང་སྐད་ཡིག་	-5320
བསྐྱར་སྐྱེས་	-5321
ལ་རྗེས་འདེད་	-5322
སྤྱི་གླིང་	-5323
རས་	-5324
དཀའ་བའི་	-5325
གཞི	-5326
གཉིས་ནི་	-5327
sera	-5328
འཇར་མན་གྱི་	-5329
འཁྲབ་ཁྲིད་	-5330
བྱེད་ཐབས་དག་	-5331
རྒྱག་པའི་	-5332
དམིགས་ཚད།	-5333
oursera	-5334
འཁྱོལ་	-5335
རིམ་སྤོར་	-5336
ཡོམ་	-5337
འགྲན་རྩོད་ནུས་པ་	-5338
ངལ་གསོའི་	-5339
ཅེས་བཤད།	-5340
ཆུང་དུ་	-5341
ཀང་གི་	-5342
ཆར།	-5343
les	-5344
དམག་འཐབ་	-5345
གྲུ་གཟིངས་	-5346
སོར་	-5347
མི་ཐུབ་པའི་	-5348
དར་སྤེལ་	-5349
འཇོན་	-5350
དེ་རིགས་ནི་	-5351
ལ་ཁ་གཏད་གཅོག་	-5352
དོན་གཉེར་	-5353
བཅས་སུ་	-5354
ཚན་པ་	-5355
▁import	-5356
མ་ཐག་	-5357
སྔོན་ཐོན་གྱི་	-5358
རིམ་པ་དང་	-5359
ནོ་	-5360
བརྩེ་དུང་དང་	-5361
ཡོངས་ཁྱབ་	-5362
སྨན་པའི་	-5363
དེ་ལས་ཀྱང་	-5364
བསམ་བློ་བཏང་ཆོག	-5365
ཧ་ཅང་གལ་ཆེ།	-5366
དབྱེ་ཞིབ་བྱས་ནས་	-5367
རིགས་དབྱེ།	-5368
བཟུང་ནས་	-5369
སྟངས་དང་	-5370
དེ་ལས་མང་བའི་	-5371
སྒྲ་ཟློས་	-5372
མི་ཤེས་	-5373
པུས་	-5374
བཟང་བོ་	-5375
ཡོང་གི་ཡོད།	-5376
རྩ་འཛུགས་ཀྱིས་	-5377
བགོ་འགྲེམས་	-5378
ཁ་ཐོར་	-5379
དཔེ་དབྱིབས་དེ་	-5380
ཟློས་ཕྱོད་	-5381
བྱེད་སླ་བའི་	-5382
སྤུས་ཀ་	-5383
▁མདོར་ན་	-5384
གཞི་རྒྱུའི་	-5385
མྱོང་རོལ་	-5386
རྩིས་བཤེར་	-5387
གཞི་ཁྱོན་ཆེ་བའི་	-5388
དགའ་ཕྱོགས།	-5389
དུ་གཏོང་ཐུབ།	-5390
སྔར་ལས་མང་བ་	-5391
བཟུང་བའི་	-5392
བཟོད་	-5393
དགའ་རོགས་	-5394
སྲས་	-5395
ལ་པ་	-5396
ཅི་ཞིག་ཡོད།	-5397
བསམ་ཡུལ་ལས་འདས་	-5398
མི་རབས་	-5399
SV	-5400
ཐོབ་པ་	-5401
AN	-5402
ས་འོག་	-5403
ཞལ་	-5404
འགྱུར་གྱི་	-5405
ཡིད་ཚིམས་	-5406
གཅིག་བསྡུས་	-5407
སྨུག་	-5408
གཤིས་ནུས་དང་	-5409
རྫ་	-5410
མ་འཇོག་གི་	-5411
ཐད་ལ་	-5412
ཁང་ལ་	-5413
ity	-5414
ལྟོས་བཅས་ཀྱིས་	-5415
བསྐོ་	-5416
དེ་དང་འདྲ་བའི་	-5417
མཚོན་ཐུབ།	-5418
རྐྱེན་པས་	-5419
གང་མགྱོགས་	-5420
སྒུལ་བྱེད་	-5421
ཅིག་ཡིན་པས།	-5422
འབྲེལ་བ་དང་	-5423
གཞུང་ཕྱོགས་	-5424
བྱེད་ནུས་དང་	-5425
ལོའི་ཟླ	-5426
བརྗོད་དོན་	-5427
ེབས།	-5428
དོན་དངོས་སུ་	-5429
TensorF	-5430
འཛུགས།	-5431
སྨན་པ་དང་	-5432
སོག་	-5433
དགོས་པ་དང་	-5434
སྲོག་ཆགས་ཀྱི་	-5435
ནག་པོ་	-5436
ཐུབ་ཅིང་།	-5437
ལས་ཁུངས་ཀྱི་	-5438
བྱུང་ནས་	-5439
ཡོད་པ་གཤམ་གསལ།	-5440
འགའ་ཤས་	-5441
གྲོང་རྡལ་གྱི་	-5442
སློབ་སྦྱོང་དང་།	-5443
ཤིང་གི་	-5444
བརྟག་དཔྱད་དང་	-5445
ཐུབ་པས་	-5446
འཕྲུལ་གྱི་	-5447
བྱས་ཆོག་པ་དང་།	-5448
བསམ་ཤེས་དང་	-5449
དང་རྣམ་པ་	-5450
འཕྲལ་མར་	-5451
རྩོམ་འབྲི་བའི་	-5452
ནད་དཔེ་	-5453
ཐུམ་	-5454
བལྟས་ན།	-5455
ལས་བྱུང་བ་	-5456
ers	-5457
འགྱིག་	-5458
འདི་འདྲའི་	-5459
མི་རྒྱུད་	-5460
རི་མོ་འབྲི་	-5461
བདེ་ཐང་ལ་	-5462
རི་མོ།	-5463
ics	-5464
འཛད་སྤྱོད་པར་	-5465
བ་དང་བསྟུན་ནས་	-5466
ཇུས་འགོད།	-5467
སོང་ནས་	-5468
བརྡ་སྤྲོད་ཀྱི་	-5469
ཨེ་མི་	-5470
Git	-5471
ཐ་སྙད་དང་	-5472
ཀྱི་གཞི་གྲངས་	-5473
སྨན་པར་	-5474
སེའི་	-5475
བརྒྱུད་གཏོང་	-5476
ཀོང་ཏུང་	-5477
གང་འཚམ་	-5478
ནུས་པ་ཐོན་	-5479
python	-5480
Coursera	-5481
ཕན་ཐོགས་ཡོད།	-5482
པ་ལྟར་ན།	-5483
ནུས་ཤུགས་ཡོད་	-5484
ལུས་སེམས་ལྷོད་	-5485
ཆེད་མཁས་	-5486
དུས་ཐུང་	-5487
ཁྱབ་ཁོངས།	-5488
ལོང་	-5489
ཅི་ཡང་	-5490
བྱེད་པའི་ལག་རྩལ་	-5491
བསམ་བློའི་	-5492
དགྲ་	-5493
བདེ་བའི་	-5494
བཅོས་སྐྱོང་	-5495
ལྷམ་	-5496
བསྟན་འཛིན་	-5497
བུ་ལོན་	-5498
ass	-5499
ེན	-5500
ལྟོ་	-5501
ཕྱོགས་བསྡོམས་	-5502
རྩི་ཐབས་ཀྱིས་	-5503
རིག་དངོས་	-5504
བགོས་ནས་	-5505
བོད་རིགས་	-5506
ཕུལ་དུ་	-5507
སྐྱེས།	-5508
གོམ་པ་	-5509
ཉོ་སྒྲུབ་ཀྱི་	-5510
ལ་དཔྱད་དཔོག་	-5511
བསམ་འཆར་ཡིན།	-5512
འཕྲུལ་ཆས་མིའི་	-5513
ཐུབ་མོད།འོན་ཀྱང་	-5514
གཉིས་ལ་	-5515
བཟའ་བཅའི་	-5516
སྐུ་ཕྲེང་	-5517
བྲིས་ནས་	-5518
act	-5519
བྱས་པས་	-5520
སམ་།	-5521
རྒྱུ་ཡིན་པ་	-5522
ཚད་རྡུལ་	-5523
སྔར་ལས་ལྷག་པར་	-5524
ཐབས་ཇུས་བཟོ་	-5525
གྲོང་ཚོའི་	-5526
བྱེད་པ་སོགས་	-5527
ཁེ་ལས་དང་	-5528
འཇབ་	-5529
ེར	-5530
འཚོལ་བཤེར་མ་ལག་	-5531
སྨོས་	-5532
ཁྲེ་	-5533
ཟླ་སྒྲིལ་	-5534
བསྒར་	-5535
གནམ་གྲུའི་	-5536
མེད་པ་རེད།	-5537
▁གཤམ་གསལ་ནི་	-5538
སྤུས་ཚད།	-5539
བསྒྱུར་ནས་	-5540
yt	-5541
▁རྒྱལ་	-5542
མེད་པ་དང་	-5543
བརྙན་རིས་དང་	-5544
ཡོད་ལ་	-5545
དཀར་པོ་	-5546
▁གོ་རིམ་	-5547
ཀྲེ་ཅང་	-5548
སྤྱོད་རྒྱུར་	-5549
ཟླའི་	-5550
ST	-5551
ལོའི་བར་	-5552
མཚམས་སུ་	-5553
ཇི་	-5554
འགྲིག་གི་རེད་དམ།	-5555
གཅེན་	-5556
དབྱེའི་	-5557
རོགས་རམ་འཚོལ་	-5558
གཞན་དག་དང་	-5559
ཞབས་བྲོ་	-5560
ཤོད།	-5561
མེད་དུ་མི་	-5562
ས་ཁང་	-5563
སུའེ་	-5564
ལས་གྲྭ་	-5565
ཡིག་རྒྱུགས་	-5566
ཐེབས།	-5567
རྣམས་ཀྱི་	-5568
བྱེད་པ་མ་ཟད་	-5569
མིང་རྟགས་	-5570
ཚོད་སྐོར།	-5571
འགོད་པའི་	-5572
སྣ་ཚོགས་ལ་	-5573
འཆར་སྣང་	-5574
གནད་དོན་འདི་	-5575
ང་ཚོས་ད་དུང་	-5576
ལས་འགན་གལ་ཆེན་	-5577
ཚིག་དུམ་	-5578
དེ་བས་མགྱོགས་	-5579
ཡོ་བྱད།	-5580
གསར་པར་	-5581
▁ཡིས་	-5582
དོར་	-5583
གཤགས་བཅོས་	-5584
བཀུར་	-5585
དང་འབྲེལ་བ་ཡོད།	-5586
མང་དུ་འགྲོ་	-5587
ཉིན་བར་	-5588
རྗེས་མའི་	-5589
འཛུགས་པའི་	-5590
རྩེད་མོ་མཁན་	-5591
འཁྲབ་བྱའི་མི་སྣ་	-5592
སྤྱོད་ཚུལ་འཛིན་	-5593
ལྡེ་	-5594
རོལ་དབྱངས།	-5595
རི་སྐྱེས་	-5596
ལྟ་བུའ	-5597
སྤྲོ་སྐྱིད་	-5598
▁ཀྲུང་གོ་	-5599
ཡོད་པ་ཤེས་	-5600
གཟབ་ནན་	-5601
སྐྱ་	-5602
ལྷུ་ལག་	-5603
དང་བདེ་འཇགས་	-5604
གང་ལ་གང་འཚམ་	-5605
དཔེ་དབྱིབས་ཀྱིས་	-5606
ལག་ཆ་ཞིག་ཡིན་པས།	-5607
བཟོ་གྲྭ་	-5608
རིགས་ལ་	-5609
འཇབ་རྒོལ་	-5610
གསར་དར་	-5611
སྲེག་	-5612
གཞན་དག་གིས་	-5613
ཐོབ་སྐལ་	-5614
བྱུང་བ་དང་།	-5615
གལ་སྲིད་	-5616
རྐུ་	-5617
གོང་ལ་	-5618
▁ལོས་ཡིན།	-5619
དེ་ཙམ་	-5620
དགོས་པ།	-5621
ཡིད་ཆེས་ཡོད།	-5622
གཅིག་གིས་	-5623
ནཱ་	-5624
བྱ་དགའི་	-5625
མིང་དང་	-5626
སྤྲོད།	-5627
རིན་ཐང་དང་	-5628
ད་ཆ་	-5629
གྱི	-5630
ཅན་དང་།	-5631
སྒོར་མོ་	-5632
མངས་	-5633
ཚོགས་འདུར་ཞུགས་	-5634
འཁྱགས་	-5635
བལྟས་ན་མིས་བཟོས་	-5636
St	-5637
དབྱེ་འབྱེད་ཀྱི་	-5638
དབྱེ་ནས་	-5639
ཤར་གཏོང་	-5640
གནས་སྤོས་ཡུལ་	-5641
རིམ་གྱི་	-5642
ཁྱད་ཆོས།	-5643
able	-5644
ཚོགས་པ་དང་	-5645
མིའི་རིགས་དང་	-5646
མ་འཇོག་མཉམ་སྡེབ་	-5647
གཟི་	-5648
▁ལི་	-5649
ལས་ཀའི་ཁྲོད་དུ་	-5650
མ་འོངས་བའི་	-5651
ཆ་འཕྲིན་ལ་	-5652
པ་ཞིག་ཏུ་	-5653
དགོས་མཁོ།	-5654
▁དྲ	-5655
ཡིག་རྟགས་ཕྲེང་	-5656
གནད་སྨིན་	-5657
སྔོན་བཀོད་	-5658
བྱེད་ཐབས་བརྒྱུད་	-5659
རྒྱང་རིང་	-5660
ཡག་པོ་ཞིག་	-5661
ེའར་	-5662
མཐུན་པའི་	-5663
མྱུལ་	-5664
སྡེའི་	-5665
མེ་འགོག་	-5666
རིག་ནུས་ལ་	-5667
རྣམ་པའི་ཐོག་ནས་	-5668
འགོས་	-5669
ཐོན་ཁུངས།	-5670
བྱས་ཆོགདཔེར་ན།	-5671
འཆར་གཞི་ལྟར་	-5672
ont	-5673
ཐེང་	-5674
འཕྲུལ་འཁོར་གྱི་	-5675
▁G	-5676
དེ་མིན་གྱི་	-5677
དྲོའི་	-5678
དགོས།དཔེར་ན་	-5679
ress	-5680
CR	-5681
ཡིག་ཆ།	-5682
ཐད་གཏོང་	-5683
རྒྱུན་ལས་	-5684
ཡུལ།	-5685
ཉོ་ཚོང་གི་	-5686
དང་མཐུན་སྦྱོར་	-5687
རོགས་།	-5688
འདིས་ཁྱེད་ཀྱི་	-5689
ཤིག་ཡིན་པའི་	-5690
སྐབས་འགར་	-5691
མྱོང་།	-5692
མིན་པའི་གྲངས་ཐང་	-5693
ile	-5694
པང་ལེབ་	-5695
ཀེན་	-5696
འགྲེལ།	-5697
▁ངའི་རེ་བ་ཡིན་ན་	-5698
འགལ་ཟླ་	-5699
ལོ་ནས་བཟུང་	-5700
པན་གྱི་	-5701
སི་ཐན་	-5702
དཔེའི་	-5703
པུའུ་ཡི་	-5704
ཚད་བརྒལ་གྱི་	-5705
འདོམས་	-5706
ཚལ།	-5707
བ་དང་འབྲེལ་	-5708
ནོར་དོན་གྱི་	-5709
པ་ཞིག་ལ་	-5710
གསར་འགོད་པས་	-5711
དགོས་ཀྱི་	-5712
དང་སྐར་མ་	-5713
རྫོགས་	-5714
ཆག་སྐྱོན་	-5715
སྤ་	-5716
▁རེད་	-5717
གི་དུས་ཚོད་	-5718
མཐོན་	-5719
བའི་དུས་ཚོད་	-5720
གཞི་གྲངས་འདི་དག་	-5721
བྱེད་ཐབས་སྤྱོད་	-5722
མི་ཁ་ཤས་ཀྱིས་	-5723
ལེགས་འགྱུར།	-5724
གྲངས་ཀྱི་	-5725
གཏན་གྱི་	-5726
གྲུབ་ཚུལ་དང་	-5727
འབྲེལ་བ་བཟང་པོ་	-5728
གསུང་རབ་	-5729
དབན་	-5730
▁བ་ལ་པ་	-5731
▁བ་ལ་པ་བ་ནི་	-5732
འདྲེས་གྲུབ་	-5733
བཅུག་ནས་	-5734
▁༥	-5735
སོ་སོ་	-5736
མཛད་སྒོ་	-5737
རྦ	-5738
གནོད་འཚེ་ཕོག་	-5739
▁མི་ཐབས་ཀྱི་	-5740
སིས་	-5741
མྱོང་ཡོད།	-5742
མཉམ་ལས་རོགས་	-5743
ཇུས་ཐག་གཅོད་པའི་	-5744
ཆོག་ལ།	-5745
ལ་ཡང་	-5746
ཕ་ཡུལ་	-5747
དང་སློབ་སྦྱོང་	-5748
PI	-5749
མགྲོན་པོའི་	-5750
རྟོག་ཞིབ་	-5751
ee	-5752
གསེར་གྱི་	-5753
ཆུ་ཚད་དང་	-5754
དྲོ་སྐྱིད་	-5755
དྲ་ཚུགས་	-5756
འཛུགས་སྐྱོང་	-5757
གཙང་པོའི་	-5758
རྒྱུ་ཆ་དང་	-5759
བཏང་བ་རེད།	-5760
ཨེ་ཤེ་ཡའི་	-5761
རྩིས།	-5762
མི་ཆོས་དང་	-5763
བཅའ་སྡོད་	-5764
ཕྱོགས་དང་	-5765
རིམ་པ།	-5766
སྐབས་བཅུ་	-5767
རྒྱབ་སྐྱོར།	-5768
ཕན་བདེ་	-5769
ལའོ་	-5770
ཧ་ཅང་རྒྱ་	-5771
up	-5772
བེད་སྤྱད་ན་	-5773
གྲོང་ཚོ།	-5774
▁O	-5775
གོང་མའི་	-5776
བྱ་ཆེད།	-5777
རིང་ལ་	-5778
གང་འདྲ་ཞིག་	-5779
ལྟ་བུའོ།།	-5780
ཉམས་ལེན་དང་	-5781
ཨང་སྒྲིག་	-5782
དབྱེ་ཞིབ་དང་།	-5783
ག་དུས་	-5784
ཞིག་ཡིན།དེས་	-5785
ལས་མངོན་	-5786
མ་ཟས་	-5787
མཛོད་ཁང་	-5788
ལ་དེ་བས་ལེགས་	-5789
ཆུ་བོ་	-5790
དྲ་ཚིགས་ཐོག་	-5791
དེ་གར་	-5792
sana	-5793
ཧྲན་ཏུང་	-5794
▁གཅི	-5795
མགོ་སྐོར་གཡོ་	-5796
ལས་འགན།	-5797
ཀུང་སི་དང་	-5798
▁H	-5799
འདས་ཟིན་པའི་	-5800
ཕྱི་འབྲེལ་	-5801
གལ་ཆེན་ཞིག་རེད།	-5802
ཐུབ་ལ།	-5803
ཁྱད་པར་ཅན་གྱི་	-5804
ལས་གཞི་	-5805
འགའ་ཡོད།	-5806
Word	-5807
ཁོང་དུ་ཆུད་པ་	-5808
ནི་ཆེས་	-5809
མིང་བཏགས་	-5810
ཉི་འོད་	-5811
༠༠	-5812
རྩེར་	-5813
ཡོང་འབ	-5814
སྣ་མང་རང་བཞིན་	-5815
དང་ལེན་རྣམ་པའི་	-5816
རིགས་འདེད་	-5817
ལ་དགའ་	-5818
དམ་འཛིན་	-5819
པུའི་	-5820
སྲིང་	-5821
རྐྱེན་ལམ་དུ་	-5822
བཀུག་	-5823
སྐྱིད་སྣང་	-5824
ནད་དཔྱད་	-5825
རིག་ནུས་ནི་	-5826
དམིགས་ནས་	-5827
ཁང་བའི་	-5828
ཉུང་དུ་འགྲོ་	-5829
cel	-5830
གཏན་འབེབས་དང་	-5831
གཏོར་བཤིག་	-5832
སྒེའུ་	-5833
ཚན་ཁག་	-5834
གློག་བརྙན་གྱི་	-5835
ངུ་	-5836
ཅིའུ་	-5837
མིག་མངས་	-5838
སིལ་ཚོང་	-5839
བག་ལེབ་	-5840
▁འོན་ཀྱང་།	-5841
གློད་	-5842
བཏབ་	-5843
ལྟ་ཀློག་	-5844
བླངས།	-5845
ལྡན་པ་དང་	-5846
འོང་	-5847
རིགས་དང་།	-5848
རྩོམ་པ་པོ་	-5849
▁for	-5850
དང་།སྤྱི་ཚོགས་	-5851
ཤན་	-5852
སྐྲ་	-5853
མིང་གི་	-5854
▁ཡི་	-5855
སི་ཁྲུ་	-5856
དྲ་བར་	-5857
རུའེ་	-5858
ན་ཆོག་གམ།	-5859
ལ་བརྩི་སྲུང་ཞུ་	-5860
རྒྱུས།	-5861
བསམ་ཞིབ་	-5862
གློ་ཚད་	-5863
རྗེན་	-5864
ཁྲིམས་འཛིན་	-5865
མཐོར་འདེགས་སུ་	-5866
འདུ	-5867
ལས་བཟོ་པས་	-5868
ལེགས་པོ་བྱེད་པར་	-5869
སྒེའུ་ཁུང་	-5870
སྟག་	-5871
Excel	-5872
གལ་ཏེ་ང་ཚོས་	-5873
ཤང་ཀང་	-5874
ཞོན་	-5875
མིའི་དབར་	-5876
གློག་རྫས་	-5877
ཚད་མཐོའི་	-5878
དཔེ་ཞིག་	-5879
RNN	-5880
ཅུས་ཀྱིས་	-5881
ཁྲོམ་གཞུང་	-5882
བྱེད་ཐབས་དག་གིས་	-5883
སྐར་ཆ་	-5884
inked	-5885
བྱ་དངོས་	-5886
འགའ་ཞིག་	-5887
ཞེང་	-5888
རིན་ཐང་གི་	-5889
ཐད།	-5890
ང།	-5891
ame	-5892
རེ་འདུན་	-5893
ཕན་འབྲས་ཐོན་	-5894
གྲངས་གཞིར་	-5895
མཛོད་ཀྱི་	-5896
གནང་རོགས།	-5897
ཟེར་བའི་	-5898
དབྱང་རླུང་	-5899
དཔྱད་གཞིའི་	-5900
དང་ཚོད་འཛིན་	-5901
ཤུགས།	-5902
ཆད་གཅོད་	-5903
ལེགས་སྐྱེས་འབུལ་	-5904
བཅས་ཤེས་རྟོགས་	-5905
ནུས་པ་འདོན་སྤེལ་	-5906
ine	-5907
འཕེལ་རྒྱས་བྱུང་	-5908
གནའ་རབས་ཀྱི་	-5909
བཅས་བྱེད་དགོས།	-5910
གཞོལ་ནས་	-5911
ect	-5912
དང་ཐོག་	-5913
ཆེད་དོན་	-5914
nd	-5915
ཐ་སྙད་ཀྱི་	-5916
ལེན་པའི་	-5917
ཆོག་གི་རེད།	-5918
ཡོ་བྱད་ཀྱིས་	-5919
ཀུན་སྤྱོད་དང་	-5920
ལ་ཐེབས་པའི་	-5921
▁དུས་	-5922
སྦྲེལ་ཐག་	-5923
གཅུང་	-5924
ལོ་ཤས་	-5925
ཞིམ་ཟས་	-5926
▁མ་འོངས་པའི་	-5927
ནང་གསོག་	-5928
▁གཤམ་གྱི་	-5929
བྱེད་དགོས་པ་ལས།	-5930
ower	-5931
ཚོགས་འདུའི་ཐོག་	-5932
inkedIn	-5933
མི་ཞིག་གིས་	-5934
ནོར་བུ་	-5935
མིང་མི་	-5936
plot	-5937
བྱ་བ་སྒྲུབ་	-5938
བགོ་བཤའ།	-5939
སྐད་གདངས་ཀྱི་	-5940
སྦྲགས་	-5941
མང་པོ་ཞིག་ཏུ་	-5942
སྡོད་པའི་	-5943
དང་བསམ་འཆར་	-5944
སྤྱང་	-5945
ཐེབས་སྲིད་	-5946
▁རེད་ཡ།	-5947
ནི་གཞི་གྲངས་	-5948
ལས་འཛོལ་	-5949
གསལ་འདེབས་	-5950
ཨོ་སི་ཁྲུ་	-5951
དེར་བརྟེན་ང་ཚོས་	-5952
སྤྱོད་རྒྱ་	-5953
ཧེང་	-5954
འདེམས་པ།	-5955
སྒོམ་	-5956
མ་ལག་ཅིག་	-5957
རྫས་བཤམས་	-5958
སྤྱོད་རུང་	-5959
▁མདོར་ན།མི་ཐབས་	-5960
གཤེར་	-5961
བྱེད་དགོས་པ་སྟེ།	-5962
རྒྱུར་སྐུལ་མ་	-5963
ངོས་འཛིན་དང་	-5964
ཐོན་སྐྱེད་དང་	-5965
ལྗོངས།	-5966
བུམ་	-5967
སྤྲོད་པའི་	-5968
གསལ་བའི་	-5969
ལ་བལྟ་དགོས།	-5970
རང་འགུལ་ཅན་དང་	-5971
ཁོ་ནར་	-5972
འཕྲུལ་ཆས་མིས་	-5973
ཆེན་པོ་ཞིག་	-5974
སྒྲིག་ཆས་ལ་	-5975
ལད་མོ་	-5976
དང་དམིགས་ཡུལ་	-5977
དཔྱོད་	-5978
ཐུབ་པར་ཁག་ཐེག་	-5979
ཞིང་ཆེན།	-5980
གཉེར་ཚོང་	-5981
དགོས	-5982
ཁྱད་དུ་	-5983
བཀོད་ནས་	-5984
ཡན་གྱི་	-5985
བཀའ་དྲིན་	-5986
ག་ཚོད་	-5987
པ་མ་ཟད།ད་དུང་	-5988
ཙམ་ཟ	-5989
ལྟ་བ།	-5990
སྦྱངས་འབྲས་	-5991
རིང་ཚད་ལ་	-5992
འཆར་གཞི་ལག་བསྟར་	-5993
རི་མོའི་	-5994
འཕེལ་རྒྱས་གཏོང་	-5995
ཁྲིམས་ལུགས་	-5996
ཡུའེ་	-5997
བེད་སྤྱོད་དང་	-5998
མཚེའུ་	-5999
རྣམ་གཞག་	-6000
tp	-6001
གནང་བར་	-6002
སྔོན་དཔག	-6003
གཉེར།	-6004
བསྡུར་ཞིབ་	-6005
བྱེད་པའི་ཐད་	-6006
གློག་རྡུལ་སྦྲག་	-6007
ཕི་	-6008
གཏོད་དགོས།	-6009
གསར་བརྗེས་	-6010
རྟེན་རྫས་བཤམས་	-6011
མེད་།	-6012
མཉེན་ཆས་ཀྱི་	-6013
གྲི་	-6014
ལྕག་སྐུལ་	-6015
▁བོད་ལྗོངས་	-6016
ཕུག་	-6017
བསྲེགས་	-6018
བཀག་སྡོམ་	-6019
དབུལ་སྐྱོར་	-6020
བརྒྱུད་རིམ།	-6021
བྱས་ཀྱང་	-6022
Ap	-6023
དུའང་	-6024
ལྷག་པའི་	-6025
▁V	-6026
ལ་བབས་	-6027
དང་ལག་ཆ་	-6028
ལ་རག་ལས་ཡོད།	-6029
གཤག་	-6030
རིག་ཚན་	-6031
འདི་ལྟ་བུའི་	-6032
གི་ནུས་པ་	-6033
ཁྲིད།	-6034
སྟབས་བ	-6035
གཅིག་མཚུངས་ཀྱི་	-6036
ཐུན་མོང་གི་ཆ་	-6037
རྐང་པ་	-6038
མཉམ་འབྲེལ་རྒྱལ་	-6039
བྱེད་སྟངས།	-6040
▁ད་ལྟ་	-6041
ཟུར་གསུམ་	-6042
སློབ་གསོར་	-6043
མང་ཚོགས་ལ་	-6044
སློབ་ཚན་གྱི་	-6045
ཆ་འཕྲིན་གྱི་	-6046
སྨྱན་སྦྱོར་དང་	-6047
ཆེ་ཆུང་དང་	-6048
ལྐོག་གྱུར་	-6049
འཆར་གཞི།	-6050
ཉི་མ་	-6051
ཚན་པའི་	-6052
མཁས་པ་	-6053
ཁྱིམ་གྱི་	-6054
པེ་ཡེ་	-6055
out	-6056
དང་།ཁྱེད་རང་གི་	-6057
ཆུང་དུ་གཏོང་ཐུབ།	-6058
བྱེད་རིང་	-6059
རྒྱབ་ལྗོངས་དང་	-6060
བཟང་མོས་	-6061
ཕྱི་གསལ་ནང་གསལ་	-6062
འཕྲིན་ཡིག་	-6063
འཛེམ་དགོས།	-6064
ཐེངས་འདིའི་	-6065
མཇུག་གི་	-6066
མཐའ་མཚམས་	-6067
རིལ་	-6068
མྱུར་ཚད་ལ་	-6069
གྲོང་གསེབ་ཀྱི་	-6070
གསོ།	-6071
བརླན་	-6072
ཁྲིམས་སྲོལ་དང་	-6073
ཏའེ་	-6074
དངོས་ཡོད་ཀྱི་	-6075
ia	-6076
ཆེད་དུ།	-6077
བསྡུས་ནས་	-6078
ཆེ་བ་ཞིག་རེད།	-6079
མཚོན་པའི་	-6080
ཀུན་ཏུ་	-6081
དཔང་རྟགས་	-6082
གཤག་བཅོས་	-6083
དུས་ཚོད་དང་།	-6084
ans	-6085
གནད་དོན་དེ་དག་	-6086
ཁྱབ་ཁོངས་ནང་གི་	-6087
དོན་འཁྱོལ་	-6088
དཔེ་དུམ་	-6089
དུས་མཚུངས་ལས་	-6090
ཏེང་	-6091
བེད་སྤྱོད།	-6092
ཕྱོགས་ཞེན་	-6093
རྣ་	-6094
སྙན་ང	-6095
ཐའོ་	-6096
བཙུགས་པ་དང་།	-6097
ཡང་དག་རང་བཞིན་	-6098
འཕར་ཚད་	-6099
ང་ནི་	-6100
འཇའ་	-6101
ཕུད་ད་དུང་	-6102
མགྲོན་པོ་	-6103
ཐེངས་རེར་	-6104
ཞིག་བཟོ་དགོས།	-6105
རོགས་སྐྱོབ་	-6106
ཆོག་པ་དཔེར་ན།	-6107
▁ཤེས་རྟོགས་བྱུང་	-6108
རང་འགུལ་སྒོས་	-6109
དམར་པོ་	-6110
དང་ཐོན་ཁུངས་	-6111
བྱེད་དགོས་ཤིང་།	-6112
སི།	-6113
ངེས་རེད།	-6114
pe	-6115
ལ་ཚོད་སྐོར་	-6116
བྲིས།	-6117
ལྷོད་མེད་	-6118
མེས་	-6119
སྦྱོང་བའི་	-6120
རྒྱུ་ཡིན་པ་རེད།	-6121
འཁྲུག་ཆ་	-6122
མི་ཉུང་	-6123
བྱང་བུ་	-6124
ཅན་གྱིས་	-6125
བྱེད་པ་ལས་	-6126
བརྟན་པོའི་	-6127
དེ་རེད།	-6128
དྲག་ཏུ་	-6129
དུ་གནས་ཡོད།	-6130
སྟོན།	-6131
ཏིས་	-6132
གསར་བ་ཞིག་	-6133
མིང་དང་།	-6134
ཕྱིར་འཐེན་	-6135
བྱེད་མི་ཐུབ་	-6136
ཐེབས་རྩའི་	-6137
དང་དུས་ཚོད་	-6138
རིན་མེད་ཀྱི་	-6139
རིག་ལྡན་	-6140
གུང་ཁྲ	-6141
མཁོ་མཁན་དང་	-6142
བཀྲ་ཤིས་	-6143
ཟ་ཁང་	-6144
སྲིད་སྤྱི་ཁྱབ་	-6145
ཁེར་རྐྱང་གི་	-6146
ཤིན་ཧྭ་	-6147
གླང་	-6148
དྲགས་པའི་	-6149
ཞེས་བཤད་	-6150
སྙན་སེང་	-6151
འདེམ་ཆོག	-6152
ཧྲའོ་	-6153
འཕྲི་	-6154
དབུགས་རྔུབ་	-6155
སུབ་	-6156
བཟོས་ཏེ།	-6157
ཧ་ཅང་མང་པོ་	-6158
དམར་རྗེན་	-6159
ཀྲུང་ཧྭ་མི་དམངས་	-6160
ཇེ་མགྱོགས་སུ་	-6161
ཞལ་འདེབས་	-6162
ཆོག་སྟེ།དཔེར་ན་	-6163
འདྲ་འབྱོར་	-6164
ཚད་མཐོ་བའི་	-6165
རོལ་མོའི་	-6166
སྔར་བས་ཡག་པོ་	-6167
བབ་བརླིང་	-6168
ཤོང་	-6169
མཇུག་འགྲིལ་	-6170
བསྒྲགས།	-6171
གཞིགས་ན་	-6172
གྲོས་གཞི་	-6173
ཞིང་འབྲོག་	-6174
ཉེན་འགོག་	-6175
བརྡ་སྦྱོར་	-6176
འཚོ་གནས་	-6177
མཉམ་ལས་དང་	-6178
ཉིན་གྱི་ཆུ་ཚོད་	-6179
ཁྲུའུ་	-6180
PEC	-6181
ཨ་རི་	-6182
གཞུང་དྲང་	-6183
རྩི་ཐབས་ནི་	-6184
སོགས་སུ་	-6185
བསྒྱུར་དགོས།	-6186
ew	-6187
གིས	-6188
སྤྲོ་བ་དང་	-6189
རྒྱལ་པོའི་	-6190
ངེས་ཅན་ཞིག་གི་	-6191
གྲོང་མི་	-6192
གསལ་པོ་བཟོ་དགོས།	-6193
འཕེལ་རྒྱས་ཕྱིན་	-6194
ཕྱོགས་གང་	-6195
སྤྲིན་རྩིས་	-6196
ཐག་བཅད་	-6197
▁གོང་དུ་	-6198
ཆམ་	-6199
ངང་ཚུལ་	-6200
ཕྱོགས་ནས་	-6201
འདེམས་ཤོག་	-6202
ལས་ཀའི་ཁོར་ཡུག་	-6203
སྤྱད་ཆོག	-6204
བྱས་པ་ཡིན།	-6205
ཉེན་ཁ་ཐེག་	-6206
ལས་འགན་ཐག་གཅོད་	-6207
གནས་ལུགས་	-6208
ཕྱིར་འགྱངས་	-6209
ཚའེ་	-6210
བ་ཞིག་རེད།	-6211
བྱ་དགོས་པ་དང་།	-6212
གྲོང་ཁྱེར།	-6213
གཟུགས་པོ་	-6214
རྐང་འཁོར་	-6215
དཔའ་ངར་	-6216
གྲངས་རིག་	-6217
ཡོད་ཟེར།	-6218
དེའི་ནང་ཞུགས་	-6219
བརྐོས་	-6220
བྱེད་རིན་	-6221
བྱེད་ཐུབ་པ།	-6222
ོགས་སུ་	-6223
རེད་པས།	-6224
ཀྱི་གོ་རིམ་	-6225
བཀོལ་སྤྱོད་ཀྱིས་	-6226
བསྣན་ནས་	-6227
ཤོག་ངོས་	-6228
མཉམ།	-6229
དགོས་པ་ལས་	-6230
གཉེར་འཚོང་	-6231
བཀོལ་དགོས།	-6232
བྱ་བར་	-6233
art	-6234
མ་ཟད་།	-6235
གྲོགས་པོ་དང་	-6236
མི་རུང་	-6237
ལ་ལྟ་སྐུལ་	-6238
ཕྱིར།	-6239
གྱོད་གཞི་	-6240
རྨི་	-6241
▁གལ་ཏེ་ངས་	-6242
ཡུལ་སྐོར་གྱི་	-6243
སྐད།	-6244
ཡིག་ཆ་དང་	-6245
བྱེད་དགོས་པ་དང་	-6246
ཁམ་	-6247
བཤུ་	-6248
སླད་	-6249
འཛུགས་སྐྲུན་གྱི་	-6250
སྐྲན་ནད་	-6251
གློག་འོད་	-6252
དམར་རྗེན་དུ་	-6253
གསལ་ཚད་དང་	-6254
སེམས་ཁྲལ་དང་	-6255
བྱང་གི་	-6256
put	-6257
ལྭ་	-6258
urn	-6259
འགྲིག་གམ།	-6260
ལག་རྩལ་བཀོལ་ནས་	-6261
པའི་དུས་	-6262
འཚམ་པ་	-6263
དགོས་པ་སྟེ།	-6264
ཉམས་གསོ་	-6265
ཁ་ལོ་བ་	-6266
རེད་ཅེས་	-6267
དེ་བས་མང་བ་ཐོབ་	-6268
ra	-6269
བཙན་འཛུལ་	-6270
སྦྱར་ཡིག་	-6271
རྙེད་པ།	-6272
ལྡེ་མིག་	-6273
སྔར་ལས་མང་བའི་	-6274
འཁོན་	-6275
ལམ་དང་	-6276
དང་འགྲན་སློང་	-6277
གནང་བ་རེད།	-6278
ངས་ཁྱོད་ལ་	-6279
ཐོན་གྱི་ཡོད།	-6280
ལས་བཟོ་བར་	-6281
འདོད་པའི་	-6282
པར་རིས།	-6283
དུ་མི་	-6284
རྩེར་སོན་	-6285
དུ་སོང་	-6286
སྐད་སྒྲའི་	-6287
གནང་བ་	-6288
ཚོགས་དང་	-6289
ནས་ལོ་	-6290
བཟོ་བ་དང་།	-6291
ཀྲོ	-6292
omon	-6293
མི་ཡོང་བའི་	-6294
ས་ཁང་བདག་	-6295
ཐོན་རྫས་གསར་པ་	-6296
མཐོ་རུ་བཏང་སྟེ་	-6297
ཉིན་ལྟར་	-6298
དེར་བརྟེན།ང་ཚོས་	-6299
མཚོན་གྱི་	-6300
མ་དངུལ་གཏོང་བའི་	-6301
▁དེས་	-6302
གྱེས་	-6303
ཅེས་པ་ནི་	-6304
དང་མི་མཐུན་པའི་	-6305
ཞིག་དང་	-6306
སྦྲག་རྫས་ཀྱི་	-6307
འོས་འཚམས་	-6308
མིན་གྱི་	-6309
སྒུལ་ཤུགས་དང་	-6310
དམའ།	-6311
ཆེ་བའི་གནད་དོན་	-6312
དངུལ་ཁང་གི་	-6313
འདབ་	-6314
ཨང་ཀི་ཅན་གྱི་	-6315
སི་ཕེན་	-6316
རྩིས་རིག་	-6317
ལས་རིགས་ལ་	-6318
མེ་ཏོག་གི་	-6319
ཕྱུགས་	-6320
སྤྱི་བདེ་	-6321
དང་།གཞི་གྲངས་	-6322
གཡར་	-6323
བརྗོད་ཀྱི་ཡོད།	-6324
ork	-6325
འདོན་དགོས།	-6326
སྤ་སེ་	-6327
སྲོལ།	-6328
▁ངའི་བསམ་པར་	-6329
དྲིན་ལན་	-6330
མེ་འགོག་གྱང་	-6331
རིམ་འཇུག་	-6332
འཁོར་རྒྱུག་	-6333
འཚོ་བའི་ཁྲོད་	-6334
བཟའ་ཟླ་	-6335
ལིང་ཚེ་	-6336
བྱས་ཆོག་ཅིང་།	-6337
པའི་བར་	-6338
སོགས་ཚུད་ཡོད་པས་	-6339
▁in	-6340
ཡོངས་ལ་	-6341
བཀར་	-6342
ཅན་ལ་	-6343
ངམ།	-6344
མཐའ་མའི་	-6345
མི་ཤེས།	-6346
ལ་བསམ་བློ་བཏང་	-6347
ལོག	-6348
ལས་འགན་བསྒྲུབ་	-6349
▁ཁོང་གིས་	-6350
མཆན་འགྲེལ།	-6351
ཆོག་པ་	-6352
ཐོ་ཁོངས་	-6353
ཅའོ་	-6354
ཉེ་འགྲམ་གྱི་	-6355
གཞུང་ཕྱོགས་ཀྱི་	-6356
ཡོང་བ་བྱ་དགོས།	-6357
རྒྱ་ཡིག་གི་	-6358
ཤེས་འདོད་	-6359
སྒྱུར།	-6360
སྤྲོས་	-6361
བཟོ་དགོས་པ་མ་ཟད།	-6362
སྐྱེས་པ་དང་	-6363
འགྱེད་	-6364
ཕྱོགས་འགར་	-6365
སྤེལ་རེས་དང་	-6366
གདོན་	-6367
ངའི་བསམ་པར་	-6368
ཚང་གི་	-6369
རྡོའི་	-6370
ཁེབས་	-6371
ཡིས་ཁྱེད་ལ་	-6372
གྲོང་ཁྱེར་གྱིས་	-6373
དཔྱད་རྩོམ་	-6374
འདུས་རིགས་	-6375
ལགས།	-6376
གདམས་	-6377
ཐང་དུ་	-6378
alyt	-6379
ཁོ་མོར་	-6380
སའི་གོ་ལའི་	-6381
གོ་སྐབས་གསར་པ་	-6382
བརྙན་ཐུང་	-6383
སླད་ཕྱིན་	-6384
དུས་དེབ་	-6385
ཚད་ལས་བརྒལ་བའི་	-6386
ན།ང་ཚོས་	-6387
པ་མ་	-6388
སྦྲ་	-6389
གནད་འགག་ཡིན།	-6390
▁གཏམ་རྒྱུད་	-6391
ལས་འགན་ནི་	-6392
སྤེལ་ནས་	-6393
▁ཁ་	-6394
འདོགས་	-6395
ཡིད་ཆེས་ཀྱི་	-6396
རུའུ་	-6397
སྐུལ་འདེད་གཏོང་	-6398
ལི་ཡ་	-6399
ཕྲུ་གུར་	-6400
ཡོད་སྲིད་	-6401
ལེགས་ཤོས་	-6402
བླ་	-6403
རྒྱ་གར་གྱི་	-6404
དེ་ལས་ལྡོག་སྟེ།	-6405
འགག་གི་	-6406
▁Python	-6407
བྱུང་རིམ་	-6408
གཟའ་འཁོར་རེར་	-6409
alytics	-6410
རུ་ཁག་ལ་	-6411
བྱ་ཐབས་སྤྱད་ནས་	-6412
མས	-6413
བྱས་ཆོག་པར་མ་ཟད།	-6414
རྣམ་པ་གང་རུང་གི་	-6415
ཚུན་གྱི་	-6416
ཉིན་རྒྱུན་གྱི་	-6417
ཡིན་པ་སྟེ།	-6418
དེ་ཚོས་	-6419
དུ་གཏོང་དགོས།	-6420
དབང་ཆ་དང་	-6421
གསུམ་པར་	-6422
མི་ཞིག་གི་	-6423
སོགས་བྱས་ནས་	-6424
ཇེ་དྲག་ཏུ་	-6425
ཕན་འབྲས་ཆེ་བའི་	-6426
བཙོས་	-6427
འཁྱོག་ཐིག་	-6428
log	-6429
དྲི་བ་	-6430
འཇོག་པ།	-6431
སྤྱི་ཚོགས་ཀྱིས་	-6432
པར་རིས་དང་	-6433
སྔོན་དཔོག་	-6434
འགྲན་ཡ་	-6435
ལ་གོ་བ་	-6436
ཕུགས་བསམ་	-6437
ite	-6438
བཟོ་དབྱིབས་	-6439
བྱེད་ཆོག་པ་མ་ཟད།	-6440
ངོ་རྒྱུགས་	-6441
དང་ཟུང་འབྲེལ་	-6442
མེང་	-6443
གྲུ་བཞི་མ་	-6444
མི་མེད་	-6445
དཔར་	-6446
TensorFlow	-6447
བཟོས་ན་	-6448
འགན་འཁྲིའི་	-6449
རེ་ཞུའི་	-6450
ལྟར་ན་	-6451
བཟོ་པའི་	-6452
འབྲི་དགོས།	-6453
ཕབ་ལེན་	-6454
བྱ་འདོད་འདུག	-6455
མཐོ་ཚད་	-6456
མི་མང་	-6457
▁ངས་བསམ་ན་	-6458
ཧུར་ཐག་གིས་	-6459
གཞིར་བཟུང་ནས་	-6460
རིགས་རྒྱུད་ཀྱི་	-6461
ངོ་ཐུག་	-6462
ལེགས་སུ་བཏང་ནས་	-6463
Asana	-6464
དགུང་	-6465
ཀྱིས་ཁེངས་	-6466
ན་ནིང་	-6467
འཚམ་པོ་	-6468
སྐུ་གཤ	-6469
ཐེངས་མང་	-6470
མཐོ་རུ་གཏོང་བའི་	-6471
ཁྱབ་པའི་	-6472
བཙོན་	-6473
བྱེད་མིན་	-6474
དངོས་བཤེར་	-6475
འགྲིམ་འགྲུལ་འགག་	-6476
དང་ཁོར་ཡུག་	-6477
འགུལ་སྟངས་	-6478
ལི་སི་	-6479
རྙོག་འཛིང་ཆེ་	-6480
དང་བསྟུན་ནས་	-6481
ཞུགས་ནས་	-6482
གོ་རིམ་ལ་	-6483
གྱི་ནུས་པ་	-6484
num	-6485
འདོན།	-6486
གློག་འདོན་	-6487
འདེབས་འཛུགས་	-6488
དང་ས་	-6489
ཡིད་དབང་བཀུག་	-6490
pl	-6491
དེའང་	-6492
སྣ་མང་ཅན་གྱི་	-6493
གཏན་འཁེལ་བྱས་ནས་	-6494
འགོག་པའི་	-6495
སྣེ་མང་ཅན་གྱི་	-6496
སློབ་གྲྭར་	-6497
ུགས	-6498
བྱེད་དམ།	-6499
ma	-6500
ཨ་སྒོར་	-6501
དུས་ཆེན་གྱི་	-6502
བྱེད་ཆོགདཔེར་ན།	-6503
བྱེད་པར་སྐུལ་མ་	-6504
ཆེ་རུ་གཏོང་བ་དང་	-6505
ལེགས་བཅོས།	-6506
དེ་བས་ཡག་པའི་	-6507
ཐོག་མ་	-6508
རྒྱལ་ཕྲན་	-6509
འོ།	-6510
སྤྲོད་དགོས།	-6511
གཞུང་དོན་	-6512
བཞིའི་	-6513
རྣམ་གྲངས་ལ་	-6514
རང་བཞིན་ལྡན་པའི་	-6515
ཡི་ལག་རྩལ་	-6516
སྤྱོད་བཞིན་ཡོད།	-6517
ཁྱོན་ཡོངས་ཀྱི་	-6518
བཅས་ཡོད།	-6519
ཐེངས་གྲངས་	-6520
གཅིག་ནི་	-6521
འགན་འཁྲི་འཁུར་	-6522
ཚའོ་	-6523
གཟུགས་ཀྱི་	-6524
བརྗོད།	-6525
ནུས་དང་	-6526
སྨན་པ་	-6527
IT	-6528
ཡི་གེའི་	-6529
རིག་པ།	-6530
ཆོག་སྟེ།དཔེར་ན།	-6531
ནད་གཡོག་	-6532
ཡོང་ཁུངས་	-6533
དུས་རྒྱུན་དུ་	-6534
འཕྲད་སྲིད།	-6535
ཙུའུ་	-6536
བརྙན་ལམ།	-6537
ཡོང་བར་རོགས་རམ་	-6538
▁An	-6539
oc	-6540
ས་དང་	-6541
མཉམ་སྒྲུབ་	-6542
ནུས་ལྡན་ངང་	-6543
རྒྱུས་ལོན་དང་	-6544
▁དྲུག	-6545
དུག་རྫས་	-6546
ik	-6547
བཏང་བ་དང་།	-6548
ཧྭ	-6549
ལག་ཆ་འདི་དག་གིས་	-6550
དཔྱད་དཔ	-6551
ལོ་རྒྱུས་ཐོག་	-6552
འབྱོར།	-6553
པུ་	-6554
དོགས་ཟོན་	-6555
བཟོ་རྩལ་	-6556
རྩི་ཐབས་དེ་	-6557
ཉེན་ཁ་ཆེ་བའི་	-6558
བཀོལ་སྤྱོད།	-6559
Hub	-6560
og	-6561
པར་སྟབས་བདེ་	-6562
ངེས་ཡིན།	-6563
ཐག་རིང་	-6564
དེ་རིང་	-6565
བྱེད་དུ་བཅུག་ཆོག	-6566
http	-6567
ཁུལ་འབྲེལ་	-6568
གཏོར་བརླག་	-6569
མཐའ་འཁྱོངས་	-6570
མི་གཞན་དང་	-6571
གློག་ཆས་	-6572
མ་གནས།	-6573
སྦས་	-6574
སྤྱི་དམངས་ཀྱིས་	-6575
ob	-6576
ཡིག་ཆའི་ནང་གི་	-6577
སློབ་གསོ་དང་།	-6578
དེའི་ཕྱིར་	-6579
གོང་རིམ་	-6580
སྐད་ཆས་	-6581
རྐྱེན་ལམ་དུ་ཤོར་	-6582
ཕན་པ་དང་།	-6583
འགྱུར་སྲིད།	-6584
འཆར་འགོད་དང་	-6585
ཁག་གཅིག་གིས་	-6586
ཧ་ལམ་	-6587
ནུས་པ་དང་།	-6588
རྒྱུད་རྒྱུ་	-6589
སྐུལ།	-6590
བཟོ་བ་དང་	-6591
རྫོང་གིས་	-6592
རྗེས་སྙེག་	-6593
དཔེ་སྟོན་	-6594
ལས་འགན་མང་པོ་	-6595
རམས་	-6596
བལྟོས་	-6597
བློ་སྟོབས་	-6598
ཁུའུ་	-6599
ཐུབ་།	-6600
ནན་གྱི་	-6601
▁w	-6602
དེ་ནས།	-6603
དག་ལ་	-6604
རྣམ་པས་	-6605
འེ།	-6606
ཟུར་ཁྲིད་	-6607
དགའ་པོ་བྱེད་པའི་	-6608
མཐར་ཡང་	-6609
བཤར་འབེབས་	-6610
ཞིག་ཏུ་གྱུར་	-6611
བྱེད་སྒོ།	-6612
ཆོས་ལུགས་དད་མོས་	-6613
ཚིག་སྦྱོར་	-6614
རྟག་	-6615
མཐོང་བའི་	-6616
CT	-6617
ལག་ཏུ་	-6618
བྱེད་ཚད་དང་	-6619
▁ངའི་གོ་ཐོས་	-6620
སྤུས་ལེགས་ཀྱི་	-6621
ཚད་གཞིར་	-6622
དོ་དམ་མ་ལག་	-6623
དངུལ་རྩ་	-6624
ཟི་ལིང་	-6625
སོལ་	-6626
ཞབས་བྲོའི་	-6627
སྐད་ཆ་བཤད་	-6628
གོ་ནོར་	-6629
དགའ་བསུ་ཐོབ་པའི་	-6630
བྱེད་ཐབས་བྲལ་	-6631
ཧིན་	-6632
དབང་ཚད་	-6633
གདན་འདྲེན་	-6634
ཕྱིར་ཚོང་གི་	-6635
ཡའོ་	-6636
ཀུ་ཤུ་	-6637
དངོས་ལུགས་	-6638
རང་གི་བྱས་ན་	-6639
ལོ་རྒྱུས་དང་།	-6640
བྱ་ཐབས་ཤིག་ཡིན།	-6641
གྱིས།	-6642
མཇུག་མཐའི་	-6643
གཏོང་གི་ཡོད།	-6644
བྱེད་སྤྱོད་	-6645
འཇར་པན་གྱི་	-6646
སྤྲོ་སེམས་	-6647
འབད་བརྩོན་དང་	-6648
མཐོང་ཚོར་གྱི་	-6649
བྱ་ཐབས།	-6650
སྐྱེ་འཚར་	-6651
དགོས་ན་	-6652
བརྩེ་སེམས་དང་	-6653
རྒྱུ་ཆའི་	-6654
རྒྱ་ཆེའི་	-6655
ལས་འགན་དོ་དམ་	-6656
བྱང་བུའི་	-6657
རྫོང་།	-6658
སྣང་ཆེན་	-6659
ལྷོད་ལྷོད་	-6660
turn	-6661
ས་ཚུགས་	-6662
མཐོ་བ་དང་	-6663
བདག་དབང་	-6664
ཐེབས་ཡོད།	-6665
ཕན་འབྲས།	-6666
ཆ་རྡུལ་	-6667
གཟི་བརྗིད་	-6668
པུར་	-6669
ཉེན་ཁ།	-6670
བསྡོམས་འབོར་	-6671
ཐག་གཅོད་དགོས།	-6672
སྤྲད་ནས་	-6673
sof	-6674
ཆེ་བས།	-6675
ལྕི་	-6676
ལོ་རྒྱུས་ཐོག་གི་	-6677
མཐུན་སྒྲིལ་	-6678
འཇོན་ཐང་	-6679
འཚོལ་ཞིབ་དང་	-6680
སྟེགས།	-6681
ལྡན་པས།	-6682
ནུས་ཁུངས་ཀྱི་	-6683
རྒྱལ་ཁོངས་	-6684
བཟའ་བཏུང་གི་	-6685
བགྲེས་	-6686
རུའི་	-6687
རྩ་འཛུགས་དང་	-6688
ཆ་ཚང་བའི་	-6689
ཆད་པ་གཅོད་	-6690
ཁོངས་གཏོགས་ཀྱི་	-6691
ལས་གཡོལ་	-6692
མཁོ་འདོན་བྱས་ཏེ་	-6693
ཉིན་ནས་	-6694
ཡོང་བར་ཁག་ཐེག་	-6695
ཞིབ་ཆ་	-6696
ཁྱད་དུ་འཕགས་	-6697
rosof	-6698
རྒྱུན་གཏན་གྱི་	-6699
ཉུང་བའི་	-6700
ཁོ	-6701
གོང་འོག་	-6702
རྩོམ་པ་པོ།	-6703
ཐོག་ཁང་	-6704
ཏིན་	-6705
འབབ་ཚུགས་	-6706
ཆུད་ཟོས་སུ་	-6707
བརྩིས་ནས་	-6708
བྱུང་བ་དེས་	-6709
GAN	-6710
བྱེད་སྒོ་དང་	-6711
གནད་འགག་གི་	-6712
རྒྱུན་མཐུད་ཀྱི་	-6713
ོན	-6714
རྨས་སྐྱོན་	-6715
▁ཁོང་གི་	-6716
སློབ་གླིང་གི་	-6717
སློབ་གྲོགས་	-6718
རང་རྒྱལ་གྱི་	-6719
གང་དག་ནི་	-6720
རིག་པ་དང་	-6721
ཁོ་ནི་	-6722
གཉིས་ཀ་	-6723
འགུག་ཐུབ།	-6724
ཡོངས་ཀྱིས་	-6725
སྐད་ཆ།	-6726
ངོ་བོ་དང་	-6727
མངོན་གསལ་དོད་པོ་	-6728
ལྷོའི་	-6729
ང་ཚོས་ཀྱང་	-6730
རྒོད་	-6731
ཟེར་ཞིང་།	-6732
གཏུབ་	-6733
མེད་པས།	-6734
Ud	-6735
འགག་རྩ་ཡིན།	-6736
ཀྱང་ཚ	-6737
གོང་དུ་	-6738
ཆུ་རྐྱལ་	-6739
མང་དུ་གཏོང་ཐུབ།	-6740
rosoft	-6741
ཐོན་ཡོད།	-6742
ལས་བཟོ་བ་	-6743
དོང་	-6744
ཕམ་པར་	-6745
བསྡུར།	-6746
སི་ཐ	-6747
བཟོ་ཐུབ།	-6748
▁ཅིའི་ཕྱིར་	-6749
འཇར་མན་	-6750
ཉེ་འཁོར་གྱི་	-6751
▁མཚོ་	-6752
ER	-6753
མ་ཡིན་པར་	-6754
བདག་གི་	-6755
ཤེས་ཀྱི་	-6756
སྐྱོ་	-6757
ཁྲོམ་རའི་ཐོག་	-6758
འཕྲུལ་མི།	-6759
ཡིན	-6760
LinkedIn	-6761
བཤར་ཆས་	-6762
འགལ་བ་ཐག་གཅོད་	-6763
འཚོ་བའི་ཁྲོད་དུ་	-6764
གཞན་ཡང་།	-6765
དངོས་སྒྱུར་གྱི་	-6766
ུལ	-6767
བེད་སྤྱོད་བྱས་ན་	-6768
བཀོལ་སྤྱོད་དང་	-6769
ཧེག་པས་	-6770
རྩོད་གཞི་	-6771
སྐམ་ས་	-6772
ལ་སླེབས་པའི་	-6773
མི་ཚེའི་	-6774
ཡས་	-6775
ནི་རྒྱུན་པར་	-6776
ཀྱིས་ཀྱང་	-6777
འབད་པ་	-6778
ཁྱེད་ཀྱིས་ད་དུང་	-6779
དྲ་བའི་འཕྲིན།	-6780
ཞོ་	-6781
བརྗེས་	-6782
དེས་ད་དུང་	-6783
གཞན་དག་བཅས་	-6784
དཔྱད་གཞིར་	-6785
ལེན་ཐུབ།	-6786
▁ལོས་ཆོག	-6787
རིག	-6788
མི་འདྲ་བས་	-6789
Pandas	-6790
རིགས་དབྱེ་དང་།	-6791
དྲ་ངོས་ཀྱི་	-6792
▁རང་གི་བྱས་ན་	-6793
ལག་སྒུལ་	-6794
བདེན་པ་ཡིན་པའི་	-6795
བག	-6796
གུང་ཁྲན་ཏ	-6797
བར་གྱི་ཁྱད་པར་	-6798
འཚབ་	-6799
ཚད་ལས་བརྒལ་	-6800
ཕྱིན་ཡོད་པ་རེད།	-6801
ཞིག་ཡིན་ནམ།	-6802
ཏེ།དཔེར་ན་	-6803
ཁ་ན་ཏ	-6804
དོ་ཁུར་དང་	-6805
རིག་རྩལ་	-6806
དེ་ཐོག་ནས་	-6807
སྲུང་སྐྱོབ།	-6808
གནས་སྐབས་	-6809
▁/	-6810
ཞི་ཅིན་ཕིང་	-6811
སྐོར་གླེང་	-6812
སྟོན་གྲངས་	-6813
ཐོན་པར་	-6814
ཡོད་པའམ་ཡང་ན་	-6815
ལྡུམ་	-6816
ཤས་ཆེ་བའི་	-6817
ཐུན་མོང་དུ་	-6818
▁དང་པོ།	-6819
ཤེས་རྟོགས་དང་།	-6820
ལས་འགན་གསལ་	-6821
ིན་ཚབ་	-6822
རྩལ་འགྲན་	-6823
ཁ་སྐོང་	-6824
དབྱིངས་	-6825
བཀོད་འདོམས་	-6826
སྨྱུག་	-6827
མཐོ་ཤོས་	-6828
འོས་འགན་	-6829
བྱ་དགོས།འདིས་	-6830
བཅད།	-6831
▁ཉེ་ཆར་	-6832
བྱས་ནས་དེ་བས་	-6833
རོགས་རམ་འཚོལ་བ།	-6834
བཀོད་པའི་	-6835
བཀག་རྒྱའི་	-6836
ཅི་ཐུབ་	-6837
བྱས་ཆོག་གི་རེད།	-6838
ས་ཞིང་	-6839
སྡེ་ཁུལ་དུ་	-6840
གཙང་སྦྲ་	-6841
འཁོར་གཏོང་	-6842
བྱས་པ་ཞིག་རེད།	-6843
བྱེད་ཐབས་དང་	-6844
བཙུན་	-6845
ཚོ་ཆུང་	-6846
ལས་དོན་ལ་	-6847
དཔེར་ན།མིས་བཟོས་	-6848
ཐེབས་སྲིད་དམ།	-6849
སྐུར་	-6850
ློབ་	-6851
ཚིག་དང་	-6852
སྲིད་གྲོས་	-6853
▁གནད་དོན་	-6854
ཕྱིར་འཚོང་གི་	-6855
བསྙ	-6856
ཉེན་ཁར་	-6857
ཕྱོགས་ལྷུང་	-6858
ཀྲུའུ་རེན་	-6859
འགའ་ངོ་སྤྲོད་	-6860
བྱས་པས།	-6861
ཚོགས་པར་	-6862
དྲི་ཞིམ་	-6863
ath	-6864
མཚན་མཐུན་	-6865
མར་ཆག་	-6866
ནུས་ཀྱིས་	-6867
དབང་རྩའི་དྲ་རྒྱ	-6868
བྱས་ནས་ལས་འགན་	-6869
མིན	-6870
ལ་ཇི་ལྟར་	-6871
ཚིགས།	-6872
འདུས་པའི་	-6873
ལག་རོགས་	-6874
▁ཚེས་	-6875
གྲངས་རིག་གི་	-6876
གོ་རིམ་ཁྲོད་དུ་	-6877
one	-6878
ལས་རིགས་ཁྲོད་	-6879
འགོའི་	-6880
རིག་སྟོ	-6881
ཤེས་ཚོར་	-6882
མི་བཟང་	-6883
བྱམས་	-6884
བཏང་བ།	-6885
བྱེད་དགོས་ན།	-6886
གབ་	-6887
འགུག་ཤུགས་	-6888
++	-6889
ཕྱིར་སྡུད་	-6890
དཔང་དངོས་	-6891
བྱ་རྒྱུ་དེ་ཡིན།	-6892
ཟོལ་	-6893
རྩིས་ཁྲ་	-6894
io	-6895
རིམ་མཚུངས་	-6896
སྲིད་ཇུས་ཀྱི་	-6897
གནས་ཚུལ་དེ་རིགས་	-6898
སྤྱོད་བཞིན་	-6899
ཡིན་ནམ་།	-6900
ཞག་	-6901
སྒྲི	-6902
གཅིག་ནས་	-6903
▁རྩོམ་སྒྲིག་པ།	-6904
ཧན་གོའི་	-6905
བདེ་སྐྱིད་དང་	-6906
ཅན་དུ་བསྒྱུར་	-6907
ུའུ	-6908
དེ་ཡིན།	-6909
ཕོ་མོའི་དབྱེ་བ།	-6910
px	-6911
ཨུ་ལྷན་	-6912
འཕྲུལ་ཆས་མི་དང་	-6913
ས་གནས་ཀྱི་	-6914
ཁག་ཏུ་	-6915
རླངས་འཁོར་བསྐོར་	-6916
འོས་འཚམས་ཀྱི་	-6917
བགྲོད་ལམ་	-6918
གྲོང་མིའི་	-6919
དྲོད་ཁང་	-6920
གནང་།	-6921
དང་རིག་ནུས་	-6922
ལོ་རྒྱུས།	-6923
གཤམ་ལ་	-6924
བཞག་ཡོད།	-6925
ལས་དོན་གྱི་	-6926
རིམ་མཚུངས་མཉམ་	-6927
འབུར་དུ་	-6928
ཆེ་རུ་གཏོང་བའི་	-6929
▁ཕྱོགས་	-6930
བསྒྲིམས་	-6931
ནི་མིས་བཟོས་	-6932
སློབ་ཆུང་	-6933
བརྡ་སྤྲོད་དང་	-6934
བསྐྲུན་ནས་	-6935
དང་རྣམ་པ་ཀུན་ཏུ་	-6936
ཆུང་ཆུང་ཞིག་	-6937
བོགས་	-6938
ལས་ཀ་ཤོར་	-6939
གསོག་འཇོག	-6940
སྔོན་ལ།	-6941
སུ	-6942
མ།ཡང་ན་	-6943
དང་ལས་ཕྱོད་	-6944
སྡུག་བསྔ	-6945
གཤམ་གྱི་དེ་ནི་	-6946
སྒོ་དབྱེའི་	-6947
ཐབས་ཇུས་འདོན་	-6948
དམིགས་འབེན་དང་	-6949
ཤིག་ཀྱང་	-6950
རྣམ་འགྱུར་དང་	-6951
གསར་བརྗེ་	-6952
གཡང་	-6953
▁Ch	-6954
ཟེར།དེ་ནི་	-6955
▁St	-6956
ཚོད་སྒྲིག་	-6957
རྒྱུ་འགན་ལེན་	-6958
དུས་ཡུན་རིང་བོར་	-6959
ལེགས་སྒྲིག	-6960
དབང་རྩའི་རྒྱུ་	-6961
ཨ་མ་	-6962
གདོད་	-6963
ཏེ	-6964
Ch	-6965
བཟང་ཆ་དང་	-6966
རྫུ་	-6967
བགོ་བཤའི་	-6968
Res	-6969
སི་རི་	-6970
ཐེངས་གཅིག་	-6971
བསྐྱུར་	-6972
ལེགས་འགྲུབ་བྱུང་	-6973
ཁྲའི་	-6974
དཔེ་འཛུགས་	-6975
uc	-6976
▁con	-6977
ཁེ་ཕན་དང་	-6978
བྱེད་པ།གལ་ཏེ་	-6979
ལེགས་བཅོས་དང་	-6980
ཤེས་པ་བྱེད་དགོས།	-6981
བར་ལ་	-6982
སྒྱུར་བཅོས་	-6983
སི	-6984
བུན་འཛིན་	-6985
དེ་ལས་ལྡོག་སྟེ་	-6986
ཞྭ་	-6987
དག་བཅོས་	-6988
ལ་དགའ་པོ་	-6989
ཧྲུན་	-6990
རྩ་བའི་རིགས་པ་	-6991
མཛོད།	-6992
ཟིན་པ།	-6993
མི་སྣ།	-6994
ཀྱི་ཇུས་གཞི་	-6995
ཁྱབ་གདལ་གཏོང་	-6996
▁return	-6997
རིན་གོང་གི་	-6998
ཙུང་ལི་	-6999
བསམ་བློ་དང་	-7000
དང་ཆུ་	-7001
རྒྱུ་མེད།	-7002
ཐེབས་ཀྱི་ཡོད།	-7003
བྱ་འདོད་	-7004
སྲིད་གཞུང་དང་།	-7005
ལག་ཁྱེར་ཁ་པར་	-7006
སྐད་ཡིག་གི་	-7007
ཤུའི་	-7008
ལྡན་པ།	-7009
▁if	-7010
འཆད་	-7011
ཤེས་བྱ།	-7012
བསམ་འཆར་འགའ་ཡིན།	-7013
ཅུང་མཐོ་	-7014
འན་	-7015
མཚོན་ཆ་	-7016
སྨན་ཁང་དུ་	-7017
པུའུ་ཀྲང་	-7018
དྲས་	-7019
end	-7020
Ad	-7021
ཚེ་རིང་	-7022
གནས་བ	-7023
ཉམས་ཞན་	-7024
Se	-7025
བྱར་	-7026
མགོ་བརྩམས།	-7027
ཁྱད་ཆོས་ཅན་གྱི་	-7028
དང་བསྡུར་ན་	-7029
ཚད་གཞི།	-7030
མི་འདང་བའི་	-7031
དར་སོ་	-7032
སྤྱད་ཆོག་སྟེ།	-7033
ལོ་རབས་	-7034
Microsoft	-7035
ཐོབ་ནས་	-7036
རིར་	-7037
ངོས་གྲུ་	-7038
དཔེར་ན།གལ་ཏེ་	-7039
རྩིས་ཐོ་	-7040
རྒྱལ་ས་	-7041
ou	-7042
ཐུབ་པ་བྱས་ནས་	-7043
ནང་དོན་གྱི་	-7044
ཐོབ་པ་དང་།	-7045
ལ་ད་དུང་	-7046
ཐབས་ཤེས་ཡིན།	-7047
སློབ་མ་དང་	-7048
ངོས་ནས་ངས་	-7049
འཐབ་འཛིང་	-7050
འདུམ་	-7051
བཅས་བྱས་ནས་	-7052
སྣ་ཚོགས་སྤྱད་ནས་	-7053
དེབ།	-7054
ཞི་མཐུན་	-7055
ལས་སྟེགས་ཀྱིས་	-7056
མི་འདུག	-7057
▁དེ་མིན།	-7058
ཆེས་ཆེར་	-7059
གྱིས་ཀྱང་	-7060
མང་ཆེ་བ་	-7061
འདེམས་བསྐོ་	-7062
ཚན་ཁག་གི་	-7063
ས་གནས་ས་	-7064
ཞིབ་བརྗོད་	-7065
learn	-7066
གཟུགས་བརྙན་དང་	-7067
གསུམ་པ་	-7068
འཚོ་སྡོད་	-7069
རྩལ་ཁྲིད་	-7070
དུད་ཚང་	-7071
༢༠༠	-7072
སྔོན་ཐོན་	-7073
སྐབས་དེ་དུས་	-7074
མ་དཔེ་དང་	-7075
ཚོགས་པའི་ནང་དུ་	-7076
ལ་ཞུགས་པ།	-7077
ལ་མཚོན་ན།	-7078
ཁྲིམས་རྩོད་	-7079
ལས་རྗེས་	-7080
བྱས་ཆོག་པ་སྟེ།	-7081
རིམ་སྟར་	-7082
རྒྱུའི་སྐོར་གྱི་	-7083
ཞུང་	-7084
གསལ་ཚད་	-7085
ཀྱང་བྱེད་ཐུབ།	-7086
ཤེས་ཐུབ།	-7087
Time	-7088
སྙིང་རྗེ་	-7089
པའི་མི་	-7090
མཛའ་མཐུན་	-7091
ལོ།	-7092
ཡ་མ་	-7093
དགའ་བསུ་ཆེན་པོ་	-7094
ཕྲ་ཕུང་	-7095
དེའི་རྗེས་སུ།	-7096
བྱི་	-7097
ཡ་མཚན་	-7098
མཚན་མའི་	-7099
གྲངས་འཛིན་	-7100
oooo	-7101
ཕུལ་དུ་བྱུང་བའི་	-7102
འགྲུལ།	-7103
ཧུར་བརྩོན་གྱིས་	-7104
འཁྱུག་	-7105
ཧ་ཅང་ཡག་པོ་འདུག	-7106
མི་བྱེད་པར་	-7107
འགྲིམ་འགྲུལ་གྱི་	-7108
སྒོ་འབྱེད་པའི་	-7109
ལ་མ་	-7110
འཁོད་	-7111
བཅག་	-7112
སྙན་ངག་གི་	-7113
ཚད་ལྡན་གྱི་	-7114
མདེལ་	-7115
ཀྲུང་གོས་	-7116
དུས་གཅིག་ཏུ་	-7117
སྐུལ་སྤེལ་	-7118
བསྡོམས་པས་	-7119
rp	-7120
གནས་སྤ	-7121
བསྐྱལ་	-7122
འཁོར་ལོ་	-7123
གློག་ཤུགས་	-7124
རིན་ཐང་ལྟ་	-7125
རིགས་པའི་	-7126
བློ་འདྲིའི་	-7127
ཚོགས་པ།	-7128
ངོ་ཐུག་གདོང་	-7129
བྱས་ནས་དེའི་	-7130
བརྙན་ལེན་	-7131
ཚོང་གཉེར།	-7132
ademy	-7133
གཅིག་ཀྱང་	-7134
བརྩེ་དུང་ལ་	-7135
ཁྲོ་	-7136
ལྟེ་གནས་ཀྱི་	-7137
དོ་སྙོམས་ཡོང་བ་	-7138
དགར་	-7139
ཡོང་གི་	-7140
སྨན་ཁབ་	-7141
མཚེས་	-7142
ཐོབ་པ།	-7143
བསྒྲིལ་	-7144
ལས་གྲུབ་	-7145
གལ་ཆེ་ཤོས་ནི་	-7146
མྱུར་ཚད།	-7147
ཞིག་ཡིན་རུང་	-7148
རོལ་ཆས་	-7149
གདོང་གི་	-7150
གནས་ཚུལ་འོག	-7151
མདུན་ལྗོངས་	-7152
དང་།མ་ཟད་	-7153
སྟེགས་བུའི་ཐོག་	-7154
ཕན་གྱི་	-7155
བམ་	-7156
unc	-7157
གྲོ་	-7158
ལོ་ཐོ་	-7159
རྒྱར་	-7160
བཀོལ་བར་	-7161
གང་དག་གི་	-7162
དུ་གྱུར་	-7163
བྱེད་དཀའ་	-7164
རང་བཞིན་ཁག་ཐེག་	-7165
བྱེད་ཐུབ།འདིས་	-7166
ལྡེབ་	-7167
པའི་ཟླ་	-7168
གྲངས་གཞི་དེ་དག་	-7169
ཡུལ་སྐོར་བ་	-7170
དགེ་རྒན་ལ་	-7171
ཀྲ་	-7172
ལས་འགན་ཁག་	-7173
པ་ལས།	-7174
ཉོས་པའི་	-7175
གཞན་གྱིས་	-7176
བྱས་ན།ཁྱོད་ཀྱིས་	-7177
མཚུངས།	-7178
ལས་ཀའི་དུས་ཚོད་	-7179
བྱུང་ཚེ་	-7180
བློ་རྩེ་གཅིག་	-7181
མི་སེར་	-7182
བཙན་ཤེད་	-7183
བྱེད་ཐབས་ནི་	-7184
ཁཱ་	-7185
གནོད་པ་	-7186
མངགས་བཅོལ་	-7187
བླང་བྱ་བཏོན་	-7188
ཧྲུའེ་	-7189
▁ཞིང་ཆེན་	-7190
བསམ་གཞིག་དང་	-7191
གོ་རིམ་གྱིས་	-7192
DN	-7193
ཞིག་ཀྱང་ཡིན།	-7194
ལག་རྩལ་ཐག་གཅོད་	-7195
བཙོང་	-7196
ལྡན་པ་དང་།	-7197
རྒྱུ་མ་ཟད།	-7198
མེད་པར་བཟོ་དགོས།	-7199
ཉི་ཡ་	-7200
བྱ་དགོས།གལ་ཏེ་	-7201
ལག་པ་	-7202
གྲས་ཤིག་རེད།	-7203
ཞུ་བའི་	-7204
ཕྱོགས་ནས།	-7205
མངོན་པར་	-7206
▁ཁྱིམ་	-7207
རྒྱུད་དུ་	-7208
ལྷན་སྐྱེས་	-7209
ཤིག་ལ་	-7210
ད་ཐེངས་ཀྱི་	-7211
ཕན་ཚུན་གྱི་	-7212
ཞིབ་ཅིང་	-7213
ཚུད་ཡོད་པས་	-7214
ཧྥུན་	-7215
གནད་དོན་ཞིག་རེད།	-7216
རང་ངོས་ཀྱི་	-7217
བྱས་ནས་ཁོང་ཚོའི་	-7218
གཡུལ་	-7219
ཨང་གྲངས།	-7220
ཅིན་ཧྲི་	-7221
ནན་ཏན་གྱིས་	-7222
དང་འདྲ་བའི་	-7223
ནས་ཐོན་	-7224
བབ་ཆགས་	-7225
སྣང་མེད་དུ་	-7226
ཕམ་ཁ་	-7227
ཚུད་ཡོད་པ་རེད།	-7228
ཨུ་ལྷ	-7229
བབ་མཚུངས་ཀྱི་	-7230
མཐུན།	-7231
ཉིན	-7232
མཉེན་ཆས་དང་	-7233
ཐུགས་རྗེ་ཆེ་ཞུ།	-7234
དགོས་པ་མ་ཟད་	-7235
ཟིན་ཐོ།	-7236
རིན་མི་དགོས་པའི་	-7237
ཉིན་ནས་བཟུང་	-7238
ེམས།	-7239
ice	-7240
མ་བྱས་ན་	-7241
གཤིས།	-7242
ཞེས་པ་དེ་ཡིན།	-7243
ལས་ཆོད་ཇེ་མཐོར་	-7244
འཚོལ་བར་	-7245
ཀྱི་རྣམ་པ་	-7246
བྱེད་ཐུབ།གཤམ་དུ་	-7247
ཡི་ནང་དུ་	-7248
བསྒྲིགས།	-7249
མོས་མཐུན་	-7250
བླངས་ནས་	-7251
ཚགས།	-7252
དབྱེ་བ་	-7253
ཕོག་པའི་	-7254
ཆིའུ་སྤོ་ལོའི་	-7255
རྒྱུ་སྟེ།	-7256
GitHub	-7257
སྦྱོང་གི་	-7258
ཤེས་བྱ་གསར་པ་	-7259
རྣོ་	-7260
ཐབས་ལམ་སྣ་ཚོགས་	-7261
སྔར་བས་ལེགས་པར་	-7262
བཟོས།	-7263
ལོ་བཅུ་	-7264
ཉི་ཤུ་	-7265
རོན་	-7266
དོ་དམ་དང་།	-7267
ཡོང་རྒྱུར་	-7268
སྐྱོན་བརྗོད་	-7269
སྟུག་	-7270
བྱུག་	-7271
ཉིན་གྱི་སྔ་	-7272
གསོལ་	-7273
གཞི་འཛིན་	-7274
རྫུན་མ་	-7275
དངུལ་སྨར་	-7276
དང་གནད་དོན་	-7277
ཚོང་ཤག་	-7278
སྒྲ་དང་	-7279
མང་པོ་ཡོད་དེ།	-7280
གསོན་ཤུགས་	-7281
དེས་ཁྱེད་ལ་	-7282
ཁྱོ་	-7283
The	-7284
ཧའོ་སྨི་	-7285
ཉུང་དུ་གཏོང་བ།	-7286
ལྟ་མཁན་	-7287
བཙུགས་ན་	-7288
ལྟད་མོ་བ་	-7289
ལས་རོགས་དང་	-7290
ནུས་པ་ཆེན་པོ་	-7291
མིག་གི་	-7292
དངོས་གཞིའི་	-7293
ཝོ་	-7294
སི་ཐེ་	-7295
དྲ་ཐོག་ཏུ་	-7296
འདི་ཕལ་ཆེར་	-7297
མུ་འབྲེལ་	-7298
སྔོན་དུ།	-7299
ལས་གཞན།ད་དུང་	-7300
ཚོགས་སུ་	-7301
གཞན་སྒྱུར་	-7302
ཉེན་ཟོན་	-7303
གསར་སྤེལ།	-7304
ཧྲའན་	-7305
ལ་གཞིགས་ནས།	-7306
སྔར་ལས་ལེགས་པ་	-7307
ཀྱི་གནས་ཚུལ་	-7308
ཕྱེད་ཀ་	-7309
རྒྱུན་གཏན་	-7310
དོ་དམ་བྱེད་པའི་	-7311
ལས་གཉེར་	-7312
འོན་ཀྱང་ངས་	-7313
ཙམ་ཟིན་	-7314
མག་	-7315
རྒྱལ་ཁའི་ངང་	-7316
ཉིན་དེར་	-7317
སྒྲིག་སྲོལ་དང་	-7318
བླངས་པའི་	-7319
རིས་དབྱིབས་	-7320
ས་ཡོམ་	-7321
མུན་	-7322
▁རྩོམ་ཡིག་	-7323
ཡལ་	-7324
འཚམས་འདྲིའི་	-7325
བཞིན་པ།	-7326
༡༥	-7327
ཇེ་ཆེར་གཏོང་ཐུབ།	-7328
འགྲོའི་	-7329
གཞི་གྲངས་མང་པོ་	-7330
ལངས་ཕྱོགས་	-7331
ཟིན་པ་དང་།	-7332
སྔ་རྗེས་སུ་	-7333
དམིགས་ཡུལ་འགྲུབ་	-7334
རྒྱག་པ་དང་།	-7335
ཁྱད་ཆོས་ཀྱི་	-7336
གནས་སའི་	-7337
ཡོན།	-7338
མི་དམངས་ཀྱི་	-7339
བཅོས་སྒྲིག་	-7340
སྡེ་ཁག་གིས་	-7341
གསང་བའི་ཨང་གྲངས་	-7342
ཅུའུ་	-7343
ལས་གཏོད་	-7344
གསར་རྩོམ་གྱི་	-7345
ཡོ་བྱད་དང་	-7346
ཆུའི་ཐོན་ཁུངས་	-7347
ནང་མི་	-7348
བྲོ་བའི་	-7349
དྲག་པོ་	-7350
ལྡོག་འདྲེན།	-7351
དགོས།གལ་ཏེ་	-7352
ལོ་ངོ་	-7353
གོང་གསལ་གྱི་	-7354
རྫས་ཀྱི་	-7355
ཀྲུང་གུང་	-7356
ey	-7357
ure	-7358
རྒྱལ།	-7359
ལ་སྤྱོད་	-7360
སྐུམ་	-7361
བསྟན་དོན།	-7362
བརྙན་ཡོལ་	-7363
ཚོད་སྐོར་དང་	-7364
བརྟག་དཔྱད་དང་།	-7365
གསལ་པོ་ཞིག་	-7366
ཆེད་སྒྲིག་	-7367
བཅིངས་	-7368
པད་	-7369
པར་ངོས་	-7370
མི་སྲིད་	-7371
ཨེ་ཤེ་ཡ་	-7372
ཕྱིར་དྲན་	-7373
མཐོར་འདེགས་དང་	-7374
ལ་འཚམས་འདྲི་	-7375
རྒྱུ་རྐྱེན།	-7376
བསམ་པའི་བཀོད་	-7377
རིགས་གཅིག་མཁས་	-7378
ན་ཟུག་	-7379
ཚད་གཞིའི་	-7380
བརྩི་སྲུང་ཞུ་	-7381
གློག་སྒུལ་	-7382
ཐབས་ཇུས་ཤིང་	-7383
མི་ཐོན་	-7384
ཡོད་ཚད་ལ་	-7385
སྨོས་ཅི་	-7386
ཁྱབ།	-7387
sh	-7388
ཆ་འཕྲིན་དེ་དག་	-7389
འདི་མངོན་འགྱུར་	-7390
TP	-7391
བརྒྱ་ཆའི་	-7392
བློན་ཆེན་	-7393
སྣའི་	-7394
ཡིས་ཀྱང་	-7395
ཨུའི་	-7396
གྲུབ།	-7397
འགྲན་བསྡུར་ནང་	-7398
ཞུགས་པ།	-7399
ཡོང་ཁུངས།	-7400
word	-7401
ལམ་བུ་	-7402
གོ་རིམ་ཡིན།	-7403
▁ཁྱོད་	-7404
ཁག་ཅིག་	-7405
get	-7406
བརྟག་དཔྱད་ཀྱི་	-7407
དཔེ་ཆ་	-7408
ནུས་ཚད་	-7409
ངའི་བསམ་འཆར་ལ་	-7410
རྒྱུ་དང་འབྲེལ་	-7411
ནོར་འཛོལ་	-7412
ལ་ཁག་ཐེག་	-7413
བརྙན་ཕབ་	-7414
ལ་དོ་ཁུར་	-7415
ཆོག་པར་མ་ཟད།	-7416
ཆེད་མངགས་	-7417
བྱང་ཚད་	-7418
▁ཝང་	-7419
འཚོ་བ་རོལ་སྟངས་	-7420
ལུས་རྩལ་འགྲན་	-7421
ཚོད་ལྟ།	-7422
ཚོང་རྟགས་དང་	-7423
རྫོང་དུ་	-7424
ས་གནས།	-7425
འཛུགས་ཐུབ།	-7426
▁v	-7427
are	-7428
ཉམས་མྱོང་།	-7429
སྤྱི་འགྲོས་	-7430
རིན་མེད་	-7431
སྔོན་ལ་ཐག་གཅོད་	-7432
ཡོང་རྒྱུ་རེད།	-7433
▁ཆུ་	-7434
llll	-7435
ཆེན་པོར་	-7436
oun	-7437
བཅའ་ཁྲི	-7438
ཚད་དང་བློ་དཀར་	-7439
ལ་བརྩི་འཇོག་དང་	-7440
ཚིག	-7441
ག་བཙོག་	-7442
ཀྱིན་	-7443
གི	-7444
ནུས་པ་འདོན་	-7445
ལས་འགུལ་	-7446
ཡོན་གྱི་	-7447
དགོངས་དོན་	-7448
བསླབ་བྱ་	-7449
མཁྲེགས་ཆས་	-7450
ལྐོག་གྱུར་གྱི་	-7451
ཁྱབ་ཡོད།	-7452
འཕར་ཆག་	-7453
དགེ་རྒན་དང་	-7454
བྱ་རྒྱུའི་རེ་བ་	-7455
ཚལ་ཐོ་	-7456
ནུས་ཤུགས་ཡོད་རྒ	-7457
སྔོན་པོ་	-7458
གདོང་གཏོད་	-7459
གཏིང་ཟབ་ཏུ་	-7460
TF	-7461
ཏོ་	-7462
▁༡༩	-7463
ལག་ཆ་དང་ལག་རྩལ་	-7464
གྲས་ཤིག་ཡིན་	-7465
བྱ་དགོས།དཔེར་ན་	-7466
སྒྱིད་	-7467
རུ་འཇུག་	-7468
ཞེས་འབོད་	-7469
སྨོས་ཅི་དགོས།	-7470
མཁའ་དབྱིངས་	-7471
༡༢	-7472
ཐོན་སྲིད།	-7473
ནན་ཞིང་ཆེན་	-7474
ཁ་ལག་	-7475
སྣོལ་སྡེབ་	-7476
དབང་རྩའི་དྲ་བའི་	-7477
འགྲན་དུས་	-7478
ལས་གྲུབ་པའི་	-7479
གླུ་དབྱངས་ཀྱི་	-7480
མཐའི་	-7481
འབོར་ཆེན་ཞིག་	-7482
ལ་ཁ་གཏད་	-7483
འཛིན་བཟུང་	-7484
ཡོད་པའི་སྒོ་ནས་	-7485
མ་བྱས་ན།	-7486
ཕྱིར་སློག་	-7487
འགོ་འཛུགས་	-7488
སྐད་གྲགས་ཆོད་ཚད་	-7489
གཞི་གྲངས་ཚན་རིག་	-7490
ཐང་ཆེན་	-7491
ཡོད་པས་རེད།	-7492
རྡུ་	-7493
ཚབ་ཨང་འབྲི་	-7494
ཀྱི	-7495
སྦྲང་	-7496
གཏོང་ཐུབ།དཔེར་ན།	-7497
AR	-7498
དཔྱད་དཔོག	-7499
བཟོད་སྒོམ་	-7500
བྲིན་ཚོང་གི་	-7501
སྒྱིད་ལུག་	-7502
རྦད་	-7503
ཐང་།	-7504
གཅིག་དང་	-7505
ཧེག་པའི་	-7506
འཕེལ་རྒྱས་སུ་	-7507
དེ་གཉིས་	-7508
འབྲེལ་བ།	-7509
form	-7510
མེད་པས་	-7511
ལས་ཞུགས་གོ་སྐབས་	-7512
ult	-7513
འགོ་ཁྲིད་ཀྱི་	-7514
ཨ་ཧྥེ་རི་ཁའི་	-7515
བྲེལ་འཚུབ་	-7516
ལས་ཆོད་ཆེ་བའི་	-7517
ཞབས་ཞུ་ཆས་	-7518
ཁུན་	-7519
གཙང་མ་	-7520
བར་སྐུལ་འདེད་	-7521
མ་དངུལ་གཏོང་	-7522
སྐད་གདངས་དང་	-7523
གུ་	-7524
འཕྲེད་	-7525
རྒྱུ་ནི་ཧ་ཅང་	-7526
གྲོས་ཚོགས་ཐེངས་	-7527
དཔྱིད་གསར་	-7528
རིགས་མི་འདྲ་བར་	-7529
ཚེ་གང་	-7530
ཚད	-7531
རོལ་རྩ	-7532
ཞིག་ནི་	-7533
”“	-7534
ax	-7535
རྩིས་སྤྲོད་	-7536
གདམ་དགོས།	-7537
སོའི་	-7538
བྱས་ནས་ཁྱེད་ཀྱི་	-7539
ཁྱད་ཆོས་ནི་	-7540
གནོད་སྐྱོན་	-7541
བྱས་པར་བརྟེན་ནས་	-7542
སྲིད་པས་	-7543
གེགས་	-7544
ཡོངས་ཁྱབ་ཏུ་	-7545
རྐང་དངུལ་འཛིན་	-7546
.“	-7547
སྐྱེས་པ་ལས་	-7548
འདེམ་བྱང་	-7549
ཀུའོ་	-7550
གྲུབ་འབྲས་དང་	-7551
འཕྲོད་སྦྱོར་	-7552
ཚན་རྩལ་གྱི་	-7553
བསྡད་ནས་	-7554
དོ་མཉམ་ཡོང་བ་	-7555
ཤོར་བ་	-7556
indow	-7557
ལག་རྩལ་གསར་བ་	-7558
au	-7559
ཚིག་མཛོད་	-7560
ལྟ་སྐུལ་དང་	-7561
ཉེན་རྟོག་པས་	-7562
དུ་བསྒྱུར་	-7563
ཏེ།དཔེར་ན།	-7564
འགལ་བའི་	-7565
དགོས་ངེས་	-7566
སྤྲིན་གྱི་	-7567
དངུལ་གྲངས་	-7568
མཇུག་འབྲས་ལ་	-7569
ཀས་	-7570
ཞིག་ཡོད།	-7571
ཐོག	-7572
ུ་གུ་	-7573
བདེ་སྲུང་།	-7574
ཐུབ་པར་བྱ་དགོས།	-7575
ཚུལ་གྱི་	-7576
ཞུའེ་	-7577
ཁ་དོག་དང་	-7578
དེ་དག་ཚང་མ་	-7579
བཞོན་	-7580
སྡུར་	-7581
གནམ་གཤིས་ཀྱི་	-7582
ཡོད་ཀྱང་	-7583
རུལ་	-7584
ང་ལ་ཤོད་	-7585
ཅང་སུའུ་	-7586
བསྡུ་སྒྲིལ་	-7587
ཐོབ་པ་དང་	-7588
དེ་དང་མཉམ་དུ་	-7589
རྒྱུད་འཛིན་	-7590
སྦྱོང་བ།	-7591
ཅུ་	-7592
མགྲ	-7593
མངོན་ཐུབ།	-7594
འཐུས་སྒོ་	-7595
སླེབས་སྐབས་	-7596
▁དེར་བརྟེན་	-7597
མཉམ་ལས།	-7598
ཚོམ།	-7599
བྱེད་པ་ཡིན།	-7600
གྲོལ་	-7601
ཡོང་བར་བྱ་དགོས།	-7602
ལྡན་པ་ཞིག་	-7603
ཡིན་ནའི་	-7604
ial	-7605
སྨན་ཁང་གི་	-7606
བསྒར་ལྷ	-7607
ཁེ	-7608
བརྒྱད།	-7609
འཁྱུར་	-7610
སྤྱན་	-7611
ཡོང་ནས་	-7612
བླུགས་ནས་	-7613
མི་འབོར་གྱི་	-7614
ཐུབ་པ་དཔེར་ན།	-7615
སྟབས་བདེ་ཞིང་	-7616
སེམས་འགུལ་	-7617
ལ་ལྟ་རྟོག་	-7618
མང་ཚོགས་ཀྱིས་	-7619
ཧིན་རྡུ་	-7620
རྗོད་ཚིག་	-7621
སློབ་དེབ་	-7622
ལྡེམ་	-7623
འགྲིམ་འགྲུལ།	-7624
བརྔ	-7625
ཞིག་ཡིན་པ་མ་ཟད།	-7626
ལོ་ཏོག་	-7627
▁In	-7628
མཐོ་པོ་	-7629
ཐིན་	-7630
ལེན་དགོས།	-7631
གཙོ་བོ་ཡིན།	-7632
མདུན་སྐྱོད་	-7633
ཕྱི་ངོས་	-7634
སྐྱེ་ལྡན་	-7635
གོན་	-7636
▁རང་	-7637
བསོད་	-7638
ཤོག་བྱང་དང་	-7639
འགའ་ཞིག་གིས་	-7640
བཤད་པ་	-7641
དྲུང་	-7642
ཆོས་ལུགས།	-7643
ཞེས་བཤད།	-7644
ཁྱེད་རང་དང་	-7645
གྲིབ་	-7646
དམག་མི་	-7647
བདག་སྐྱོང་	-7648
འདོད་པ་	-7649
ལེན་གྱི་	-7650
བྲོ་བ་ཞིམ་	-7651
མེན་	-7652
སྡུག་བསྔལ་	-7653
ལས་འཁྱུར་	-7654
ཕུད་པའི་	-7655
ལྷ་ས་གྲོང་ཁྱེར་	-7656
ཕོད་	-7657
ལོ་ན་	-7658
རོལ་མོ་	-7659
ནང་།	-7660
ཕོ་མོ་འདྲ་མཉམ་	-7661
ཨོ་སི་ཁྲུ་ལི་	-7662
ངོ་རྒྱུགས་ལེན་	-7663
མཚམས་ཀྱི་	-7664
གཉེན་སྟོན་	-7665
ལག་ཤེས་	-7666
ཡིན་ལ་	-7667
པའི་ཆ་ནས།ངས་	-7668
བསམ་འཆར་ག་རེ་	-7669
OS	-7670
▁རོལ་རྩེད་	-7671
ལག་རྩལ་བརྒྱུད་	-7672
ཡིན་པ་གཏན་འཁེལ་	-7673
son	-7674
ཞུགས་པར་	-7675
བྱ་རྒྱུ་མ་ཟད།	-7676
མི་ཕོག་	-7677
ཡུག་	-7678
དམིགས་སའི་	-7679
ཁོང་ཡངས་ཀྱི་	-7680
གཅིག་སྒྲིལ་གྱིས་	-7681
སྔོན་བརྡ་	-7682
atplot	-7683
སྐྱོན་ཆ་དང་	-7684
ལས་འགན་རེ་རེའི་	-7685
འགག་རྩའི་ཡི་གེ་	-7686
ཆོས་དཔོན་	-7687
འཁྲུངས་	-7688
ཐེ་གཏོགས་	-7689
▁མི་དམངས་	-7690
འཚོལ་རོགས་	-7691
རྗེས་མཐུད་	-7692
ཚོད་རྒྱུགས་	-7693
ཤུགས་ཆེན་	-7694
ཐའེ་དབན་	-7695
རིམ་འདས་	-7696
རྒྱལ་ཁབ་ཀྱིས་	-7697
མཇུག་བསྒྲིལ་	-7698
རེད	-7699
React	-7700
སྐབས་དེའི་	-7701
ཆོགས	-7702
དགའ་བའི་	-7703
ཁྱིམ་སྤྱོད་	-7704
མི་ཡོང་	-7705
གར་སྟེགས་	-7706
མིང་མི་འགོད་པའི་	-7707
གྲོག་	-7708
ཁྱིམ་ཚང་དང་	-7709
▁རླངས་འཁོར་	-7710
སྣང་གི་	-7711
APEC	-7712
མ་བྱུང་	-7713
གཅིན་	-7714
ལས་གནས་སུ་	-7715
འདེད།	-7716
དང་མཉམ་ལས་ཀྱི་	-7717
གྲོང་ཚོར་	-7718
པའི་སྐབས་སུ།	-7719
བྱས་རྗེས་ཀྱི་	-7720
སྐྱིད།	-7721
ཞེས་བཤད་པ་རེད།	-7722
དུ་འཇུག་ཐུབ།	-7723
ཐང་རྒྱལ་རབས་ཀྱི་	-7724
ཆ་འཕྲིན་དང་།	-7725
བྲོས་	-7726
▁རང་ལ་	-7727
ཁྲོད་དུ།ང་ཚོས་	-7728
ann	-7729
ཉིན་ཐོ་	-7730
བྱ་སྤྱོད།	-7731
▁སྨན་བཅོས་	-7732
རིག་གནས་ཤུལ་བཞག་	-7733
མངོན་སུམ་	-7734
ཙེའི་	-7735
མ་གཞི་	-7736
▁གློག་བརྙན་	-7737
ལག་རྩལ་དང་།	-7738
གཟུགས་པོར་	-7739
དྲ་ཐོག་སློབ་ཚན་	-7740
ཝེའི་	-7741
དཔེ་དབྱིབས་དང་	-7742
ཞིག་ཡིན་པའི་	-7743
ཤིག་གིས་	-7744
བྱིས་པར་	-7745
ly	-7746
བྱས་ན་གཞི་ནས་	-7747
བྱས་ཟིན་པའི་	-7748
༢༥	-7749
གསོག་ཉར་	-7750
འཚམ་ཤོས་	-7751
རྒྱུ་རྐྱེན་ལ་	-7752
གདོན་འདྲ	-7753
སྨོན་འདུན་	-7754
ང་ཚེ་	-7755
དང་གྲོས་མོལ་	-7756
དེ་རིགས་ལ་	-7757
གཏོང་བར་རོགས་རམ་	-7758
ལི།	-7759
ཐག་གཅོད་དང་།	-7760
ལྟ་སྐོར་	-7761
བྱེད་ཆོག་པའི་	-7762
ཆ་འཕྲིན།	-7763
ཞུས	-7764
གནད་དོན་དེ་	-7765
སིམ་	-7766
དངུལ་རྩ།	-7767
lack	-7768
སྦྲགས་སྲིད་	-7769
བཞིན་དུ་	-7770
བྱས་ཡོད་པ་རེད།	-7771
རུ་མི་	-7772
▁གོང་གསལ་ནི་	-7773
རྩི་ཤིང་གི་	-7774
དོམ་	-7775
ཱའི་	-7776
ཉིན་མོ་	-7777
གཙང་བཤེར་	-7778
སྨན་གྱི་	-7779
ཆུང་བ་	-7780
ས་ཚིགས་ཀྱི་	-7781
འདང་ངེས་ཀྱི་	-7782
བརྒྱ་དང་	-7783
ནར་སོན་	-7784
བརྒྱ་ཆ་	-7785
ལུས་སེམས་	-7786
དུས་རབས་ཀྱི་	-7787
ཧོའུ་	-7788
ཐེ་ཚོམ་	-7789
དབང་ཆ་མ་	-7790
དེབ་དང་།	-7791
ནག་གི་	-7792
ེད	-7793
དཔྱད་ཡིག་	-7794
རེས།	-7795
འཐུ	-7796
གཙོ་འཛིན་	-7797
earn	-7798
དབང་གྲགས་	-7799
ལེའུ་	-7800
རྦད་དེ་	-7801
ཞིག་གི་ནང་དུ་	-7802
ཚོགས་སྤྱིའི་	-7803
ལས་དང་	-7804
བྱང་ཤར་	-7805
ནད་ཐོའི་	-7806
ox	-7807
ཁུལ་ནི་	-7808
ཟུར་ཚད་	-7809
བྱ་རིམ་སྒྲིག་གི་	-7810
ཁྱིམ་མཚེས་	-7811
སྤོ་ལོ་རྒྱག་	-7812
lass	-7813
སུ་བཅུག་	-7814
རི་མོ་དང་།	-7815
ཁྱབ་ཁོངས་དང་	-7816
▁དང་	-7817
ཡོད་དུས་	-7818
རྡོག་	-7819
འཇར་པན་	-7820
ཡོད་པར་ཁག་ཐེག་	-7821
དོགས་པ་	-7822
ཕུན་སུམ་ཚོགས་པོ་	-7823
གཅིག་གི་ནང་དུ་	-7824
རིམ་རྩིས་	-7825
ཁྱུ་	-7826
སྤོ་བོ་	-7827
ཕྱིར་བསྒྲགས་	-7828
ནུའོ་	-7829
ཁུལ་དང་	-7830
ཚོང་ཤག་གི་	-7831
རིག་གནས་དང་།	-7832
དེའི་ཁོངས་སུ་	-7833
ཚོད་འཛིན་བྱས་ནས་	-7834
བརྩེ་བ་དང་	-7835
རག་ཐབས་	-7836
སྟབས་བདེར་	-7837
བསམ་བློ་གཏིང་ཟབ་	-7838
སྒྲོ་	-7839
བྱེད་ཐབས་ལ་	-7840
ཐེངས་དང་པོར་	-7841
ཡོད་དམ་མེད་།	-7842
འདུ་ཤེས་ཟབ་ཏུ་	-7843
མཐུད།	-7844
སི་ཕེན་གྱི་	-7845
ཞུགས་པའི་	-7846
དགོས་མཁོ་དང་།	-7847
མཆོད་རྟེན་	-7848
ལ་འགྱུར་བ་	-7849
ཞིབ་ཅིང་ཕྲ་	-7850
ཕྱིར་ལོག	-7851
▁མདོར་བསྡུས་	-7852
ཤུགས་རྐྱེན་ངན་པ་	-7853
ཡུལ་དུ་	-7854
ཉམས་ཉེན་	-7855
My	-7856
དེ་ལས་གཞན།	-7857
བཅས་ཚུད་པའི་	-7858
རྩིས་རིག་གི་	-7859
སྐུད་མེད་	-7860
ཤང་ཀང་གི་	-7861
ད་ཡོད་	-7862
ཁག	-7863
བཞག	-7864
ཉི་མའི་	-7865
མི་དམངས་ཤོག་	-7866
ཐོབ་དགོས།	-7867
བཏང་བ་བརྒྱུད་	-7868
ལྟ་ཞིབ་ཚད་ལེན།	-7869
lt	-7870
པའམ།ཡང་ན་	-7871
གསར་བ་དང་	-7872
འོས་པའི་	-7873
Wi	-7874
འབྲུ་རིགས་	-7875
བྲག་རྡོ་	-7876
ལུགས་མཐུན་གྱིས་	-7877
མ་ལག་དེ་	-7878
རང་བཞིན་གྱིས་	-7879
ཙུའོ་	-7880
ལོ་འགའི་	-7881
ཡིན་སྲིད།	-7882
ཆུ་ཚད་ལ་	-7883
སྦྱངས་པའི་	-7884
གཉིས་དང་	-7885
ཉིན་རེའི་ཚགས་པར་	-7886
དུས་ཚོད་ནི་	-7887
འཛིན་དགོས།	-7888
བཅུའི་	-7889
སྐབས་དེར་	-7890
Cod	-7891
དཔེ་དེབ་དང་	-7892
བྱས་ན་ཆོག་གམ།	-7893
མི་ཞིག་	-7894
ཉོ་འཚོང་	-7895
མ་དཔེའི་	-7896
སྡོང་བོ་	-7897
བལྟ་རུང་ཅན་གྱི་	-7898
སྲུང་སྐྱོང་།	-7899
སོགས་ལྟ་བུ་ཡིན།	-7900
ཏོན་	-7901
སྔོན་ཐོབ་རིམ་པ་	-7902
ཆོས་ཁང་གི་	-7903
གཅེས་སྤྲས་	-7904
གོམས་གཤིས་དང་	-7905
སྒོ་དབྱེ་	-7906
གྲངས	-7907
ཁྲོམ་ར	-7908
ཐེར་འདོན་	-7909
དར་སོ་ཆེ་བའི་	-7910
ཕན་ཚུན་དབར་གྱི་	-7911
བྱེད་ཐབས་ཡིན།	-7912
སྒྲིག་ཆས།	-7913
ལས་འགན་བགོ་བཤའ་	-7914
▁ཕ་	-7915
རྐྱོང་	-7916
ཆ་ཚང་ཞིག་	-7917
ཚལ་གྱི་	-7918
འཐུས་སྒོ་ཚང་	-7919
ཟིན་ཡོད།	-7920
ལ་ལན་འདེབས་	-7921
▁མིང་	-7922
དང་ཁ་	-7923
ཐབ་	-7924
གམ་།	-7925
ཚོང་པ་	-7926
གླས་	-7927
དོ་སྣང་ཆེན་པོ་	-7928
ལས་སྣོན་	-7929
དངུལ་གྱི་	-7930
རྒྱང་རིང་གི་	-7931
དཔལ་འབྱོར།	-7932
▁ཡིན་ནའང་	-7933
ཉིའི་	-7934
འགའ་རེད།	-7935
གཞི་གྲངས་ནི་	-7936
བཀོད་ཡོད།	-7937
རླུང་ཁམས་	-7938
ight	-7939
ཙོང་	-7940
གཡོས་	-7941
དཔྱད་བརྗོད་	-7942
འབྲེལ་བའི་སྨྱན་	-7943
བྱས་པ་བརྒྱུད་ནས།	-7944
བསྐྲུན་ཐུབ།	-7945
ff	-7946
ལོ་གསར་	-7947
པོད་འཕྲིན་	-7948
ཀྲོའུ་གྲོང་ཁྱེར་	-7949
ཁེ་ལས།	-7950
བྱེད་རྒྱུ་ནི་	-7951
དྭངས་གསལ་	-7952
མི་སྤྱོད་	-7953
བརྡ་ཁྱབ།	-7954
ལོའི་བར།	-7955
ཆོས་ཁང་	-7956
པིང་	-7957
ཡིས་རང་འགུལ་ངང་	-7958
ཚོགས་པའི་ནང་	-7959
ཇེ་ཉུང་	-7960
ཅི་ཐུབ་ཀྱིས་	-7961
བྱས་ཚེ།	-7962
▁ཉེ་ཆར།	-7963
འཛམ་གླིང་ཐོག་	-7964
མེ་སྐྱོན་	-7965
གཟེངས་བསྟོད་	-7966
ཅི་ཞིག་ཡོད་དམ།	-7967
དེ་བས་མང་བ་ཞིག་	-7968
བུམ་པའི་	-7969
ལས་གནས་ཀྱི་	-7970
ཡིན་།	-7971
ང་ཚོས་བྱེད་ཐབས་	-7972
རེ་ཡོད།	-7973
དྲངས་	-7974
ལྕགས་ལམ་གྱི་	-7975
བྱེད་དགོས་པ་ལས་	-7976
གླིང་།	-7977
སྤྱི་ཕན་	-7978
བྱ་དགོས་ཏེ།	-7979
ཕེང་	-7980
སྦྲེལ་ཐག་གི་	-7981
▁ཟླ	-7982
ལག་ལེན་དང་	-7983
ore	-7984
ནན་མོ་	-7985
ལྟེབ་	-7986
རྐང་ཐང་	-7987
ཡང་བྱེད་ཐུབ།	-7988
སྤྱོད་བདེའི་	-7989
ཡིས་གཞི་གྲངས་	-7990
སྟོབས་ཤུགས་དང་	-7991
བཞད་	-7992
ལས་འགན་ཞིག་	-7993
ཇེ་མང་	-7994
མི་སྣ་གཙོ་བོ་	-7995
orch	-7996
ཚོགས་པ་ཞིག་	-7997
རང་བཞིན་ནི་	-7998
ཤེས་ཟིན་པའི་	-7999
འགྲུལ་སྐྱེལ་	-8000
དྲིལ་བསྒྲགས་དང་	-8001
ཀྲོའུ།	-8002
དམིགས་ཡུལ་གྱི་	-8003
ངོ་གདོང་	-8004
མགྱོགས་མྱུར་དང་	-8005
ཚུགས།	-8006
BM	-8007
ཧི་	-8008
གང་དུ་	-8009
ཁ་ལོ་བ་མེད་པའི་	-8010
ས་བབ་	-8011
བྱ་བ་བསྒྲུབ་	-8012
my	-8013
བྱས་པ་ལྟར་ན།	-8014
སྐུ་མགྲོན་གྱི་	-8015
ཡིན་པ་ལས་	-8016
དང་འཚམ་པར་	-8017
ཞེ་ན།	-8018
གས་པའི་	-8019
བཟུང་ཡོད།	-8020
མིའི་གདོང་གི་	-8021
ཆོག་གི་ཡོད།	-8022
ལས་རོགས་ཤིག་གི་	-8023
▁ཉེ་བའི་	-8024
འཁྱོངས།	-8025
ཕྱོགས་གཉིས་པོས་	-8026
འདེམས་པར་	-8027
ནང་དོན་ནི་	-8028
གཡོས་སྦྱོར་	-8029
ལ་དམིགས་ནས་	-8030
བྱས་ཚེ་གཞི་ནས་	-8031
ment	-8032
སྐས་རིམ་	-8033
དོ་སྣང་བྱེད་	-8034
མྱུར་སྐྱོབ་	-8035
PU	-8036
མི་རེ་	-8037
དེང་སྐབས་	-8038
སྙིང་རུས་	-8039
རྩིས་ཐོའི་	-8040
དང་ཕན་ཚུན་	-8041
མེ་ཟོན་	-8042
ཐིག་གི་	-8043
བཏང་བ་དང་	-8044
ལས་མིའི་	-8045
གཙང་འཁྲུ་དང་	-8046
ནི་རྒྱུན་དུ་	-8047
▁གཉིས།གཞི་གྲངས་	-8048
ཞིབ་འཇུག	-8049
ཕོ་མོ།	-8050
སྒྲིག་གཞི་དང་	-8051
མི་དགོས་པར་	-8052
ལུད་	-8053
ཡག་པོ་བྱེད་དགོས།	-8054
ཁུར།	-8055
ཞིང་ཆེན་རིམ་པའི་	-8056
ཆེ་རུ་བཏང་སྟེ་	-8057
ཤུགས་རྐྱེན།	-8058
ཁང་ནས་	-8059
བྱེད་མི་རུང་	-8060
ཏུ།	-8061
ལྟ་ཚུལ་དང་	-8062
ཇེ་ལེགས་སུ་	-8063
དེར་བསྟུན་གྱི་	-8064
བྱས་ནས་ཁོ་ཚོའི་	-8065
མི་ཚང་མ་	-8066
ལ་འགྲོ་	-8067
རྐྱེན་གྱིས་རེད།	-8068
ཕྱིར་ལོག་པའི་	-8069
བཙུན་མོ་	-8070
ལུས་ཕུང་དང་	-8071
ཆུང་དུ་འགྲོ་	-8072
ལས་སྒྲུབ་	-8073
དེ།དཔེར་ན།	-8074
ཟླ་རེར་	-8075
ཡིན་ནས་	-8076
སེམས་ལྷོད་ལ་འབབ་	-8077
མེ་མདའ་	-8078
མི་འདྲ་ས་	-8079
བཀླ	-8080
དོ་སྣང་བྱ་ཡུལ་	-8081
ལ་དོ་སྣང་ཆེན་པོ་	-8082
ལེར་	-8083
དང་ལེགས་སྒྱུར་	-8084
བསྐོའི་	-8085
ཁྱབ་ཁོངས་མང་པོར་	-8086
ཐོན་ནས་	-8087
དངོས་མང་	-8088
འདེམས་ཤོག་འཕེན་	-8089
བྱ་བ་དང་	-8090
ཝར་	-8091
འཕྲུལ་ཆས་དང་	-8092
ནད་ཐོག་	-8093
ཤེས་རིག་	-8094
data	-8095
སྦུག་	-8096
བལྟས་ནས་	-8097
དྲ་ཚིགས་ཤིག་	-8098
ལ་ལས་	-8099
ལག་བསྟར་བྱས་	-8100
ring	-8101
རྒྱལ་ནང་གི་	-8102
ཚད་གཞི་དང་མཐུན་	-8103
ཚོམས་	-8104
གུང་གསེང་	-8105
གྱིས	-8106
ཡིང་	-8107
འོས་ཤིང་	-8108
མགོ་ཁྲིད་	-8109
དང་མཁོ་མཁན་གྱི་	-8110
དཔེ་ཁ་ཤས་	-8111
མཚན་ཉིད་འཇོག་	-8112
ལྡན་པ་	-8113
མཐར་ཕྱིན་	-8114
གནད་བསྡུས་	-8115
ཁྲིན་	-8116
གཞུང་ཚབ་	-8117
སྤུས་ཚད་ཀྱི་	-8118
ལྷིང་འཇགས་ཀྱི་	-8119
ངོགས་	-8120
sc	-8121
འབག་བཙོག་	-8122
སྲང་ལམ་	-8123
བཟོས་ཡོད།	-8124
དགོས་པ་དཔེར་ན།	-8125
རྟག་པར་	-8126
ཅིག་ཏུ་	-8127
འཛིན་གྲྭ་	-8128
གླིང་ཕྲ	-8129
སྟབས་བདེ་ལ་	-8130
བྱ་དགའ་དང་	-8131
སྤྱད་པའི་	-8132
ནི་དྲ་ཐོག་	-8133
མི་ཐེབས་པའི་	-8134
མིང་ཐོ་	-8135
ལས་མིས་	-8136
རང་བཞིན་ཇེ་མཐོར་	-8137
SVM	-8138
དམག་གིས་	-8139
▁སྲིད་འཛིན་	-8140
འགྲོ་འོང་	-8141
དངུལ་འཛིན་	-8142
འགྲོ་སྲིད།	-8143
ཞིབ་ཏུ་	-8144
བྱེད་འགོ་བརྩམས་	-8145
སློབ་གྲྭས་	-8146
སྐད་བརྡ་དང་	-8147
མཆེད་	-8148
བསོད་ན	-8149
བའི་ཚེས་	-8150
དང་སྲུང་སྐྱོང་	-8151
ural	-8152
ཡིད་ཆད་	-8153
བྱས་ཆོག་པའི་	-8154
གཏོང་རྒྱུར་	-8155
སླེབས་ཡོད།	-8156
སོགས་ལྟ་བུ་	-8157
འགའ་མཁོ་འདོན་	-8158
ལ་སྲུང་སྐྱོང་	-8159
མམ་	-8160
འཕེལ་རིམ་དང་	-8161
ཉིན་གྱི་ཕྱི་	-8162
དམངས་གཙོ་	-8163
གལ་ཏེ་ཁྱོད་ཀྱི་	-8164
སྨན་རྫས་ཀྱི་	-8165
let	-8166
ཀུང་སི།	-8167
དྲག་ཆས་	-8168
ཟོག་འདྲེན་	-8169
སྦྱིན་བདག་	-8170
ཆགས་ཚུལ་	-8171
ནའི་	-8172
ype	-8173
ཚོགས་འདུ་འཚོགས་	-8174
མཛོད་དང་	-8175
ལས་གྲྭའི་	-8176
ཚད་མེད་	-8177
ཁོང་ཁྲོ་	-8178
དབྱེ་ཕྲལ་	-8179
མངོན་ཡོད།	-8180
གསལ་བཤད་བྱས་ཡོད།	-8181
མ་ནི་	-8182
དབྱེ་ཞིབ་ནི་	-8183
དགོས་པས།	-8184
བརྒལ།	-8185
ཤིག་ཡིན།དེས་	-8186
བཙན་རྒྱལ་	-8187
དམིགས་ཚད་ཀྱི་	-8188
འོས་སྦྱོར།	-8189
སྒོ་ཕྱེ་	-8190
དང་འགལ་བ་	-8191
ier	-8192
atch	-8193
ལ་དབྱེ་ཞིབ་དང་།	-8194
འབུམ་རམས་	-8195
ཐོབ་ཐང་ར་སྤྲོད་	-8196
སྤྱི་བསྒྲགས་	-8197
སེམས་མི་འཇགས་	-8198
ཐེན་ཅིན་	-8199
ཟློས་གར་གྱི་	-8200
ཏིའི་	-8201
ཤིག་ཏུ་གྱུར་ཡོད།	-8202
ཙམ་གྱི་	-8203
དགོས།ཁྱེད་རང་གི་	-8204
ལས་ཀ་ལས་	-8205
སྐྱེས་པས་	-8206
བསམ་འདུན་	-8207
ལྷན་ཚོགས་ཀྱི་	-8208
པ་སོགས་ལྟ་བུ།	-8209
ལག་རྩལ་ཞིག་ཡིན།	-8210
གང་ཐུབ་ཀྱིས་	-8211
རེག་	-8212
བཅོ་བརྒྱད་	-8213
སྙན་སེང་ཞུ་	-8214
རལ་	-8215
ཁྱད་བསད་	-8216
བསོད་ནམས་	-8217
▁ཀྲང་	-8218
ཁྲལ་བསྡུའི་	-8219
དངུལ་ཁང་དང་	-8220
ལོགས་སུ་	-8221
ལས་འགན་དང་།	-8222
ནུས་པ་ལྡན་པའི་	-8223
bot	-8224
བྱེད་པའི་བྱ་ཐབས་	-8225
རོལ་རྩེད།	-8226
བློས་འཁེལ་	-8227
རྩོམ་འབྲ	-8228
ལ་དབང་	-8229
དང་བླངས་པའི་	-8230
ཤིན་ཏུ་ཆེ་བའི་	-8231
▁K	-8232
ལས་ཀའི་ཁྲོད་	-8233
ip	-8234
Table	-8235
མི་ཐེབས་པ་	-8236
ཡོང་ཆེད།	-8237
མཐའ་མར་	-8238
སྐས་ཚད་	-8239
དམིགས་ཚད་ཁ་གསལ་	-8240
གོ་རིམ་ལྟར་	-8241
གནས་སྤོའི་	-8242
གོར་	-8243
PA	-8244
རྡོ་རིང་	-8245
དྲོའི་ཆུ་ཚོད་	-8246
མྱོང་བའི་	-8247
འགོར་འགྱངས་	-8248
▁བོད་	-8249
མཐུད་ཁ་	-8250
ask	-8251
མེད་མོད།འོན་ཀྱང་	-8252
བློས་འགེལ་ཆོག་	-8253
To	-8254
སྙིང་གི་	-8255
འགྲེལ་བཤད་རྒྱག་	-8256
ཧ་ཅང་ཆེན་པོ་ཡོད།	-8257
ཐེངས་དང་པོ་	-8258
དཔེ་པང་	-8259
ལི་སྨི་	-8260
མི་བྱེད།	-8261
བྱས་ཡོད།དེའི་ནང་	-8262
དབང་གི་	-8263
▁ཚན་རྩལ་	-8264
ལས་ཁུངས་ལ་	-8265
སྟབས་བསྟུན་	-8266
སྐུལ་མ་གཏོང་	-8267
རང་བདག་	-8268
བརྩམས་ཆོས་ལ་	-8269
ལས་སྟེགས་ཀྱི་	-8270
མང་དུ་གཏོང་བ།	-8271
ོབས་	-8272
ཨོའུ་	-8273
འཚོལ་ཐུབ།	-8274
▁འཛམ་གླིང་	-8275
རིགས་རྒྱུད་དང་།	-8276
ལོས་	-8277
མ་རྩ་འཇོག་	-8278
བྱ་དགོས་སམ་།	-8279
BT	-8280
དེ་བས་མང་བས་	-8281
འདིའི་ནང་	-8282
UI	-8283
Torch	-8284
སླ།	-8285
བྱས་ན།ཁྱེད་ཀྱིས་	-8286
རྣལ་	-8287
དྲན་གསོ་	-8288
ལ་བསམ་ཤེས་	-8289
ཆུང་ཆུང་ཞིག་ཏུ་	-8290
སོགས	-8291
རྒྱས།	-8292
ཀྱི་ཕན་འབྲས་དང་	-8293
སྤྱི་ཡོངས་ཀྱི་	-8294
lib	-8295
མི་ལ་ལ་	-8296
གལ་ཆེན་གྱི་	-8297
སྲ་བརྟན་	-8298
ཉམས་གསོའི་	-8299
དང་དེའི་	-8300
སྐྱེ་ཁམས་མ་ལག་	-8301
སྦྱང་	-8302
ཁྱོད་ནི་	-8303
དབྱིས་	-8304
བྲིས་།	-8305
ཀན་སུའུ་	-8306
ཁོངས་མིས་	-8307
རྩར་	-8308
▁Analytics	-8309
རྒྱུ་ནོར་གྱི་	-8310
མི་འདྲ་བས།	-8311
རྒྱུའི་གྲོས་འགོ་	-8312
མི་ཐུབ་	-8313
ཨ་རབ་	-8314
གནས་པ་དང་	-8315
ཡི་ནང་	-8316
བཅིངས་འགྲོལ་	-8317
ཏར་	-8318
འཛུགས་པ་དང་།	-8319
དབྱེ་འ	-8320
སྒྲིག་ལམ་	-8321
ལག་ཆ་བཀོལ་ནས་	-8322
ོང	-8323
གནད་དོན་ནི་	-8324
བཞུར་ཚད་དང་	-8325
ཏོག་ཙམ་	-8326
སྟོབས་ལྡན་	-8327
མཐོ་རིམ་གྱི་	-8328
▁གཅིགགཞི་གྲངས་	-8329
བྱས་པར་གཞིགས་ན་	-8330
Fi	-8331
མེད་པར་འགྱུར་	-8332
ལོར	-8333
ལ་རྒྱ་	-8334
ཟླ་བའི་	-8335
མཐིལ་	-8336
བཙའ་	-8337
▁ཆེས་	-8338
ཁུག་མ་	-8339
ཇུས་འགོད་དང་།	-8340
གལ་ཆེ་བ་ཞིག་ཡིན།	-8341
མཐོ་བ་དང་།	-8342
རྒྱུན་སྤྱོད་	-8343
བྱེད་ཆོག་པ་དང་།	-8344
ཐོབ་པ་བྱེད་དགོས།	-8345
རྒྱུན་འཁྱོངས།	-8346
དཔེར་ན།རིག་ནུས་	-8347
ཞིའུ་	-8348
བྷ	-8349
ཐག་གཅོད་ལག་རྩལ་	-8350
ལ་རྒྱབ་སྐྱོར་དང་	-8351
ཟིན་ནས་	-8352
ལས་ཁུངས།	-8353
ཐུང་ངུའི་ནང་དུ་	-8354
ཟངས་	-8355
དྲིལ་བསགས་	-8356
ཀྱིས་ཁྱེད་ལ་	-8357
ལམ	-8358
དུས་མཚམས་	-8359
ཁྱོད་ལ་བསམ་འཆར་	-8360
Net	-8361
སོགས་ལ་དབྱེ་ཞིབ་	-8362
གྲུབ་ཆའི་	-8363
སློབ་གནས་	-8364
འཕྲིན་ཐུང་	-8365
ant	-8366
▁ཐོག་མའི་	-8367
དངུལ་ཁང་གིས་	-8368
ནུབ་བྱང་	-8369
འཕྲད་ཡོད།	-8370
དེ་ན་	-8371
དབྱིན་ཇི་	-8372
ཧྭགས་	-8373
ཡིག་ཆར་	-8374
ཀྱང་བྱ་དགོས།	-8375
ཆེ་བའི་ལས་འགན་	-8376
ཞི་ཡའི་	-8377
indows	-8378
དང་མི་ཆོས་ཀྱི་	-8379
ཡིད་མི་ཚ	-8380
དེའི་ཁྲོད་དུ་	-8381
བྱས་ཡོད་པས།	-8382
དང་རིག་གནས་ཀྱི་	-8383
གྲུབ་ཆ་གལ་ཆེན་	-8384
བ་སོགས་ལྟ་བུ།	-8385
ལག་ཆ་སྤྱད་ནས་	-8386
གསར་འགོད་པར་	-8387
ཅོར་	-8388
ཁོར་ཡུག	-8389
▁བརྒྱད།	-8390
ཕྱི་རྒྱལ་དུ་	-8391
▁མཇུག་ཏུ་	-8392
རྒོལ་གཏམ་	-8393
དཔྱད་གཏམ་དང་	-8394
དགེ་སྒྲུབ་	-8395
ཁ་གྲམ་	-8396
དཀར་ཟས་	-8397
ནང་ཞུགས་པ།	-8398
དེ་འཚམ་	-8399
དེ་བས་སྟབས་བདེ་	-8400
ཐོ	-8401
gr	-8402
རང་བཞིན་བཅས་	-8403
སོགས་ཀྱི་ནུས་པ་	-8404
བྱེད་དུས།	-8405
འདོན་ཐུབ།	-8406
སྤུན་	-8407
རང་ལ་འཚམ་པའི་	-8408
ཨུད་ཀྱི་	-8409
ལས་དོན་སྤེལ་	-8410
ས་ཆར་	-8411
ཟ་མའི་	-8412
the	-8413
རྩ་བ་	-8414
མཚོན་པ་དང་།	-8415
འཆམ་འ	-8416
བའང་	-8417
ལས་རིགས་སུ་	-8418
འཁྲབ་སྟོན་པ་	-8419
PyTorch	-8420
གང་ཡིན་རུང་།	-8421
ཕན་བདེའི་	-8422
ཨ་རིར་	-8423
གང་སར་	-8424
རླངས་གཟུགས་	-8425
བཙུགས་ཏེ།	-8426
པ་ནས་བཟུང་	-8427
དུས་ཚོད་ལ་དོ་དམ་	-8428
དངོས་རྫས་ཀྱི་	-8429
མིན་པའི་གནས་ཚུལ་	-8430
རྐུབ་	-8431
དྲ་ཚིགས་དང་	-8432
ཐེབས་ཀྱི་	-8433
སྒོ་ང་	-8434
དཔེ་དབྱིབས།	-8435
ལོ་ཆུང་	-8436
སྤྱི་ཚོགས།	-8437
རེའུ་མིག་ཅིག་	-8438
སྤྱད་པ་བརྒྱུད་	-8439
མེད་ཀྱང་	-8440
ཅན་དུ་འགྱུར་བའི་	-8441
བསྒྲུབ་རྒྱུར་	-8442
བསྐྱོད་དེ་	-8443
▁ངས་ཇི་ལྟར་	-8444
སེམས་ཁམས་བདེ་ཐང་	-8445
དགོད་བྲོ་བའི་	-8446
ཟིན་ཐོར་བཀོད་	-8447
བྱེད་ཀྱི་ཡོད་པས་	-8448
ལྷོད་གཡེང་གི་	-8449
ངས་ད་དུང་	-8450
ཚོགས་འདུ་དང་	-8451
ཁ་ཕྱེ་	-8452
ས་ཁོངས་ཀྱི་	-8453
ཨར་ལས་	-8454
རྫོང་ནས་	-8455
བཀོད་གཏོང་	-8456
འཁྲབ་ན་བསམ།	-8457
▁སློབ་སྦྱོང་	-8458
སྤྱོད་པ་དང་།	-8459
དང་བརྩི་འཇོག་	-8460
ཐག་གཅོད་བྱས་ཏེ།	-8461
IF	-8462
མཐུན་ཚོགས་	-8463
ཧོ	-8464
བརྩམས་པའི་	-8465
ཁ་སྣོན་བྱས་ནས་	-8466
ཤར་ལྷོའི་	-8467
གང་ནུས་ཀྱིས་	-8468
སྔར་ལས་ལེགས་པའི་	-8469
ལྡབ་	-8470
ལིའང་	-8471
སོགས་རྒྱུ་རྐྱེན་	-8472
གཟེངས་སུ་	-8473
གང་ལ་དེ་འཚམ་	-8474
གཏོད།	-8475
རྩྭ་ཐང་	-8476
བཀོལ་མཁན་ལ་	-8477
ཆུང་ངུ་	-8478
རྨང་གཞིའི་ཐོག་	-8479
ལམ་བུའི་	-8480
ark	-8481
འབར་རྫས་	-8482
བྱས་པ་ལས་	-8483
འདི་རིགས་	-8484
བཟོ་གྲྭའི་	-8485
nt	-8486
བོད་སྐད་	-8487
དྭངས་གཙང་	-8488
ཉིན་གྱི་དགོང་	-8489
name	-8490
བཞི་པའི་	-8491
ml	-8492
བྱ་ཤ་	-8493
ལུས་པའི་	-8494
འདྲེས་སྦྱོར་	-8495
བའི་མཐོང་ཆུང་གི་	-8496
iP	-8497
འདས།	-8498
མངའ་ཁོངས་	-8499
འཕེལ་ཕྱོགས།	-8500
གོ་གནས་འཕར་བའི་	-8501
མ་ཐུབ་ན།	-8502
པར་འདེབས་	-8503
དུར་	-8504
ikit	-8505
འཚམ་མིན་	-8506
ཉེན་ཡོད།	-8507
བཙུགས་ཡོད།	-8508
ཅོག་	-8509
ལ་སྤྲོ་བ་	-8510
ཚོད་སྐོར་བྱས་ནས་	-8511
འདར་	-8512
སྣ་མང་རང་བཞིན་ལ་	-8513
བརྒྱུད་རིམ་ཁྲོད།	-8514
ཁོངས་སུ་གཏོགས།	-8515
འཐུས།	-8516
བྱ་ཐབས་བརྒྱུད་	-8517
མཉམ་ལས་བྱས་ནས་	-8518
བྱེད་པ།དཔེར་ན།	-8519
arg	-8520
འབྱེད།	-8521
ཀྱི་མ་གནས་	-8522
ཁུར་པོ་ཡང་	-8523
oook	-8524
སྤོ་ལོའི་རུ་ཁག་	-8525
ཁྲིའི་	-8526
འགྲོ་ལམ་	-8527
རྒྱུ་སྤུས་	-8528
▁ལོ་རྒྱུས་	-8529
ཀླུང་	-8530
རྒྱུ་སྐར་	-8531
འགྲུབ་ཐུབ།	-8532
སྨྲ་	-8533
གསར་འབྱེད་	-8534
རང་འགུལ་ཅན།	-8535
ཁོང་དུ་ཆུད་པར་	-8536
བྱས་ཏེ་ལས་འགན་	-8537
ཚོར་འདྲེན་ཡོ་	-8538
གྲོགས་པོ།	-8539
གལ་ཆེ་	-8540
olor	-8541
དང་ཆ་འཕྲིན་	-8542
ལྷའི་	-8543
འཕྲུལ་མིར་	-8544
དུ་བཅུག་ནས་	-8545
ཚད་མཐོར་འདེགས་	-8546
སྐབས་བསྟུན་གྱི་	-8547
རིམ་ལོག་	-8548
ུ་རུའི་	-8549
ཕྱོགས་འགའ་	-8550
ལ་བལྟས་ནས་	-8551
སོས་	-8552
དེའི་ཐོག་ནས་	-8553
CRM	-8554
སྤོབས་	-8555
ནང་ཞུགས་ནས་	-8556
ནད་ཡ	-8557
གཞོང་	-8558
འཕྲོའི་	-8559
ཧ་ཅང་བཟང་།	-8560
ནད་པས་	-8561
ome	-8562
ཤེས་པ་	-8563
སྒྲ་སྒམ་	-8564
ཁྲལ་གྱི་	-8565
བསྟན་པའི་	-8566
སྔོན་ལ་རིམ་པ་	-8567
མྱོང་བ་	-8568
ཀྱིས	-8569
ོམས།	-8570
བྱིན་	-8571
མིང་ལ	-8572
▁དེའི་ནང་	-8573
མི་དམངས་འཐུས་	-8574
▁དེའི་རྗེས་སུ།	-8575
ལུས་རྩལ་གྱི་	-8576
བྱ་འགུལ་གྱི་	-8577
ཐག་བཅད།	-8578
ཆེས་མཐོ་བའི་	-8579
གཏམ།	-8580
▁ཤིན་ཧྭ་	-8581
བསིལ་	-8582
རོགས་བྱས་ཆོག	-8583
ཉན་ནུས་	-8584
གཞི་གྲངས་དང་།	-8585
དུ་གཏོང་བ།	-8586
དངོས་འབྲེལ་	-8587
ator	-8588
མཐོ་རུ་འགྲོ་	-8589
དཔོད་	-8590
བྱེད་བཞིན་པའི་	-8591
ལུའི་	-8592
ངོས་ནས་བཤད་ན།	-8593
འབབ་སྤྱན་	-8594
བཙུགས་པ་དང་	-8595
ཁྲིད་ནས་	-8596
ར་བའི་	-8597
For	-8598
ལ་ལ་	-8599
རྗེས་འདེད་དང་	-8600
སྔར་ལས་ཕན་ནུས་	-8601
བྱེ་བྲག་	-8602
གདུང་	-8603
ཟིན་པ་དེ་	-8604
མེད་པ་བཟོ་	-8605
ཟིན་ཡོད་པ་རེད།	-8606
རང་བྱུང་ཁམས་ཀྱི་	-8607
ཆེ་ཆུང་།	-8608
སི་ཐན་གྱི་	-8609
ཆེ་དྲགས་	-8610
དེ་བས་གཏིང་ཟབ་	-8611
པུའུ་ཡིས་	-8612
སོགས་ཀྱི་ཐབས་ལམ་	-8613
ཞིས་	-8614
བཏང་ཚེ་	-8615
སྒྲུབ་པའི་	-8616
འགྲོགས་	-8617
བེད་མེད་	-8618
སྡོད་གནས་	-8619
ཁང་དང་།	-8620
འཆད་ཁྲིད་	-8621
དངུལ་སྤྲོད་	-8622
མཇུག་འབྲས་ཀྱི་	-8623
གོ་རིམ་ཁྲོད་	-8624
གྲུབ་འབྲས་ལ་	-8625
ས་གནས་ས་ཐོག་ཏུ་	-8626
པ་དེ་ནི་	-8627
དྲ་བ།	-8628
འཕྱུགས་	-8629
ཡོང་ཆེད་	-8630
རླངས་འཁོར་འཇོག་	-8631
ཅེས་པའི་	-8632
སོགས་ཀྱི་རྣམ་པ་	-8633
རིང་པོ་	-8634
ཤེས་ཀྱི་ཡོད།	-8635
མཐུན་ཚོགས་ཀྱི་	-8636
ཁ་ལོ་བསྒྱུར་	-8637
གཙོ་སྐྱོང་	-8638
ལགས་ཀྱིས་	-8639
བ་བཅས་ཀྱི་	-8640
ལམ་ཚད་	-8641
ུན	-8642
ལ་གཞིགས་ན།	-8643
འདི་ནས་	-8644
ནུས་ཤུགས་དང་	-8645
སྐར་མའི་གོ་ལ་	-8646
ལ་རྒྱུན་པར་	-8647
ib	-8648
སྒྲིག་བཟོའི་	-8649
དགོངས་པ་མ་	-8650
དམིགས་འབེན་གྱི་	-8651
ལྟད་མོ་བའི་	-8652
དྲ་རྒྱ	-8653
གང་ཡིན་རུང་	-8654
སྔོན་དཔག་བྱས་ན་	-8655
འདིའི་རིགས་ནི་	-8656
དཔྱད་ཞིབ་	-8657
མྱུལ་དཔྱད་	-8658
མཁོ་མཁན་ཞབས་ཞུ་	-8659
PN	-8660
ཚོགས་ཆུང་གི་	-8661
cue	-8662
དུས་སྐབས་སུ་	-8663
སོ་སོས་	-8664
འབྱུང་རྩ་	-8665
དེ་ལས་ལྷག་པའི་	-8666
དང་མི་མཐུན་པ་དང་	-8667
གདམ་གསེས་དང་	-8668
ཉི་ནུས་གློག་རྫས་	-8669
▁གྲོང་ཁྱེར་	-8670
འབྲེལ་མཐུད་ཀྱི་	-8671
སྤྱོད་ཆོག་པ་དང་།	-8672
ངེས་སྲོལ་	-8673
ཉེན་ཁ་དོ་དམ་གྱི་	-8674
རིམ་པར་	-8675
དེ་བས་མཛེས་སྡུག་	-8676
ཁྲལ་དོན་	-8677
རིག་གནས་ལ་	-8678
པའི་ཆ་འཕྲིན་	-8679
གཤིས་ཀ་	-8680
ལ་གཞིགས་ཏེ་	-8681
གྲས་སུ་	-8682
▁ཁྱེད་ཀྱི་	-8683
cueTime	-8684
ཆིངས་	-8685
ཚོར་བ་སྐྱེན་པའི་	-8686
མཆུ་	-8687
འཆམ་འཆམ་	-8688
ng	-8689
ལོ་མ་	-8690
སྲིད་པ་དང་།	-8691
བཞིན་ཡོད་པས།	-8692
ཉུང་མཐར་ཡང་	-8693
མངོན་ཚུལ་དང་	-8694
ཐུག་འཕྲད་	-8695
ཅེས་གསུངས་པ་རེད།	-8696
ལྷོ་ནུབ་	-8697
བྱས་པ་དང་འབྲེལ་	-8698
▁མིག་སྔའི་	-8699
མཚན་སྙན་དང་	-8700
དམིགས་ས་	-8701
སྐབས།ང་ཚོས་	-8702
ཨུ་ལྷན་གྱི་	-8703
བརྒྱབ་ན་	-8704
ཇའི་	-8705
ལྷོད་གསོག་	-8706
▁ཀྲུང་དབྱང་	-8707
བྱིའུ་	-8708
ནུས་རྩལ་དང་	-8709
ube	-8710
ཁྲག་ཤེད་	-8711
ནད་རིགས་ཀྱི་	-8712
ཆུང་།	-8713
ཨ་སྒོར་དུང་ཕྱུར་	-8714
ཚད་ཀྱང་	-8715
འགལ་བ་དང་	-8716
གྲབས་ཉར་དང་	-8717
དོ་སྣང་བྱེད་ས་	-8718
ཆོག་པའམ་ཡང་ན་	-8719
སྤེལ་རེས་ཀྱི་	-8720
འགོ་རྩོམ་	-8721
སྤྱི་གཉེར་	-8722
མི་འདྲ་བ་ཡོད།	-8723
ེལ	-8724
འབྱུང་བ་	-8725
ལ་ཞིབ་བཤེར་དང་	-8726
མཐུག་	-8727
གཏན་འཁེལ་དང་	-8728
སླ་པོ་ཡོད།	-8729
དང་།ཁྱེད་རང་ལ་	-8730
གཞིགས་ནས།	-8731
ལན།	-8732
ཡཱ་	-8733
ལྡོག	-8734
ne	-8735
orus	-8736
▁a	-8737
མི་ལ་ལས་	-8738
གནད་དོན་གང་རུང་	-8739
ལས་འགན་ལ་དོ་དམ་	-8740
▁ད་ཐེངས་ཀྱི་	-8741
བྱུང་བ།	-8742
ལུ་	-8743
སིར་	-8744
ས་གཤིས་	-8745
ཤུགས་སྣོན་རྒྱག་	-8746
བསལ་	-8747
མཉམ་སྤྱོད་དང་	-8748
ཀ་པ་	-8749
འདོར་	-8750
བྱེད་ཐུབ།དེས་	-8751
ཁྱད་ལྡན་	-8752
སླ་བ་རེད།	-8753
ith	-8754
གླ་ཕོགས་ཀྱི་	-8755
ཐེབས་རྒྱུ་རེད།	-8756
མིན་པ།	-8757
དུང་ཕྱུར	-8758
འཐུས་ཚབ་	-8759
བྱེད་དུ་བཅུག་ནས་	-8760
ཚོད་ལྟ་བྱས་ཆོག	-8761
▁h	-8762
འཕྱུར་	-8763
མི་སྒེར་དང་	-8764
འཁྱིལ་	-8765
རྒྱ་ཁྱོན་ལ་	-8766
འཆར་གཞི་འགོད་	-8767
ཏུ་འཇུག་དགོས།	-8768
བུ་ཕྲུག་	-8769
རྙེད་པར་	-8770
སོར་འཇོག་	-8771
སྟེར།	-8772
རྗེས་ཤུལ་	-8773
འཛུམ་	-8774
འདི་ལྟར་བྱས་ན།	-8775
གང་ལ་དེ་འཚམ་གྱི་	-8776
ཞིབ་འཇུག་མི་སྣས་	-8777
འཚང་	-8778
ROC	-8779
དབོར་	-8780
འཁྲུག་ཆ་དོད་	-8781
མཐུན་སྦྱོར་གྱི་	-8782
གསར་གཏོད།	-8783
སྤྱད་འཐུས།	-8784
མེ་ཏོག་ལྡུམ་	-8785
སྤྲོ་སྣང་གི་	-8786
atbot	-8787
ཐོན་ཐུབ།	-8788
བཀླགས་	-8789
དཔྱ་	-8790
འཚོག་	-8791
དབང་ཆ་སྤྲད་པའི་	-8792
རྟེན་གཞི་	-8793
ཞིག་འཛུགས་	-8794
བོང་	-8795
pen	-8796
བློ་སྟོབས་དང་	-8797
གསར་རྐྱང་	-8798
ཞིག་ལ།	-8799
བསམ་དོན་	-8800
དངོས་སྤྱོད་	-8801
པ།དཔེར་ན།	-8802
དངོས་སྦྱོང་	-8803
བརྩམས་ཆོས་ཀྱི་	-8804
གཏམ་བརྗོད་	-8805
ཚད་འབེབས་	-8806
བྱེད་དཀའ།	-8807
འགན་འཁྲི།	-8808
▁རྣམ་གྲངས་	-8809
ལྷོ་ཕྱོགས་ཀྱི་	-8810
lex	-8811
རང་རེའི་	-8812
all	-8813
དབང་པོ་སྐྱོན་ཅན་	-8814
རིམ་རྩིས་བྱས་ན་	-8815
བཙིར་	-8816
ཡིའུ་ཐའེ་	-8817
གྱི་གནས་ཚུལ་	-8818
དེ་ཡང་	-8819
ཆང་གིས་	-8820
སོགས་ནི་	-8821
སྤྲིན་གསོག་	-8822
མི་གཞན་གྱིས་	-8823
ལྷག་བསམ་གྱི་	-8824
ss	-8825
ཕུད།ད་དུང་	-8826
སྒྲིག་ཆས་ཀྱིས་	-8827
གྱི་རེད།	-8828
༣༠	-8829
དྲང་གཞག་དང་།	-8830
སྐྱོད་པའི་	-8831
པ་ཞིག་ཡིན་ཞིང་།	-8832
གློག་གསོག་	-8833
གདོད་མའི་	-8834
ལས་རིགས་ཀྱིས་	-8835
འཕྲད་སྐབས་	-8836
རྗེས་མར་	-8837
ཉིང་རྡུལ་	-8838
དངོས་རིགས་	-8839
འཛུགས་པ་དང་	-8840
ཕུར་	-8841
གཙང་འཁྲུད།	-8842
རྒྱབ་ལྗོངས།	-8843
འཇུར་	-8844
ཞི་འཇམ་	-8845
ཁག་ལ་	-8846
དེའི་ཕྱིར།	-8847
བྱས་ཚར་	-8848
ཁྱོན་ཡོངས་	-8849
གང་ཞིག་ཡིན་རུང་	-8850
ཁྱེད་དང་	-8851
རྣམ་པ་ནི་	-8852
མཇུག་སྒྲིལ་	-8853
བྱེད་ཀྱི་མེད།	-8854
སྒྲིམ་དགོས།	-8855
ང་ལ་ཤོད།	-8856
དཔོན་རིགས་	-8857
འཕེལ་རྒྱས་ཁྲོད་	-8858
གྲོས་འཆམ་	-8859
ཞི་བདེའི་	-8860
ཐབས	-8861
གྲོས་རིམ་	-8862
གང་གི་	-8863
བར་ཡིན།	-8864
ལས་མིར་	-8865
བར་ཆད་དང་	-8866
ཆོགདཔེར་ན་	-8867
གཅིག་ལྕ	-8868
བརྩི་འཇོག	-8869
བསྐྱར་སྦྱོང་	-8870
དེ་བས་རྙོག་འཛིང་	-8871
འགྱུར་ལྡོག་ལ་	-8872
དོ་དམ་གྱི་ལག་ཆ་	-8873
ཇེ་དམའ་རུ་	-8874
སོགས་ལ་བརྟེན་ནས་	-8875
སྣོན་འཇུག་	-8876
ལ་བགོས་	-8877
ཁུངས་འབྱེད་	-8878
རིགས	-8879
ས་ཁྲ་	-8880
འགའི་ཐད་ནས་	-8881
ཕན་ཚུན་བརྗེ་རེས་	-8882
སིང་	-8883
ཁ་ཕྱོགས་དང་	-8884
ཀུང་ཟ	-8885
སྡེ་ཚན་གྱིས་	-8886
གྲོས་འགོ་དང་	-8887
eras	-8888
ཉེན་ཁ་དོ་དམ་	-8889
ལ་སྦྱོང་བརྡར་	-8890
བྱེད་ཐུབ།གཞན་ཡང་	-8891
ཡོད་ན།ཁྱེད་ཀྱིས་	-8892
ལེགས་བཅོས་ཀྱི་	-8893
གསར་གཏོད་ནུས་པ་	-8894
སྔོན་རྩིས།	-8895
ལས་བརྒལ།	-8896
བརྙན་པར་	-8897
རྩེད་མོ་མཁན་ལ་	-8898
Slack	-8899
གསེས།	-8900
ཕྱིན།	-8901
ལ་ལར་	-8902
མེ་ཤུགས་	-8903
མདུན་སྣེའི་	-8904
གསོན་ཉམས་ལྡན་	-8905
རྩེད་མོ་མཁན་གྱི་	-8906
བཅོས་སྒྱུར་	-8907
Data	-8908
རྒྱུའི་ཚོད་ལྟ་	-8909
གསར་བར་	-8910
གནས་པ་	-8911
དེ་བས།	-8912
གོ་རིམ།	-8913
སུ་ཞིག་གིས་	-8914
བྱེད་འདོད་ན།	-8915
ང་ཚོའི་འཚོ་བ་	-8916
ལེན་པ།	-8917
ཧྲོའུ་	-8918
བསམ་ངན་	-8919
དང་པོ།ཁྱེད་ཀྱིས་	-8920
ཀྲུང་ལུགས་	-8921
བྱེད་དུ་བཅུག	-8922
རྨི་ལམ་	-8923
གྲོས་འགོ་ཡིན།	-8924
ཡིག་ཁུག་	-8925
རིན་གོང་།	-8926
མི་མཐུན་	-8927
རེའུ་མིག་དང་།	-8928
དུས་ཚོད་ནང་དུ་	-8929
ཐེམ་	-8930
ཤེས་ཡོན་	-8931
..	-8932
ཏང་ཡོན་	-8933
བྱེད་ཚད།	-8934
ལ་བཅངས་པའི་	-8935
གསོ་སྦྱོང་གི་	-8936
བ་ཞིག་ཡིན་	-8937
ཁ་བྱང་།	-8938
གཞན་པ་དང་	-8939
ཐོན་སྲིད་པའི་	-8940
བཞག་ན་	-8941
གང་ལྟར་	-8942
ཚད་དེ་	-8943
ཨར་སྐྲུན་	-8944
ཡོ་བྱད་ཀྱི་	-8945
སྲུང་སྐྱོབ་དང་	-8946
སྐྱེད་ཀའི་	-8947
ཁྱད་དུ་འཕགས་པའི་	-8948
ལས་འཛིན་	-8949
ནང་བེད་སྤྱོད་	-8950
▁ཆ་འཕྲིན་	-8951
པས་རེད།	-8952
འཁྱག་	-8953
ཡོང་སྲིད།	-8954
སྦྲུལ་	-8955
སྡེབ་སྦྱོར་	-8956
སྤྱི་ལོ་	-8957
▁《	-8958
ཟིན་ཐོ་དང་	-8959
RescueTime	-8960
དང་མི་སྒེར་	-8961
ཝེར་	-8962
▁འབྱུང་འགྱུར་	-8963
ངང་རྒྱུད་རིང་པོ་	-8964
ཞང་ཀང་	-8965
སྐུ་ཞབས་	-8966
ཞུན་	-8967
ལག་བསྟར་བྱེད་པར་	-8968
གཏོང་སྒོ་	-8969
བརྙན་རིས་ཀྱི་	-8970
རང་བཞིན་ཡང་	-8971
རང་དབང་དང་	-8972
འགག་སྒོ་	-8973
ཇེ་ལེགས་སུ་གཏོང་	-8974
སེམས་པ་	-8975
བྱ་འགུལ་སྤེལ་	-8976
ཧུར་ཐག་ཞུགས་	-8977
ཡིན་པ་ཁག་ཐེག་	-8978
གཉེན་ཉེ་	-8979
ཨན་ཧུའེ་	-8980
གཤིབ་	-8981
ཧོ་པེ་	-8982
དཀར་ཆག་	-8983
ལོ་ཤས་རིང་	-8984
ཀ་ར་	-8985
གསར་གློ་ཚད་	-8986
སློབ་ཆེན་དུ་	-8987
སྔོན་མངགས་	-8988
ge	-8989
རྔོན་	-8990
བ་ལ་	-8991
▁ཁོ་	-8992
མི་ནི་	-8993
སྙན་ཞུ།	-8994
སྨི་ངོས་གྲུ་	-8995
ཁྱོན་བསྡོམས་	-8996
ནད་ཡམས་	-8997
▁ངོ་སྤྲོད་	-8998
གྲུབ་ཚུལ།	-8999
▁ཡོང་ང་།ངས་	-9000
ཆུ་དང་	-9001
གཡོགས་	-9002
ཕྱོགས་མང་པོ་	-9003
འབྱུང་ཁུངས།	-9004
འབོད་སྐུལ་	-9005
སྡེབ་སྐྱེལ་	-9006
ཆོག་མོད།འོན་ཀྱང་	-9007
དེ་དག་ནང་	-9008
ཁྱད་པར།	-9009
ཤེས་མེད་པའི་	-9010
བྱ་དགོས་ཤིང་།	-9011
བཀལ་	-9012
ཞིབ་མོ་	-9013
ཀླད་པའི་	-9014
ཨོ་རྩལ་འགྲན་	-9015
Windows	-9016
ak	-9017
ཆེ་གེ་	-9018
དུས་ཚོད་ལ་	-9019
ཅུང་མཐོ་བའི་	-9020
སྦྱིན་བདག་གིས་	-9021
Num	-9022
བློ་བརྟན་	-9023
ཞིག་ཀྱང་རེད།	-9024
མདའི་	-9025
ཁང་པའི་ནང་གི་	-9026
གཙོ་གཉེར་	-9027
ཚགས་པར	-9028
བྱས་ཆོག་ལ།	-9029
ཡས་མས་	-9030
རེས་སྐོར་	-9031
རྗེས་ནས་	-9032
པ་སྟེ།དཔེར་ན།	-9033
ཤེས་པའི་	-9034
གལ་ཆེ་བ་ཞིག་རེད།	-9035
ཨ་ཧྥེ་རི་ཁ་	-9036
མཉེན་ཆས།	-9037
ཐག་གཅོད་བྱས་ནས་	-9038
དང་།སློབ་གསོ།	-9039
▁དེ་དང་	-9040
ཚད་སོགས་ཀྱི་	-9041
བཅས་དང་དེ་བཞིན་	-9042
ཚེ་ལས་	-9043
འཛེག་	-9044
དོན་རྐྱེན་གྱི་	-9045
ྲོག་	-9046
ལས་ཕྱོད་ཆེ་བའི་	-9047
རེ་བ་སྐོང་	-9048
སྒྲིག་གཅོད་	-9049
རྟགས་མ་	-9050
སྡོད་དམངས་	-9051
ལ་མཐོང་ཆུང་དང་	-9052
འདི་དག་གི་ནང་དུ་	-9053
ote	-9054
མང་ཆེ་བ་ནི་	-9055
བཀོད།	-9056
གློ་བའི་	-9057
སེམས་དཀར་བྱེད་	-9058
པེར་	-9059
བརྒྱུད་དེ།	-9060
དེ་བས་ཕན་འབྲས་	-9061
གདམ་གསེས།	-9062
བདག་གཉེར་	-9063
ལས་འགན་རྣམས་	-9064
སོགས་ཁྱབ་ཁོངས་	-9065
གདུབ་	-9066
ཞིག་ཡིན།དེ་ནི་	-9067
ུང	-9068
བཀོད་སྒྲིག	-9069
བསྟན།	-9070
ཙམ་ལ་	-9071
རླུང་འཚུབ་	-9072
ard	-9073
ལག་རྟགས་	-9074
གཤིས་རྒྱུད་	-9075
བོས་	-9076
▁གསུམ་	-9077
དུ་སླེབས་	-9078
▁མཇུག་མཐར།ང་ཚོས་	-9079
དོན་སྤྱི་དང་	-9080
ཁང་ནི་	-9081
རང་ལྗོངས་	-9082
འགྲུལ་པ་	-9083
རོ་མ་	-9084
བྱུང་བ་དང་	-9085
ལོ་ཐོ།	-9086
གཞི་གྲངས་ཀྱིས་	-9087
ཆེན་པོ་ལྡན་	-9088
ཉིན་གློག་འཕྲིན་	-9089
གཞི་འཛིན་ས་	-9090
བྱེ་ཐང་	-9091
ཚོད་འཛིན་མ་ལག་	-9092
ལས་བྱེད་	-9093
ཤས་གོང་	-9094
ཀེ་རི་	-9095
མཚན་མོར་	-9096
སྔ་ཙམ་	-9097
ལ་རྒྱར་	-9098
འགའ་འདོན་སྤྲོད་	-9099
འོས་ཤིང་འཚམ་པའི་	-9100
རྩིས་སྟངས་	-9101
ཐ་མག་	-9102
ལྟ་བུར་	-9103
དམིགས་ཡུལ།	-9104
དགུང་ལོ་	-9105
བསྡུར་ཚད་ལ་	-9106
Power	-9107
དམག་གྲུ་	-9108
བ་དེ་	-9109
འདིས་ང་ཚོར་	-9110
ནམ་རྒྱུན་	-9111
ཐོག་བརྩེགས་	-9112
བྱེད་སྟངས་ལ་	-9113
འཕྲད་ཀྱིས་	-9114
བྱ་སྤྱོད་ཅིག་	-9115
དབང་རྩའི་དྲ་བ།	-9116
པ་སྟེ།དཔེར་ན་	-9117
ཁོའོ་	-9118
གསུམ་ལ་	-9119
སྒྲུག་	-9120
མཚོན་གྱི་མེད།	-9121
འཁྲབ་པའི་	-9122
ནི་མི་	-9123
བྱ་ཐུབ།	-9124
རྒྱན་སྤྲས་	-9125
སློབ་གྲྭ་དང་	-9126
བཟོ་སྐབས་	-9127
གྱོད་དོན་	-9128
val	-9129
སོགས་ཀྱི་ནང་དོན་	-9130
དགོས་ལ།	-9131
སོགས་པའི་	-9132
རྒྱུ་མཚན་ནི་དེས་	-9133
ཡོང་བ་བྱས་ནས་	-9134
གསུམ་པ།	-9135
བྱེད་པ་བཅས་	-9136
དུས་ཚོད་རེའུ་མིག	-9137
ཡིད་མི་ཚིམ་	-9138
རྩུབ་	-9139
▁ཝུའུ་	-9140
▁དེ་ནས་	-9141
རང་སྐྱོང་ཁུལ་	-9142
ཙེང་	-9143
ཡང་དག་དང་	-9144
གསལ་བསྒྲགས་	-9145
▁དཔེར་བརྗོད་	-9146
དེ་བས་མཐོ་བའི་	-9147
སློབ་མ་རྣམས་ལ་	-9148
བླུགས་པའི་	-9149
ཡང་ཕན་པ་ཡོད།	-9150
ཆབ་སྲིད་མི་སྣ་	-9151
དུ་གཏོང་བའི་	-9152
དམའ་འབེབས་	-9153
བྱ་ཡུལ་གྱི་	-9154
མངག་ཐོ་	-9155
སེམས་ནང་གི་	-9156
ཏག་	-9157
བརྒལ་བའི་	-9158
མདོག་གི་	-9159
▁ཐབས་ལམ་	-9160
Press	-9161
བྱ་དགའ་ཐོབ་	-9162
འདྲ་མཉམ་མིན་པ་	-9163
བྱེད་པའི་ཐབས་	-9164
གསར་སྤེལ་བྱས་ནས་	-9165
བློ་བརྟན་འགྱུར་	-9166
ཆེ་བར་	-9167
བྱེད་མཚམས་འཇོག་	-9168
▁of	-9169
འཕྲལ་སྡོམ་	-9170
བརྡ་ཁྱབ་དང་	-9171
ཆུ་ལོག་	-9172
ལས་མེད།	-9173
ཆར་པ་	-9174
ཁྲའོ་ཞན་	-9175
འདྲ་བར་	-9176
མངའ་རིས་	-9177
བརྗོད་གཞི་དང་	-9178
གང་ནས་	-9179
རྒྱང་ཁྲིད་	-9180
འོ་ན་	-9181
རྡོ་སྣུམ་	-9182
▁མཉམ་འཇོག་བྱོས།	-9183
འཇུར་མིག་	-9184
གཏིང་ཟ	-9185
གཙོ་བོ།	-9186
སྔོན་རྩིས་ཀྱི་	-9187
གསར་བརྗེའི་	-9188
ངན་སེམས་	-9189
▁ཉེར་སྤྱོད་	-9190
རྒྱལ་ཁབ་གཉིས་	-9191
གཏན་འཇགས་ཀྱི་	-9192
ium	-9193
སེམས་ཁམས་དང་	-9194
ase	-9195
ཕ་མ་	-9196
དཀྱུས་	-9197
བྱ་རྒྱུར་སྐུལ་མ་	-9198
ལ་སི་	-9199
སྤྱོད་ཚད་	-9200
སྲུང་སྐར་	-9201
གསར་འགོད་པ་	-9202
ཚོད་འཛིན་དང་།	-9203
▁འོ་ན།	-9204
གལ་ཆེན་པོ་	-9205
བྱེད་ཆེད།ང་ཚོས་	-9206
པེ་ཡེ་སིའི་	-9207
ast	-9208
ཧ་ཅང་དགའ།	-9209
གཏོང་སྲིད།	-9210
བཙུགས་པ་རེད།	-9211
རྣོན་	-9212
གྲོངས་	-9213
ཕོག་ནས་	-9214
དྲིན་ལན་འཇལ་	-9215
བཅར་འདྲི་དང་ལེན་	-9216
ངས་བལྟས་ན་	-9217
ནི་རྙོག་འཛིང་	-9218
ps	-9219
དོ་མི་	-9220
བསམ་བློ་ཟབ་མོ་	-9221
work	-9222
བྱ་དགོས་མིན་	-9223
ལས་འགན་གསལ་ཐོ་	-9224
བཀྲམ་	-9225
སྐེ་	-9226
ཅི་ཞིག་ནི་	-9227
སྐྱེལ་འདྲེན་གྱི་	-9228
གོང་མཐོར་	-9229
རྒྱལ་སྲས་	-9230
བེད་སྤྱད་དེ།	-9231
ཐའེ་ཝན་	-9232
སོགས་ཀྱི་ཐད་ནས་	-9233
བཀྲུས་	-9234
ཁྱིམ་ནས་	-9235
ཚོ	-9236
ody	-9237
གྲོག་རོང་	-9238
བཟང་མོས་བསྒྱུར།	-9239
ཟིན་པ་དང་	-9240
སྣང་བརྙན་	-9241
ལུས་ཕུང་གི་	-9242
ཞིབ་ཅིང་ཕྲ་བའི་	-9243
མཐོན་པོ་	-9244
བཀོད་སྒྲིག་དང་།	-9245
rap	-9246
གསུམ།	-9247
དེང་རབས་ཅན་གྱི་	-9248
འགའ་ལ་	-9249
ཆུ་ཚད་ཇེ་མཐོར་	-9250
འགྲན་བསྡུར་ཁྲོད་	-9251
བགོས།	-9252
ཕ་རོལ་བའི་	-9253
འགོ་ཁྲིད་པས་	-9254
ཇུས་གཞིའི་	-9255
མི་བྱེད་པ།	-9256
འཆར་གཞི་བཟོས་ནས་	-9257
ུའེ།	-9258
▁ཚེ་	-9259
ཕྱོགས་གང་ཅིའི་	-9260
སླ་བ་དང་	-9261
oro	-9262
བསྐྱར་ཟློས་ཀྱི་	-9263
ཡོ་རོབ་ཀྱི་	-9264
དུ་བཏང་	-9265
ལ་ངོས་འཛིན་	-9266
སྐྱེས་པར་	-9267
བསྒྲིམས་ནས་	-9268
ཡང་དག་གི་	-9269
ྨན་	-9270
རྒྱུར་ཕན་ཐོགས་	-9271
ཤེས་རྟོགས་ཐུབ་པ་	-9272
འགོ་འཛིན་	-9273
བཀྲུ་	-9274
ཕྱི་རོལ་ཡུལ་	-9275
རླངས་འཁོར་ལ་	-9276
ong	-9277
རོགས་རམ་དང་	-9278
ཁ་ཆད་	-9279
སྔོན་དཔགས།	-9280
དབྱེ་ཞིབ་བྱེད་པ།	-9281
RI	-9282
ail	-9283
ཀློག་པ་པོས་	-9284
ལས་རོགས་པས་	-9285
ང་ཚོའི་འཚོ་བར་	-9286
འདིར།	-9287
དངུལ།	-9288
ཀྲང་གི་	-9289
ཁྱིམ་བདག་	-9290
OT	-9291
བློ་མཐུན་	-9292
ཀོང་ཀྲོའུ་	-9293
བཅས་ལ་གཞིགས་ནས་	-9294
བྱེད་མཁན་དང་	-9295
ཆུང་དུས་	-9296
དཔང་ཡིག་	-9297
དྲག་རྩལ་	-9298
ས་ཁང་བདག་ཁོངས་	-9299
ཁྱད་ཆོས་དང་།	-9300
ཅུང་དམའ་	-9301
འབྲི་ཆུའི་	-9302
དཀར་པོའི་	-9303
དང་ལས་འགན་	-9304
བཟང་པོ་ཞིག་	-9305
བྱ་དགོས།ང་ཚོས་	-9306
omod	-9307
བྱེད་པ་སོགས་ཡིན།	-9308
དཔའ་བོའི་	-9309
ཆ་སྙོམས་ཀྱི་	-9310
བསྐྱར་སྒྲིག་	-9311
ཞིག་ཡིན་སྲིད།	-9312
མནའ་འབྲེལ་གྱི་	-9313
འབར་གས་	-9314
བྱ་འགུལ་ལ་ཞུགས་	-9315
AB	-9316
ལྷེབ་	-9317
ཚོང་ར་དང་	-9318
ཞོར་སྐྱོན་	-9319
སྤྲོ་བ་འཕེལ་	-9320
བེད་སྤྱོད་དང་།	-9321
རིག་སྟོབས།	-9322
ལྕགས་རིགས་	-9323
ཧྥ་རན་སེའི་	-9324
བཤད་ན་ཆོག་གམ།	-9325
དྲ་མིག་	-9326
དུས་ཐོག་གི་	-9327
འགན་ལེན་བྱས་ནས་	-9328
དུས་མཉམ་དུ་	-9329
ཚོར་འདྲེན་ཡོ་ཆས་	-9330
མཉམ་སྤྱོད་ཀྱི་	-9331
མ་ཟླ	-9332
དང་ཁ་བྲལ་	-9333
འཁེལ།	-9334
གསེག་	-9335
དྲངས་ནས་	-9336
གུག་	-9337
རང་གཤིས་ཅན་དང་	-9338
ཆིའི་	-9339
དམག་འཁྲུག་གི་	-9340
ཡིག་ཚགས།	-9341
དང་ཐབས་ཇུས་	-9342
བར་སྔོན་འགོག་	-9343
And	-9344
དུས་ཚོད་མང་པོ་	-9345
ཞུར་	-9346
ལྷ་སྒྲུང་	-9347
བསམ་གཞིགས།	-9348
ཨུ་ཡོན་ལྷན་ཁང་	-9349
ཨ་ཕ	-9350
ཁྲེང་ཏུའུ་	-9351
མཐོ་རུ་གཏོང་བར་	-9352
བདམས་ཏེ་	-9353
ཚེ་ལས་འདས།	-9354
▁ཕྱི་	-9355
App	-9356
GD	-9357
ད་བར་	-9358
དམའ་རུ་གཏོང་བ།	-9359
གཞན་ཞིག་ཏུ་	-9360
ནུས་པ་ཇེ་མཐོར་	-9361
གླུ་ཚིག་	-9362
འཆར་འགོད།	-9363
ཚོང་ཁང་གི་	-9364
ཇི་ཙམ་	-9365
བཅོ་ལྔ་	-9366
ངེས་གཏན་	-9367
བཙོངས་རྗེས་ཀྱི་	-9368
བྱས་ཡོད་པས་	-9369
འགོག་རྒོལ་	-9370
སྤྱོད་མཁན་དང་	-9371
ཡིས་སློབ་མའི་	-9372
བྱེད་པ་དཔེར་ན།	-9373
རིག་ནུས་ཅན་དང་	-9374
ནའེ་	-9375
ཤུད་	-9376
དམིགས་ཏེ་	-9377
ཅུང་ཆེ་བའི་	-9378
གོ་རིམ་ཞིག་	-9379
▁l	-9380
ཉན་པ།	-9381
བརྔོས་	-9382
འཕྲད་སྲིད་	-9383
▁རེ་བ་	-9384
ཡོད།འོན་ཀྱང་	-9385
uncton	-9386
དགོད་བྲོའི་	-9387
སྒྲིལ།	-9388
ཁྱིམ་མི་	-9389
ང་ཟིང་	-9390
རྡར་	-9391
པྲོག་	-9392
ཡིས།	-9393
འཕེལ་རྒྱས།	-9394
ཁེ་ལས་ཆུང་གྲས་	-9395
ཡིས་ང་ཚོར་	-9396
ལྷ་མོ་	-9397
བག་ཕེབས་	-9398
གྲགས་ཅན་གྱི་	-9399
ཆ་འཕྲིན་འདི་དག་	-9400
གཞོན་པ།	-9401
མདུན་གྱི་	-9402
འབྲེལ་བ་བྱོས།	-9403
དགོངས་པ་མ་ཚོམ།	-9404
ལེའང་	-9405
དང་ཉེན་ཁ་	-9406
ཚབ་ཨང་ཁྲོད་ཀྱི་	-9407
པ་ཞིག་ནི།	-9408
དུས་ཐུང་གི་	-9409
དེ་འདྲ་བྱས་ན་	-9410
འགུལ།	-9411
འབབ་སྤྱན་ཞུའི་	-9412
འགའ་འདུས་	-9413
ཁང	-9414
ཚན་རིག་ཞིབ་འཇུག་	-9415
བོན་	-9416
ཡོད་པའི་ཆ་འཕྲིན་	-9417
གསོ་སྦྱོང་།	-9418
▁ལ་	-9419
▁Chorus	-9420
ཀྲུང་དབྱང་གི་	-9421
oom	-9422
omodoro	-9423
ལས་རོགས་ཀྱིས་	-9424
རབ་རི	-9425
ཚོང་པས་	-9426
གཏོང་།	-9427
ཞབས་ཞུ་ལ་	-9428
Drp	-9429
ཚོགས་ལ་	-9430
ལས་ཚབ་	-9431
གཞི་རིམ་	-9432
Tableau	-9433
སྙམ།	-9434
གནད་དོན་འདི་དག་	-9435
ལོ་རེར་	-9436
དེ་ལས་མཐོ་བའི་	-9437
བཞི་པར་	-9438
གུས་སྲོལ་	-9439
ཇུས་བཀོད་	-9440
མི་འགྲོ་བ་	-9441
lic	-9442
མ་བྱས་གོང་དུ་	-9443
ཐབས་ཇུས་ཤིག་	-9444
སླ་བ།	-9445
སི་དང་	-9446
འདི་འདྲ་	-9447
མི་ཉུང་བ་	-9448
མ་གནས་དམའ་རུ་	-9449
གཉིས་མཐུད་	-9450
གསོག་འཇོག་དང་	-9451
གོང་འོག་གི་	-9452
རྒུད་	-9453
སྐབས།གཤམ་གྱི་	-9454
ལན་འདེབས་དགོས།	-9455
བཤད་ཆོག	-9456
གཙོའི་	-9457
▁res	-9458
མ་བྱེད།	-9459
ཚི་སྣའི་	-9460
གྱོན་གོས་	-9461
བསམ་བློར་	-9462
རི་མོ་ཞིག་	-9463
མ་རྩའི་	-9464
བྲང་	-9465
རིག་ནུས་མ་ལག་	-9466
སྐམ་སའི་	-9467
སྒྲོག་སྤེལ་	-9468
ངའི་རེ་བར་	-9469
▁༢གཞི་གྲངས་	-9470
དྲན་འཆར་	-9471
▁དབྱི་	-9472
ace	-9473
ནུས་པ་ལྡན་	-9474
དབང་བཅོལ་	-9475
ལ་རྡུང་རྡེག་	-9476
རྒྱུད་ཁོངས་ཀྱི་	-9477
ཚད་ལྡན་ཡིག་ཆ་	-9478
PR	-9479
བརྡ།	-9480
བརྙན་མིག་	-9481
ཏང་ཨུའི་	-9482
ཤིན་ཅང་	-9483
སྙེག་	-9484
add	-9485
བྱེད་ཐུབ་ལ་	-9486
རྐུབ་སྟེགས་	-9487
ཚོང་རའི་ཐོབ་སྐལ་	-9488
གནས་ས་	-9489
ཐོབ་པའི་ངང་	-9490
དང་འཕྲུལ་ཆས་	-9491
བཟོ་བ་	-9492
མ་ཡིན་	-9493
ཇུས་གཞི།	-9494
བྲལ་བའི་	-9495
རྩོམ་རིག་གི་	-9496
----	-9497
ལག་རྩལ་འདི་དག་	-9498
ཧོའེ་	-9499
རྡེབ་	-9500
ཞན་པའི་	-9501
ནས་ཐོན་པའི་	-9502
མེད།འོན་ཀྱང་	-9503
བདེ་འཇགས་ངང་	-9504
མཉམ་གནས་	-9505
འདབ་ཆགས་	-9506
མཁོ་སྤྲོད་ཀྱི་	-9507
མཐོ་བ།	-9508
ཆོག་འཐུས་	-9509
ཚན་རིག་པ་	-9510
བཅུ་དགུ་	-9511
ཨང་གྲངས་ནི་	-9512
ནི་ཧྥ་རན་སིའི་	-9513
ཡོང་འབབ་དང་	-9514
རྩིས་རྒྱག་གི་	-9515
ཡུན་ནན་	-9516
ཡོང་གི་རེད་	-9517
རོགས་རམ་དགོས་ན།	-9518
ཡིག་རིགས་	-9519
འདི་ལྟ་	-9520
ཐར་ཐོར་	-9521
གཏོང་དགོས་	-9522
དང་སྨན་བཅོས་ཀྱི་	-9523
གོ་སྐབས།	-9524
པ་ཞིག་གིས་	-9525
དངོས།	-9526
མི་ཐེངས་	-9527
དབུལ་པོའི་	-9528
ཆབ་སྲིད་དང་	-9529
རྟེན་འབྲེལ་ཞུ་	-9530
ཉེ་ཆར།	-9531
ཅིང་ལི་	-9532
སྒྲིག་གཞི།	-9533
བསྡུར་གྲངས་	-9534
ཁྱོད་རང་	-9535
དེ་སྔར་བས་	-9536
ལྟེ་གནས་སུ་	-9537
ཐན་ཆུའི་	-9538
བྱ་སྤྱོད་ཀྱིས་	-9539
འཚོལ་བསྡུ།	-9540
ཙོ་	-9541
འབྱར་	-9542
སྟེར་ཐུབ།	-9543
རྒྱུད་ཁོངས་ཀྱིས་	-9544
ཁག་གཅིག་གི་	-9545
བྱ་ཐབས་སྣ་ཚོགས་	-9546
དགུན་དུས་	-9547
རྩལ་ནུས་གསར་པ་	-9548
དབུ་བཞུགས་	-9549
དང་གློག་རྡུལ་	-9550
ཤུགས་ཆེ་རུ་གཏོང་	-9551
རྒྱན་ཆ་	-9552
དང་བསྡུར་ན།	-9553
འཇིག་རྟེན་གྱི་	-9554
གཞན་ཞིག་ནི་	-9555
བཙན་ཤེད་ཀྱིས་	-9556
ལན་འདེབས་པའི་	-9557
ཨའར་	-9558
ཁྱིམ་ཆས།	-9559
མི་འདྲ་བ།	-9560
ཆ་འགྲིག་	-9561
ཁྲུང་ཆིང་	-9562
རྒྱག་པ་དང་	-9563
དོ་དམ།མིས་བཟོས་	-9564
མོ་ཞི་	-9565
བྱེད་པ་ལྟ་བུ།	-9566
▁གནས་ཚུལ་	-9567
དང་ལེན་བྱེད་པའི་	-9568
ཆར་ཆུ་	-9569
ལས་འགན་རེ་རེར་	-9570
earning	-9571
དམིགས་འཛུགས་	-9572
རིམས་ནད་ཀྱི་	-9573
གསལ་བོར་	-9574
གསར་འགྱུར་ཁང་	-9575
ངོས།	-9576
ལངས་ནས་	-9577
རང་དབང་གི་	-9578
བྱེད་ཐུབ་ན།	-9579
བཏགས།	-9580
རོགས་བྱེད་དགོས།	-9581
ཁུ་བ་	-9582
གཅེན་གཅུང་	-9583
▁ངས་ཅི་ལྟར་	-9584
དྲིལ་བསྒྲགས་ཀྱི་	-9585
དགུའི་	-9586
ཆེས་ཆུང་བའི་	-9587
html	-9588
Codec	-9589
བདམས་ན་	-9590
པི་ཝང་	-9591
པའི་ནང་	-9592
ལམ་ཡང་ན་	-9593
ROI	-9594
གྲུབ་པ།	-9595
Tube	-9596
རང་ཉིད་དང་	-9597
གློག་བརྙན་དང་	-9598
ཡོད་པ་ནི་	-9599
ཁྲིམས་མཐུན་གྱི་	-9600
▁J	-9601
འགོག་ཐུབ།	-9602
ལེགས་གྲུབ་བྱུང་	-9603
ཡིས	-9604
ཟང་ཟིང་	-9605
གཏམ་རྒྱུད་ཅིག་	-9606
རྐང་འཁོར་བཞོན་	-9607
ཉའི་	-9608
སྐད་ཆ་བཤད་པའི་	-9609
དུག་ལྡན་	-9610
ED	-9611
པར་སྔོན་འགོག་	-9612
STM	-9613
CA	-9614
ལྡན་པ་བཅས་ཀྱི་	-9615
ཕྱེ་མ་	-9616
རིགས་གཉིས་	-9617
རིན་གོང་དང་	-9618
ཡག་པོ་ཞིག་རེད།	-9619
ཁྱིམ་རྒྱུད་	-9620
ལྷ་སའི་	-9621
རེའུ་མིག་ནང་དུ་	-9622
ཚུར་སྣང་	-9623
གདམས་གསེས་	-9624
བསམ་པ་དང་	-9625
▁const	-9626
སྲོག་ཆགས་དང་	-9627
ཙིར་	-9628
རྫིང་འགྱུར་	-9629
ཡུ་	-9630
ཕྱེ་ནས་མཐོང་ཆུང་	-9631
ཤེལ་གྱི་	-9632
རེ་བ་ལྟར་	-9633
ཆས་ནི་	-9634
མཐོ་རུ་གཏོང་བ།	-9635
གསར་འགྱུར།	-9636
▁ཅ་	-9637
ག་ལེར་	-9638
འདི་ལྟ་སྟེ།	-9639
གནས་ཚུལ་དང་།	-9640
ལས་འགན་སྣ་ཚོགས་	-9641
བྱེད་ཆོག་སྟེ།	-9642
▁རང་བྱུང་སྐད་	-9643
བཀོད་སྒྲིག་གི་	-9644
ཐེང་ཤུན་	-9645
ཞོགས་པ་	-9646
རི་མོ་འབྲི་བའི་	-9647
རྒྱབ་ཀྱི་	-9648
ལས་བཟོ་བས་	-9649
མང་དྲགས་	-9650
ཐོབ་ཐང་དང་	-9651
ས་ཡ་	-9652
མི་ཚང་མའི་	-9653
བརྟན་འཇགས་	-9654
སྦྲེལ་ནས་	-9655
ཤག་	-9656
ན་ཏ་	-9657
སྐྱེད་ཀ་	-9658
འཁོར་ལམ་	-9659
ཉར་གསོག་	-9660
བདམས་ཐོན་པ་	-9661
ཆོས་དད་	-9662
ཁྱེད་ཉིད་	-9663
དཔལ་འབྱོར་དང་	-9664
མ་ལེ་	-9665
༡༡	-9666
རེད་ཟེར།	-9667
བཅས་བྱ་དགོས།	-9668
ཆོས་ཁང་གི་མངའ་	-9669
གྱི་གཞི་གྲངས་	-9670
བྱེད་མི་དགོས།	-9671
རྒྱལ་སྲུང་	-9672
འཚམས་འདྲི་དང་	-9673
རིང་བའི་	-9674
ལས་འགན་སྔོན་ལ་	-9675
ནའང་།	-9676
ལ་མཚོན་ན་	-9677
ཕྱོགས་གང་དག་	-9678
དགོས་མཁོ་དང་འཚམ་	-9679
sp	-9680
ཆ་རྒྱུས་	-9681
ཁ་ལོ་བསྒྱུར་བའི་	-9682
པཱ་	-9683
སྒང་	-9684
གློག་གི་	-9685
དགེ་རྒན་ཆེ་མོ་	-9686
ཤོར་བའི་	-9687
ས་ཁུལ་དང་	-9688
ཧོ་ནན་	-9689
བཞག་ན།	-9690
བརྒྱའི་	-9691
འདྲ་མཉམ།	-9692
བྱེད་མཁན།	-9693
རྐྱེན་གྱིས།	-9694
ཕྱི་ལ་	-9695
ཕྱིར་ལན་	-9696
གཞི་གྲངས་ཆེན་པོ་	-9697
ཡོད་དེ།དཔེར་ན།	-9698
གཞོལ་དགོས།	-9699
ཁྲིམས་ལུགས་ཀྱི་	-9700
ཏེ་དཔེར་ན་	-9701
འདེགས།	-9702
ཁྱོད་ལ་རོགས་	-9703
ཀུན་གྱིས་	-9704
གཅིག་འདྲ་	-9705
བསྐྱར་དར་	-9706
ལ་འབྲེལ་བ་	-9707
བསྐྱར་སྐྲུན་	-9708
ཧྥི་	-9709
གཙིགས་	-9710
གིས་ཁེངས་	-9711
རིས་རྟགས་	-9712
སྒོ་མོ་	-9713
ཀླད་ཆེན་	-9714
བདེ་བ་	-9715
རྗེས་སུ་འབྲ	-9716
དུས་རྒྱུན་གྱི་	-9717
ཧྲན་གྱི་	-9718
ཁྲོད་རྒྱུན་དུ་	-9719
ལས་འགན་འགའ་	-9720
ལས་འགན་ལག་བསྟར་	-9721
ཐཱན་འབུད་	-9722
རིགས་རྒྱུད།	-9723
བྱས་ཏེ།ཁོ་ཚོས་	-9724
མཚན་མོ་	-9725
ཡུག་རེན་	-9726
ང་ཚོས་གཞི་ནས་	-9727
བྱས་ན་ཁྱེད་རང་ལ་	-9728
ལས་བགོས་	-9729
ཐུབ་ན།	-9730
ལས་ཀའི་གོ་སྐབས་	-9731
བསྡུར་ན།	-9732
ཁེ་ལས་ལ་རོགས་རམ་	-9733
ལ་ལྟ་སྟངས་	-9734
SO	-9735
བྱེད་པའི་ནང་	-9736
ཅི།	-9737
གསར་སྤེལ་དང་།	-9738
ཞིབ་དཔྱོད་	-9739
ཁག་བགོས་	-9740
ལ་རོལ་	-9741
ིབས་	-9742
Ac	-9743
དམར་པོའི་	-9744
གཉིས་ཀར་	-9745
oh	-9746
མེད་པར་གྱུར་	-9747
ཇེ་མང་དུ་གཏོང་	-9748
འཁོར	-9749
ཞི་ཅིན་ཕིང་གིས་	-9750
སུ་འགྱུར་	-9751
ནི་ཇི་ལྟར་	-9752
▁གོང་གི་གོ་རིམ་	-9753
སྨྱན་སྦྱོར་དང་།	-9754
རང་ཚུགས་ཀྱི་	-9755
ཁེ་སྤོགས་ཀྱི་	-9756
ནད་དང་	-9757
གྲོང་ཁྱེར	-9758
ཕ་རོལ་པོར་	-9759
འདུ་འཛོམས་	-9760
ཡོད་དེ།དཔེར་ན་	-9761
གསར་པ།	-9762
དོ་སྣང་བྱས་ཏེ།	-9763
སྨན་བཅོས་ཞབས་ཞུ་	-9764
མེ་གསོད་	-9765
གཅིག་རྗེས་	-9766
ཁྱིམ་མི་དང་	-9767
ouTube	-9768
རྣལ་འབྱོར་	-9769
བསམ་གཞིགས་དང་	-9770
ལུགས་མཐུན་ངང་	-9771
ཆེན	-9772
མཚན་གྱི་	-9773
ཤར་གློད་	-9774
ཚུར་བསྡུ་	-9775
བོད་ལྗོངས་ཀྱི་	-9776
tt	-9777
བཏང་བ་མ་ཟད།	-9778
ཕྲན་བུ་	-9779
ཟ་ཁང་གི་	-9780
▁གསུམ།གཞི་གྲངས་	-9781
འདབས་	-9782
ཁ་ན་ཏའི་	-9783
ཆེ་ཤོས་ནི་	-9784
འཛེགས་	-9785
ལས་ཀའི་ལས་ཕྱོད་	-9786
ཞིག་མཁོ་འདོན་	-9787
གྲྭར་	-9788
གླིང་ཆེན་	-9789
ཉིའུ་གཡོད་	-9790
རྒྱུ་ཆ།	-9791
གསུམ་དང་	-9792
བདེ་ལྕག་	-9793
འཚམ་པ་དང་།	-9794
ཞིག་དང་།	-9795
ན་ད་གཟོད་	-9796
མིང་གཞན་ལ་	-9797
ཡག་ཤོས་ཀྱི་	-9798
ང་ཚོས་ང་ཚོའི་	-9799
ཡཱའི་	-9800
བྱས་ཏེ།ཁོ་ཚོའི་	-9801
གཏན་འཁེལ།	-9802
མི་ཞིག་ལ་	-9803
ཉུང་དུ་བཏང་ནས་	-9804
བདེ་ལྕག་འཁྱུག་	-9805
)(	-9806
དད་སེམས་	-9807
▁ལས་རིགས་	-9808
སྒྲ།	-9809
ཕྱོགས་གཉིས་ཀས་	-9810
གཏན་འཁེལ་བྱས་ཏེ་	-9811
མཛེས་ལྗོངས་ཁུལ་	-9812
ཚོགས་སྤྱི་དང་	-9813
ཉག་	-9814
དུས་ཡུན་རིང་པོར་	-9815
བཀའ་བཀོད་	-9816
བྱེད་ཐབས་ཀྱང་	-9817
བསམ་འཆར་དག་གིས་	-9818
ཡིན་ཆོག	-9819
སྐྱབས་	-9820
གསང་དོན་གྱི་	-9821
གྲོས་ཚོགས་ཀྱི་	-9822
གཞིས་རྩེ་	-9823
གློག་སྨན་	-9824
གད་སྙིགས་ཀྱི་	-9825
▁x	-9826
ཇེ་ཡང་	-9827
ལས་ཁུངས་དང་	-9828
གཏོང་བཞིན་ཡོད།	-9829
ཨེ་ཅ	-9830
བྱེད་ཀྱིན་	-9831
ཟུར་མིང་ལ་	-9832
ཆེ་ལ་	-9833
རྒྱུ་རྐྱེན་འགའ་	-9834
ངས་བསམ་ན་	-9835
གཞིགས་ཏེ་	-9836
འདིའི་ཁྲོད་དུ།	-9837
ach	-9838
བདམས་ཐོན་	-9839
རྩོམ་པ་པོས་	-9840
མངོན་དུ་འགྱུར་	-9841
ཤེས་བྱའི་མཛོད་	-9842
དགའ་སྤྲ	-9843
ཚེག་རྡར་	-9844
གློག་བརྙན།	-9845
མཆོད་འབུལ་	-9846
འབྱུང་ཁུངས་ཀྱི་	-9847
འབེབས།	-9848
དྲ་ཚིགས་ཀྱིས་	-9849
ལས་འགན་བགོ་བཤའ།	-9850
ནང་བསྟན་	-9851
བཟོ་སྐྲུན།	-9852
འཚེར་	-9853
དཔེ་མཚོན་ཚབ་ཨང་	-9854
དེས་ང་ཚོར་	-9855
ནང་དུ་འཛུལ་	-9856
ཚོགས་འདུ།	-9857
མཆན།	-9858
དུག་སེལ་	-9859
ནང་འདྲེན་དང་	-9860
ནང་ཞུགས་པའི་	-9861
བྱེད་འགོ་ཚུགས་	-9862
ཞིབ་འབྲི་	-9863
TK	-9864
ཝུའུ་ཧན་	-9865
ཐེངས་དང་པོའི་	-9866
ཧྥོ་	-9867
སྤྲོ་གསེང་	-9868
ཚོད་འཛིན་བྱེད་པ།	-9869
▁བ་དམར།	-9870
ode	-9871
ནར་འགྱངས་མི་	-9872
མཉེན་ཆས་ཀྱིས་	-9873
ལས་འགན་གང་དག་	-9874
མེད་པ་ཞིག་རེད།	-9875
དུ་གནས་པ་དང་།	-9876
ངས་ཁྱེད་རང་གི་	-9877
ཀེ་རི་སེའི་	-9878
ང་ཚང་	-9879
ཐེ་ཇུས་	-9880
ཀློག་རིན་	-9881
ཚོགས་སྤྱིར་	-9882
ཤིང་ཏོག་	-9883
ཉིང་ཁྲི་	-9884
པོད་ཁུག་གི་	-9885
ངག་རྒྱུན་	-9886
དབྱང་གཉིས་	-9887
མིང་ཚིག་	-9888
ཨེ་མི་ལི་	-9889
བདེ་འཇགས་དང་།	-9890
དྲོར་	-9891
སྤྱི་ཚོགས་སུ་	-9892
མིང་དུ་	-9893
ས་གནས་ཁག་གི་	-9894
རིགས་དབྱེ་བ་དང་	-9895
ཇུས་འགོད་བྱས་ནས་	-9896
སྣང་ཆུང་	-9897
འཆར་གཞིར་	-9898
ངེས་པ་	-9899
མུག་	-9900
རྙིང་པ་	-9901
MyS	-9902
བྱེད་མཚམས་	-9903
བརྙན་གྱི་	-9904
ལག་རྩལ་གསར་པ་དང་	-9905
ill	-9906
བཤུ་འབྲི་	-9907
གོ་རིམ་ཞིག་ཡིན།	-9908
མང་པོ་མཁོ་འདོན་	-9909
▁རྒྱལ་ཡོངས་	-9910
བསྡད་དེ་	-9911
རྒྱབ་ཏུ་	-9912
ཞིང་ཆེན་དང་	-9913
ཐོབ་ཆ་	-9914
རྒྱན་སྤྲོས་	-9915
ཚབ་ཨང་དེ་	-9916
བརྗོད་ན།	-9917
བློས་གཏོང་	-9918
འཇིགས་སྐྲག་	-9919
པར་ཕན་པ་མ་ཟད།	-9920
མང་དུ་སོང་	-9921
འབྲེལ་གཏུག་གི་	-9922
▁དུས་རབས་	-9923
དགའ་གྲོགས་	-9924
བར་སྟོང་གི་	-9925
ཇོ་	-9926
▁ཁྱོད་ཀྱི་	-9927
ཁ་གཏད་གཅོག་ཐབས་	-9928
con	-9929
▁Tr	-9930
བསྐོས།	-9931
ཇི་ལྟར་བྱ་དགོས།	-9932
▁ཞའོ་	-9933
མེ་ཤུགས་འཕུར་	-9934
འཁུར།	-9935
མཁས་ཅན་གྱིས་	-9936
ནི་སྤྱི་ཚོགས་	-9937
ཆུ་ཚད།	-9938
རག་གི་	-9939
བྱེད་དགོས	-9940
ཉུང་དུ་བཏང་སྟེ་	-9941
ཞིག་བཟོ་	-9942
སྙིང་ཕྱོད་	-9943
LG	-9944
གཡུ་	-9945
རྒན་རྒོན་གྱི་	-9946
སྐྱེད།	-9947
འགྲོ་བར་	-9948
རི་བོའི་	-9949
འཕར།	-9950
གནམ་བདག་	-9951
དཔེ་ཀློག་གི་	-9952
འཛད་སྤྱོད་པ་	-9953
ཞི་ལ་	-9954
head	-9955
རིགས་ཤིག་ཡིན།	-9956
ཐིག	-9957
གཞས་གདངས་	-9958
དམག་དཔུང་གི་	-9959
ཚོན་མདངས་	-9960
ཉེས་དོན་	-9961
ཧྲ་ལ་	-9962
ཨེ་ཤ་	-9963
དེང་སྐབས་ཀྱི་	-9964
ཤེས་ལྡན་པ་	-9965
ཨ་མེ་རི་ཁ་	-9966
སྐྱི་	-9967
ནི་ང་ཚོའི་	-9968
ཆོད།	-9969
འདྲ་མིན་	-9970
ཁྲོམ་ར་དང་	-9971
TT	-9972
པའི་བར།	-9973
དགོས།ང་ཚོས་	-9974
གླ་ཆ་	-9975
དམིགས་ཚད་དང་ལེན་	-9976
རྩ་འཛུགས།	-9977
▁)	-9978
ནུབ་ཀྱི་	-9979
དེ་དག་ཚང་མར་	-9980
བྱེ་བ་	-9981
ལུས་ཁམས་ཀྱི་	-9982
གསུང་བཤད་	-9983
སྤྱང་གྲུང་	-9984
ཐུར་ཁེའི་	-9985
སྐད་ཆ་དང་	-9986
མུ་མཐུད་ནས་	-9987
མལ་	-9988
མཐོ་ཤོས་ཀྱི་	-9989
འཚམ་མཐུན་	-9990
▁Sc	-9991
དཔྱ་ཁྲལ་	-9992
གྲོགས་པོས་	-9993
▁དགོངས་པ་མ་ཚོམ།	-9994
UC	-9995
རླངས་གཟུགས་འབུད་	-9996
སྙི་	-9997
བྱ་རིམ།	-9998
གང་འདོད་	-9999
ལོ་ཐོའི་	-10000
རྒྱུ་རྐྱེན་དག་	-10001
ཚེར་	-10002
མཇུག་འབྲས་ནི་	-10003
བུས་	-10004
པ་དང་བསྟུན་ནས་	-10005
པོ་འདུག	-10006
སྔོན་འགོག་དང་	-10007
བྱ་རྒྱུ་དང་།	-10008
ནི་གཙོ་བོ་	-10009
list	-10010
གང་ཡིན་པ་	-10011
ལྟེ་བར་	-10012
ལྷན་སྐྱེས་ཀྱི་	-10013
ཀྭ་	-10014
ཁྱབ་ཁོངས་ལ་	-10015
ཞོག་	-10016
ལིན།	-10017
ཀུང་སི	-10018
▁ཚོགས་པའི་	-10019
བོ	-10020
གྲུབ་པ་རེད།	-10021
སྣེ་ལེན་	-10022
སྤེལ་རེས།	-10023
▁Web	-10024
ཡག་པའི་	-10025
གཞུང་ལམ་གྱི་	-10026
སྐབས།ཁྱེད་ཀྱིས་	-10027
མི་ནག་	-10028
ལག་རྩལ་དང་ལག་ཆ་	-10029
དཔྱིད་ཀྱི་	-10030
སློབ་ཆེན་དང་	-10031
ཏོའུ་	-10032
ཉེ་འགྲམ་དུ་	-10033
ལྟ་སྟངས་དང་	-10034
ཡིད་རྟོན་རུང་	-10035
འགྱུར་ལྡོག་གིས་	-10036
Red	-10037
ལྷོ་ཁ་	-10038
ནུབ་རྒྱུད་	-10039
ངའི་བསམ་འཆར་	-10040
DB	-10041
▁ཕྱིས་སུ་	-10042
ཐུབ་པ་རེད།	-10043
སྤེལ་དུས།	-10044
ཡིག་ཚགས་དང་	-10045
མི་རེ་ངོ་	-10046
ཐུམ་སྒྲིལ་	-10047
འགྲེམས་ཚོགས་	-10048
ཡོང་སྒོ་	-10049
གཏོད་པའི་	-10050
Con	-10051
ར་བ་	-10052
དབྱེ་བ།	-10053
ཁ་བྱང་དང་	-10054
ཤིག་ཡིན་པས་	-10055
▁Ad	-10056
ཁྱེར་ཡོང་	-10057
བྱུང་ཚུལ་	-10058
ཁས་མ་	-10059
སྤོ་བོ་ལགས་	-10060
པ་ཞིག་ཀྱང་	-10061
གལ་འགངས་ཆེ་བའི་	-10062
གནད་ལ་འཁེལ་བ་དང་	-10063
བརྐྱ	-10064
ཕྱི་རོལ་ཡུལ་གྱི་	-10065
དཀའ་ཚད་	-10066
ཁྱད་ཆོས་ལ་	-10067
ཀྱི་དུས་ཚོད་	-10068
བཅས་ལ་བརྟེན་ནས་	-10069
མཛད་སྒོའི་	-10070
འདིའི་ནང་དུ།	-10071
ཁ་པར་གྱི་	-10072
གསུས་	-10073
གཞི་གྲངས་བོར་	-10074
འོད་ཀྱི་	-10075
འཕེལ་འགྱུར་	-10076
ཐབས་ཤེས་ཤིག་ཡིན།	-10077
རྩོད་གླེང་	-10078
ཕན་ཆ་	-10079
ལ་ཞུགས་ནས་	-10080
ལ་ཡིད་ཆེས་	-10081
སོགས་ལྟ་བུའོ།།	-10082
རྒུན་	-10083
ཅིག་གི་	-10084
བསྡུ་བའི་	-10085
ཚན་རིག	-10086
བཏགས་གྲངས་	-10087
མཁོ་ན།	-10088
རིག་ནུས་མ་ལག་གི་	-10089
ཉེན་ཁ་དཔྱད་དཔོག་	-10090
འགྲོ།	-10091
རྐྱོང་སྐུམ་	-10092
གཞན་དང་	-10093
རྒྱུགས་ཤར་གློད་	-10094
གསང་བའི་ལྡེ་མིག་	-10095
ཐོབ་ཐང་ཐོབ་	-10096
དང་སྦྱོང་བརྡར་	-10097
འཇུ་	-10098
ལས་ལ་	-10099
ལྟད་མོ་བས་	-10100
བཀོལ་མཁན་	-10101
སུར་	-10102
བྱས་ཟིན་	-10103
ཁྲག་ཧྭགས་	-10104
ཧིན་རྡུ་ཉི་	-10105
▁བྱས་ན་	-10106
▁རིགས་རྒྱུད་	-10107
སྒོར་དུང་ཕྱུར	-10108
འགྱུར་རྡོའི་	-10109
མི་སུ་	-10110
འབྱུང་སྲིད་པས།	-10111
འཛེར་སྒྲ་དང་	-10112
མང་པོས་	-10113
བྱེད་སྐབས།ང་ཚོས་	-10114
ལབ་	-10115
མཛེས་རྩལ་	-10116
སྙན་ཞུ་དང་	-10117
རྐང་བཙུགས་ནས་	-10118
རྒྱུ་རྐྱེན་གྱི་	-10119
བུ	-10120
རྟགས་ཅན་	-10121
ལྷོ་མའི་	-10122
▁དེ་རིང་	-10123
ཞིག	-10124
ཐད་ལའང་	-10125
▁Net	-10126
གསར་པ་ཚོད་ལྟ་	-10127
འབོད།	-10128
ཞིག་བཟོས་ནས་	-10129
ཡིད་ལ་	-10130
ཁྱེད་ཚོའི་	-10131
ཉུང་ཙམ་	-10132
གནས་པ་དང་།	-10133
ཡོད་ཅིང་།དེ་ནི་	-10134
བརྒྱུད་དགོས།	-10135
▁ཇི་ལྟར་བྱས་ན་	-10136
བྱེད་པ།གཞི་གྲངས་	-10137
འཚག་ཆས་	-10138
གཏན་འགོག་	-10139
ལྷག་མ་	-10140
ལྟ་སྐྱོང་	-10141
སེམས་ཁྲལ་གྱི་	-10142
འགྲན་བསྡུར།	-10143
སྤྱི་དམངས་ལ་	-10144
སྦལ་	-10145
གྲུབ་ཆ་གཙོ་བོ་	-10146
ལས་ཀ་དང་འཚོ་བ་	-10147
ཞིག་རྙེད་	-10148
འཇིགས་སྣང་	-10149
ནགས་ཚལ།	-10150
གྱི་དུས་ཚོད་	-10151
ཚོད་རྩིས་	-10152
རྣམ་པ་ཞིག་ཡིན།	-10153
བཅུ་གཉིས་	-10154
བཀོལ་ཆོགདཔེར་ན།	-10155
ལྗོངས་ཡོངས་ཀྱི་	-10156
ཐབས་དང་	-10157
ཐུབ་ལ་	-10158
དང་མི་འདང་	-10159
ཡོ་རོབ་གླིང་	-10160
དབུལ་པོ་	-10161
སྐུ་གཤེགས་	-10162
མིག་སྔ	-10163
སྤེལ་བར་	-10164
པེན་	-10165
ཡུལ་སྐོར་བས་	-10166
དེ་ལས་འགན་	-10167
མི་ཤེས་པའི་	-10168
ནུའུ་	-10169
འཇིམ་	-10170
དགོས་མཁོའི་	-10171
གཉེར་ཚོང་གི་	-10172
རིགས་དབྱེ་ཆས་	-10173
ཆ་སྙོམས་གྲངས་ཐང་	-10174
སྒྲིག་གཞིར་	-10175
སྐུ་གཤེགས།	-10176
རྟགས་མཚན་	-10177
དམས།	-10178
བཀོལ་བ་ནི་	-10179
arr	-10180
ནི་སྔར་བཞིན་	-10181
དམངས་ཁྲོད་	-10182
དག་ཡིན།	-10183
སྔོན་རྩིས་དང་	-10184
ངོས་ནས་བརྗོད་ན།	-10185
གཏིང་ཟབ་དང་	-10186
འཁོན་འཛིན་	-10187
ལྷོ་ཕྱོགས་	-10188
འགའ་ཞིག་གི་	-10189
རོགས་རམ་ཐོབ་ཐབས་	-10190
མོ་དང་	-10191
ནད་པའི་ནད་	-10192
མེ་ལོང་	-10193
དབྱེ་ཞིབ་ལག་ཆ་	-10194
▁e	-10195
ཨ་རག་	-10196
འདྲ་བཟོ་	-10197
ཞིབ་ཚད་དང་	-10198
གསང་དོན་དང་	-10199
ཚད་གཞི་ཅན་གྱི་	-10200
རྫུ་འཕྲུལ་	-10201
ལྗང་མདོག་གི་	-10202
དོ་སྣང་བྱེད་པའི་	-10203
གྲངས་ཀའི་	-10204
སྤུས་ཚད་ལ་	-10205
བློ་རིག་གི་	-10206
ལས་དང་བོ་	-10207
བསྟུན་མཁས་	-10208
ཞིབ་དཔྱད་ཚད་ལེན།	-10209
བྱས་ཡོད།དཔེར་ན།	-10210
ཆེན་པོ་ཐོབ་	-10211
ཡོང་འབབ་ཀྱི་	-10212
LSTM	-10213
རགས་ལྟ་	-10214
གདམ་བྱའི་	-10215
ལས་ཐོག་	-10216
འགན་ཁུར།	-10217
དང་ལྟ་སྐུལ་	-10218
ཁེར་རྐྱང་དུ་	-10219
མཁོ་འདོན་ཚོང་པ་	-10220
འོ	-10221
དྲུག་པའི་	-10222
རྡོ་རྗེ་	-10223
ཧུའུ་པེ་	-10224
མིང་ཐོའི་	-10225
ཟིན་གྱི་ཡོད།	-10226
རྣམ་གྲངས།	-10227
ཁྱིམ་གཞིས་	-10228
ཐེངས་གཉིས་	-10229
གྲུབ་པ་དང་།	-10230
མི་ལེགས་	-10231
བྱས་པ་བརྒྱུད་དེ་	-10232
དབྱི།	-10233
འབྱུང་ཁུངས་དང་	-10234
ལས་ཀ་བྱེད་སྐབས་	-10235
རེས་ཀྱི་	-10236
རྩོམ་འབྲིའི་	-10237
དུས་འཁོར་	-10238
དོ་སྣང་དང་	-10239
བྱང་ཚད་དང་	-10240
ནང་སོག་	-10241
གནམ་ཐང་	-10242
དམག་དཔུང་གིས་	-10243
ལྡོག་ཕྱོགས་	-10244
གལ་མི་	-10245
འདྲེད་	-10246
བསྐྲུན་ཡོད།	-10247
དང་འབྲེལ་ཡོད།	-10248
ལ་བཀོལ་	-10249
ཁྲོད་ནས།	-10250
རྟོག་བཟོས་	-10251
ཡེ་ཤུ་	-10252
ཕྱིར་མི་	-10253
གཏན་འཁེལ་བྱས་ཆོག	-10254
སྟེ་དཔེར་ན་	-10255
པ་ཞིག་གི་	-10256
བྱས་ཏེ་ཁོང་ཚོའི་	-10257
བརྩི་དགོས།	-10258
བདག་པོ་	-10259
ཏུ་བཅུག་	-10260
ཕྱི་སྐད་	-10261
འདྲ་མཚུངས་ཀྱི་	-10262
ཁེན་	-10263
▁པེ་ཅིང་	-10264
འདེགས་སྐྱོར་	-10265
und	-10266
སིང་ཀ་	-10267
VPN	-10268
གསལ་བོ་ཞིག་	-10269
རླུང་གི་	-10270
ཚོར།	-10271
སྨད་གཡོགས་	-10272
དམིགས་ཚད་དང་།	-10273
སླ་བ་	-10274
སྲིད་ལ།	-10275
ཟུང་དུ་	-10276
སེར་པོ་	-10277
གུས་ཞབས་	-10278
འགུལ་སྐྱོད་ཀྱི་	-10279
ཤུགས་རྐྱེན་དང་	-10280
གནས་བབ་དང་	-10281
དྲིལ་བསྒྲགས།	-10282
ལུའེ་	-10283
ཁན་	-10284
བྱེད་ཐབས་ཀྱིས་	-10285
གང་མང་	-10286
to	-10287
ཉི	-10288
ལོ་གཅིག་	-10289
ནུབ་ཕྱོགས་	-10290
དང་པོ་དེ་	-10291
འཚིག་	-10292
བཅངས་ནས་	-10293
ཤིང་སྡོང་	-10294
བཅས་ལ་དབྱེ་ཞིབ་	-10295
དབྱར་དུས་	-10296
སློབ་ཆེན།	-10297
བཟང་མོས་ཞུས	-10298
བཟང་བའི་	-10299
ཚོགས་ཆེན་ཐེངས་	-10300
ཀྱི་བདེ་འཇགས་	-10301
བྱེད་ཤེས་པ་	-10302
འགྲན་གྱི་	-10303
དྲ་ཚིགས་དེ་	-10304
འཆར་གཞི་ཞིག་བཟོ་	-10305
ལས་ཀའི་ཁྲོད་ཀྱི་	-10306
སློབ་སྦྱོང་དེ་	-10307
Open	-10308
བདག་དམ་	-10309
བརྟག་ཞིབ་	-10310
▁རང་འགུལ་ཅན་གྱི་	-10311
ཚེགས་	-10312
དམིགས་ཡུལ་དང་།	-10313
མི་ཐོན་པ་	-10314
སྤོ་ལོ་བ་	-10315
བྱུང་ན་	-10316
གྲུང་སྐུལ་	-10317
དཔོན་གྱི་	-10318
འདུ་ཤེས་འཛིན་	-10319
Tre	-10320
མ་དངུལ་འཇོག་པར་	-10321
མོའི་ངང་	-10322
འཕྲིན་ཡིག	-10323
མཛེས་སྡུག་གི་	-10324
སུའང་	-10325
ཞིག་བྱེད་འདོད།	-10326
ཅིན།	-10327
རིན་པ་	-10328
▁དེས་ན་	-10329
རྣམ་པ་དང་།	-10330
HTTP	-10331
ཤོག་བུ་	-10332
མངགས་གཏོང་	-10333
རྭ་	-10334
བདུད་	-10335
དོན་ནི་	-10336
སྡེ་བའི་	-10337
ཙིག་	-10338
བྱེད་དགོས་ཀྱི་	-10339
ལ་འཚམ་པའི་	-10340
མི་འབྱུང་བར་	-10341
ངེས་ཅན་ཞིག་དགོས།	-10342
གཙོ་བོ་དང་	-10343
བྱས་ཏེ།དེའི་	-10344
འགོ་བརྩམས།	-10345
ཡང་དག་པ་	-10346
སི་ཁྲོན་ཞིང་ཆེན་	-10347
ཚ་བ་	-10348
བདག་ཏུ་	-10349
▁ཁོས་	-10350
བློ་ལ་	-10351
རྒྱ་མ་	-10352
འཆི་	-10353
ཚོང་འགྲུལ་	-10354
གཟབ་ནན་གྱིས་	-10355
ཡོད་པའི་ལུས་རྩལ་	-10356
མ་དངུལ་གྱི་	-10357
ལམ་ལུགས་ཀྱི་	-10358
དེ་ལས་ལེགས་པའི་	-10359
Fl	-10360
ནང་ཞུགས་མཁན་	-10361
སྣོན།	-10362
དཔེ་དབྱིབས་ཤིག་	-10363
ལུས་པོ་	-10364
མཐོ་རུ་ཕྱིན་ནས་	-10365
ཚད་ཡོད་ཀུང་སིའི་	-10366
བཀག་རྒྱ་	-10367
ཐག་གཅོད་བྱེད་པ།	-10368
▁དེ་རྗེས་	-10369
ཐོབ་ཐང་གི་	-10370
མངོན་གྱི་ཡོད།	-10371
དགོས་ཚེ་	-10372
ལུའུ་དབྱུག་	-10373
ཕྱི་ཕྱོགས་	-10374
པར་ཙིར་	-10375
གཏུག་བཤེར་	-10376
ལྡན་པའི་ངང་	-10377
བབ་མཐུན་གྱི་	-10378
གཏན་ཚིགས་ཀྱི་	-10379
གསར་འགྱུར་གྱི་	-10380
དང་།ཆུ་	-10381
གྲ་སྒྲིག་གི་	-10382
ཐབས་ནི་	-10383
དེ་བས་ཆེ་བའི་	-10384
དབྱིབས་ནད་དུག་	-10385
ཚད་ཡོད་ཀུང་སི་	-10386
གོ་ལ་ཧྲིལ་པོར་	-10387
ཚངས་	-10388
ལག་རོགས་ཤིག་ཡིན་	-10389
བསྡུས་མིང་ལ་	-10390
mer	-10391
ཕམ་ཉེས་	-10392
བདེ།	-10393
བྱས་ཏེ།སྔར་ལས་	-10394
སློབ་འབྲིང་གི་	-10395
▁རྩོམ་ཡིག་ཅིག་	-10396
མ་ལི་	-10397
གཏན་ཁེལ་བྱ་དགོས།	-10398
ཕོག་ཐུག་	-10399
ཆུབ་	-10400
ཡོད་པ་འགན་ལེན་	-10401
IBM	-10402
མ་ཡིན་པར།	-10403
བརྙན་ལམ་གྱི་	-10404
sv	-10405
བསྲི་	-10406
ལས་ཤོར་	-10407
རྙིང་པ་དང་	-10408
ཕྱག་	-10409
འུར་	-10410
སྡེ་ཁུལ།	-10411
CDN	-10412
བལ་	-10413
དོག་	-10414
མིན་གཏན་འཁེལ་	-10415
ཕ་རི་	-10416
▁ལིའུ་	-10417
▁དངུལ་རྩའི་	-10418
ནད།	-10419
ཧང་སངས་	-10420
ལོངས་སུ་	-10421
ཚོམས་ཆེན་	-10422
གདན་ཞུ་དང་	-10423
ཆེད་ལས་མི་སྣའི་	-10424
དཔེ།	-10425
དྲ་ངོས་སུ་	-10426
མངར་ཆ་	-10427
བྱས་ཏེ།ཁོ་ཚོར་	-10428
གཅུན་	-10429
ཁ་གཏད་འཇལ་ཐབས་	-10430
མཚན་ཉིད་རིག་པའི་	-10431
འཐབ་རྩོད་	-10432
མང་པོ་ཡོད་ཅིང་།	-10433
ལས་དམའ།	-10434
གསལ་བྱེད་	-10435
ལས་ཞུགས་ཁྲོམ་རར་	-10436
གནང་བ།	-10437
བདམས་ཏེ།	-10438
མྱུར་པོ་	-10439
ཉིས་སྟོང་	-10440
ཆེས་མཇུག་མཐའི་	-10441
མཁན་ལ་འཚམ་པའི་	-10442
སློབ་སྦྱོང་གིས་	-10443
སོ།།	-10444
གདེང་འཇོག་དང་	-10445
བྲན་	-10446
བུད་མེད་དང་	-10447
ཐུགས་རྗེ་ཆེ།ངས་	-10448
ཅུང་ཆུང་	-10449
ཡིད་འགུག་	-10450
དཔེ་དབྱིབས་ནི་	-10451
▁ལོ་རྒྱུས་ཀྱི་	-10452
▁Learning	-10453
དམིགས་ནས།	-10454
ཙེར་	-10455
གྲོང་གི་	-10456
ཤིག་ཡིན་པ་དང་	-10457
བགར་	-10458
གོ་གནས་སྤར་	-10459
མེད་པར་བཟོས་	-10460
རི་བོང་	-10461
▁ད་དུང་	-10462
རྒྱལ་ཁབ་ཏུ་	-10463
བྱེད་ཐབས་འདི་དག་	-10464
དགུས་	-10465
མོ་ནི་	-10466
ལིན་གྱི་	-10467
▁མཁོ་མཁན་གྱི་	-10468
མི་ཉུང་བ་ཞིག་	-10469
ངེད་	-10470
མཐེབ་གནོན་མནན་	-10471
འཆར་གཞིའི་ནང་	-10472
ལག་རྩལ་དེ་དག་	-10473
ཁྱེད་རང་གིས་ང་ལ་	-10474
ཇེ་ཆེར་གཏོང་	-10475
ལ་བསྐ	-10476
བྱས་ན་ཁྱེད་ལ་	-10477
སྣོད་ཆས་	-10478
ཁ་ཤས་ཡིན།	-10479
སྤྱི་ཚོགས་ཁྲོད་	-10480
ཞང་གི་	-10481
པ་དེ་རེད།	-10482
མང་པོ་ཡོད་པས་	-10483
ངལ་དུབ་དང་	-10484
གསར་པས་	-10485
ཅུང་ཙམ་	-10486
ལོ་རིམ་	-10487
ཚོང་གཉེར་ཐབས་ལམ་	-10488
འགག་སྒྲོལ་	-10489
ཡིག་གཟུགས།	-10490
གནང་བའི་	-10491
གནའ་རབས་	-10492
རིང་ཐུང་	-10493
འགན་འཁུར།	-10494
འོན་ཀྱང་ཚ	-10495
དཔེ་ཀློག་དང་	-10496
ཁྲིམས་ལྟར་	-10497
བླངས་པ་རེད།	-10498
ཞང་ཀང་གི་	-10499
སྣུམ་ཚོན་	-10500
བྲིན་སྐུལ་	-10501
གདམ་བྱའི་འོས་	-10502
ལས་བྱེད་པ་	-10503
UR	-10504
གཏོད་ཐུབ།	-10505
ཐག་གཅོད་བྱེད་	-10506
གྱི་ཆ་འཕྲིན་	-10507
མི་སྒེར་གྱིས་	-10508
ལ་ཐུག་	-10509
ཐིག་རིས་	-10510
གཏམ་རྒྱུད།	-10511
གཅེས་སྐྱོང་	-10512
དེ་ཙམ་གྱིས་	-10513
གང་ལགས་ཤེ་ན།དེས་	-10514
ཚོང་ཟོག་གི་	-10515
བསམ་གཞིགས་ཀྱི་	-10516
ཁྱིམ་མིའི་	-10517
loud	-10518
uite	-10519
དབར་གྱི་འབྲེལ་བ་	-10520
སེལ་ཐུབ།	-10521
བཟོ་སྐྲུན་གྱི་	-10522
བའི་ཚེས	-10523
རང་བཙན་	-10524
ཀྱི་ལས་ཕྱོད་	-10525
མོས།	-10526
WOT	-10527
གཡུལ་འགྱེད་	-10528
ེག	-10529
ངས་ཀྱང་	-10530
▁དུས་ཚོད་	-10531
text	-10532
▁ཐབས་	-10533
བློ་སྒོ་	-10534
དཔེ་རིས་ཀྱི་	-10535
འོས།	-10536
དེ་བས་མཐོ་བ་	-10537
གཏོང་བ་སོགས་ཀྱི་	-10538
དམིགས་ཚད་བཟོ་བ།	-10539
▁ch	-10540
ཡི་གེ་དང་	-10541
དང་།དེ་ནས་	-10542
པ་ཞིག་མ་རེད།	-10543
ཁྱེད་ཀྱིས་ང་ལ་	-10544
ནད་དུག་འགོག་པའི་	-10545
དང་སྔོན་དཔག་	-10546
སྐད་ཅོར་	-10547
སྣོལ་མའི་	-10548
ཆགས་ཐུབ་པའི་	-10549
ཡི་ཁྲོད་དུ་	-10550
མེར་	-10551
དོ་མཉམ་པའི་	-10552
འགྱུར་རྒྱུ་རེད།	-10553
ལྡེབ་ངོས་	-10554
འཛུགས་སྐྲུན་དང་	-10555
ཆུས་ཀྱི་	-10556
ལྡན་དགོས།	-10557
uest	-10558
rm	-10559
ཅུན་གྱི་	-10560
མཚོ་འགྲམ་	-10561
ཆོས་ཉིད་དང་	-10562
བཏིང་	-10563
བརྡར་ཤ་བཅད་	-10564
པར་རྒྱག་	-10565
ཕན་པའི་	-10566
ཡོ་བྱད་སྤྱོད་	-10567
དང་ཡིད་ཆེས་	-10568
སྔོན་འགྲོའི་	-10569
གཞོན་པའི་	-10570
འགྲིལ་ཤུགས་	-10571
གླུ་དབྱངས་ལ་ཉན་	-10572
Udemy	-10573
མ་འགོར་	-10574
ཀུང་ཟིའི་	-10575
ཁུལ	-10576
ཟའི་	-10577
ས་ཁུལ་ཁ་ཤས་སུ་	-10578
དགོངས་དག་	-10579
མགྲིན་ཚབ་	-10580
པར་འདོད།	-10581
རྩ་ཆེའི་	-10582
ལེགས་ཆ་དང་ཞན་ཆ་	-10583
གོམས་གཤིས།	-10584
བརྒྱབ་པའི་	-10585
ལ་མཁོ་བའི་	-10586
རྒྱུ་རེད་	-10587
▁Network	-10588
ཀུའེ་ཀྲོའུ་	-10589
ཆུ།	-10590
འཁོར་ཡུན་	-10591
ཕྱི་རོལ་དུ་	-10592
བྱེད་མི་ཐུབ་པའི་	-10593
འགོ་བཙུགས་ཏེ་	-10594
རྒྱལ་ཁབ་ལ་	-10595
འོག་ཏུ།	-10596
རྩོམ་པ་པོའི་	-10597
དཔེ་མཛོད་	-10598
གཱ་	-10599
མྱོང་ཚོར་དང་	-10600
དང་ཚོད་སྐོར་	-10601
སླར་ཆགས་ཐུབ་པའི་	-10602
པ་དེ་ཡིན།	-10603
རྩ་དོན་དང་	-10604
སྟབས་བསྟུན་གྱི་	-10605
བྱེད་པའི་ཁྲོད་	-10606
རླུང་ནུས་	-10607
ཨུ་རུ་སིའི་	-10608
▁ལས་འགན་	-10609
པོའམ་	-10610
ཆབ་མདོ་	-10611
གྱི་འདུག	-10612
འགྲེམས།	-10613
ཚབ་བྱེད་མི་ཐུབ།	-10614
གཉིས་སུ་དབྱེ་	-10615
སྦྱོང་ཚན་	-10616
▁ཅང་	-10617
གདམ་བྱ་	-10618
མེད་པའམ་ཡང་ན་	-10619
ཞུས།	-10620
འགྲོ་བཞིན་ཡོད།	-10621
ག་གེ་མོ་ཞིག་གི་	-10622
ལྟ་བུ	-10623
གྲོན།	-10624
ཆེ་བས་	-10625
ལ་དོ་སྣང་བྱས་ནས་	-10626
མེ་ཏ	-10627
མཐོང་ཆུང་ནི་	-10628
ཡོངས་རྫོགས་	-10629
ཆོག་པས།	-10630
འབྲི་བ།	-10631
བར་གྱི་འབྲེལ་བར་	-10632
བའི་གནས་ཚུལ་	-10633
ཕྱི་ཚུལ་	-10634
སྣེ་མང་ཅན་དང་	-10635
སྨན་བཅོས་དང་།	-10636
ཡིན་ནའང་འདྲ།	-10637
མངོན།	-10638
གསང་བ།	-10639
དངངས་	-10640
དོ་སྣང་བྱས་ནས་	-10641
གནས་དང་	-10642
དགོས་སམ་།	-10643
བདེ་སྐྱིད་ཀྱི་	-10644
oot	-10645
འབྲི་བར་	-10646
དུ་གནས་པའི་	-10647
▁གཏིང་ཟབ་པའི་	-10648
ཨ་མས་	-10649
གང་ཞིག་གི་	-10650
ཚབ་བྱས་ནས་	-10651
འདི་ཚོ་	-10652
ཧ་ཅང་གལ་ཆེན་	-10653
རིགས་སུ་	-10654
མདོ་འཛིན་	-10655
གོ་ལོག་	-10656
སྟངས་འཛིན་	-10657
ཡོ་བྱད་སྤྱད་ནས་	-10658
སྒྲ་ཕབ་	-10659
རྒྱལ་དམངས་	-10660
རྒྱལ་ཁབ་རིམ་པའི་	-10661
▁ད་ཆ་	-10662
ery	-10663
ལོ་ལྟར་	-10664
གློག་གཏོང་	-10665
དྲག་ཆར་	-10666
རྫོང་དང་	-10667
དང་མཉམ་འབྲེལ་	-10668
སྙིགས་རོ་	-10669
NLTK	-10670
▁ཨ་རིའི་	-10671
ཧྲིལ་བོའི་	-10672
▁ཁྱོད་ཀྱིས་ང་ལ་	-10673
རྩོམ་ཡིག	-10674
ཡར་ཐོན་ཡོང་བར་	-10675
གླིང་ཕྲན་གྱི་	-10676
ཉིན་གནས་ཚུལ་	-10677
གང་ལེགས་བྱས་ནས་	-10678
▁i	-10679
འཚང་ཁ་	-10680
རིགས་ནི་	-10681
ཡིས་ཁྱོད་ལ་	-10682
▁སྐད་གདངས་	-10683
མ་ལག་ཁྲོད་ཀྱི་	-10684
ཡང་ཡོད།	-10685
དེས་ཀྱང་	-10686
དང་།པར་རིས།	-10687
རིན་ཐང་གི་ལྟ་བ་	-10688
ཀུའུ་ཀ	-10689
འོད་ཐིག་	-10690
རོལ་རྩེད་དང་	-10691
ལས་དབང་	-10692
བྱང་ཆུབ་	-10693
རྒྱབ་ལྗོངས་ཀྱི་	-10694
ཐུབ་པ་དང་འབྲེལ་	-10695
དོན་སྙིང་གལ་ཆེན་	-10696
དོ་མི་མཉམ་	-10697
▁རིག་གནས་	-10698
མི་དེ་བས་མང་བ་	-10699
གཉའ་	-10700
ཡིན་པའི་ཆ་	-10701
ཀྱི་ནང་དོན་	-10702
གུང་ཁྲན་ཏང་	-10703
ཕྱོགས་གཉིས་ཀྱི་	-10704
མིག་སྔར།	-10705
Codecademy	-10706
ཉེན་ཁའི་དོ་དམ་	-10707
ཤུགས་ཆེར་	-10708
རིང་ལུགས་དང་	-10709
རྫས་དང་	-10710
མ་ལ་	-10711
དཀའ་ཚེགས་	-10712
བྱེད་པའམ་	-10713
བཅའ་ཁྲིམས།	-10714
དྲང་བདེན་གྱི་	-10715
བཀབ་	-10716
འཇོག་གི་	-10717
དག་གི་	-10718
འདུ་ཚོགས་	-10719
བྱས་པར་མ་ཟད།	-10720
ཕབ་འཇུག་	-10721
གྱི་རྣམ་པ་	-10722
སྔར་ལས་ཆེ་བ་	-10723
རླངས་འཁོར་གྱིས་	-10724
མཚོན་པར་བྱས་ཡོད།	-10725
འོད་ཟེར་	-10726
▁མཐར་	-10727
ཤར་གྱི་	-10728
▁དེ་དང་ཆབས་ཅིག་	-10729
རེངས་	-10730
Matplot	-10731
གཉིད་འདང་	-10732
མཐོངས་	-10733
འདིའི་ཁྲོད་དུ་	-10734
དེབ་བསགས་	-10735
བར་བྱ་དགོས།	-10736
སྡུག་ཏུ་	-10737
རྣམ་འགྱུར་འཛིན་	-10738
ཐུབ་ཀྱི་མེད།	-10739
གཉེར་བའི་	-10740
སྲིད།དཔེར་ན།	-10741
ཕྱོགས་མང་པོར་	-10742
ཐོན་རྫས།	-10743
འབའ་	-10744
འགའ་ནས་	-10745
འཆར་ཡན་	-10746
དེ་སྔོན་	-10747
གང་ཞིག་འདེམས་	-10748
རྩིས་རྒྱག་སྟངས་	-10749
ཇེ་ཆེར་སོང་	-10750
ཞི་ཅིན་ཕེན་	-10751
ཁྱད་ཆོས་ལེན་པ།	-10752
འདུས་པས།	-10753
▁ཀུང་སི་	-10754
དབྱངས་འགྲོས་	-10755
སྔོན་རིམ་	-10756
པུན་	-10757
ོའར་	-10758
བྱས་པ་མ་ཟད་	-10759
ལས་གནས་ཐོག་	-10760
ལྷ་ཁང་	-10761
གྲངས་འབོར་དང་	-10762
མཉམ་འབྲེལ་གྱི་	-10763
▁སྤྱི་ཚོགས་ཀྱི་	-10764
མ་བྱས་པའི་	-10765
གོང་བུར་	-10766
▁འདི་དག་ནི་	-10767
▁སློབ་གསོའི་	-10768
དོ་མཉམ་ཡོང་བར་	-10769
སྤེལ་བ།	-10770
ཤུགས་ཀྱི་	-10771
ལ་མཐོང་ཆེན་	-10772
བཟོ་བར་	-10773
རིམ་པ་ལྟར་	-10774
ཁ་ཤས་ནི་	-10775
err	-10776
དཀའ་ངལ་སེལ་	-10777
ཆོག་པ།	-10778
བྱང་དུ་	-10779
སྐར་མ་ལྔ་	-10780
oS	-10781
ཞི།	-10782
སྒྲིག་ཁྲིམས་	-10783
འགུལ་རིས་ཀྱི་	-10784
གཟིགས་སྐྱོང་དང་	-10785
སྨི	-10786
ལ་གཏོར་བཤིག་	-10787
ཡུལ་སྐོར་བའི་	-10788
དྲུག་གི་	-10789
ཕྱོགས་སྒྱུར་	-10790
བློ་གྲོས་དང་	-10791
མེད་ན་	-10792
ཡོད་པ་དེ་ནི་	-10793
གདམ་ག་བྱེད་དགོས།	-10794
ལྟེ་བ་	-10795
ཁྱོད་དང་	-10796
བྱས་ནས་སྨན་པས་	-10797
ལམ་ཚད་རྡོ་རིང་	-10798
སྲིད་ཅིང་།	-10799
ཡིག་གཟུགས་ཀྱི་	-10800
སྡུད་དང་	-10801
རྙིང་ཚབ་	-10802
སྡེ་ཁག་གི་	-10803
སྒོག་	-10804
ཅུན།	-10805
གྲུ་ཁ་	-10806
ཚན་རྩལ་གྱིས་	-10807
བའི་མཐོང་ཆུང་དང་	-10808
rc	-10809
ལི་ཁེ་	-10810
Pomodoro	-10811
སྤྱི་ཁྲེ་	-10812
ཚབ་ཨང་ལ་	-10813
བཟོ།	-10814
ལྗོན་	-10815
འགར་བསམ་བློ་བཏང་	-10816
ཚོས་གཞི་	-10817
འཕར་བ།	-10818
པ་ལྟ་བུ་རེད།	-10819
ང་ཚོའི་ཐོན་རྫས་	-10820
WordPress	-10821
ཡོད།དེ་ནི་	-10822
མཛེས་བཟོའི་	-10823
སྤྱོད་སྐབས་	-10824
རང་གི་བསམ་ཚུལ་	-10825
གཟན་	-10826
ཐང་ཆད་	-10827
དེ་ཚོར་	-10828
སྐབས་རེ་	-10829
▁གཞན་ཡང་།	-10830
བདུན་གྱི་	-10831
བཙན་གནོད་	-10832
Scikit	-10833
ཐུབ་པར་སྨོན།	-10834
བྱེད་ངེས།	-10835
ཕོ་བྲང་གི་	-10836
▁plt	-10837
དང་།ཁ་	-10838
ཐིང་གི་	-10839
སྔོན་དུ་	-10840
དགོང་མོའི་	-10841
ཐོན་ལས་ཀྱི་	-10842
བྱེད་པ་རེད།	-10843
གན་རྒྱའི་	-10844
དམིགས་སུ་	-10845
SSL	-10846
ཉེས་པ་	-10847
ཆོ	-10848
ལ་གདོང་གཏོད་	-10849
གཟུགས་དབྱིབས་	-10850
དུས་སྐབས་ཀྱི་	-10851
འགྲན་རྒོལ་	-10852
རྣམ་གྲངས་དང་	-10853
ལམ་ནས་	-10854
སྨི་གྲུ་བཞི་མ་	-10855
དངོས་དཔེ་	-10856
རྒྱུན་འཁྱོངས་དང་	-10857
མཇལ་	-10858
ལས་མངོན་པར།	-10859
ཉེན་རྟོག་པའི་	-10860
ནང་དུ་བཅུག་	-10861
ཕྱི་མིག་	-10862
ས་ཁུལ་ཁག་གི་	-10863
གཅིག་གྱུར་གྱི་	-10864
མ་ཟླ་	-10865
ཐོབ་ཀྱི་	-10866
རྙོག་འཛིང་གི་	-10867
འཐག་	-10868
རྡོ་སོལ་	-10869
ཕྱོགས་བསྒྲིགས།	-10870
སད་	-10871
ལག་ཆ་ཞིག་	-10872
བྱེད་པ་དེ་ཡིན།	-10873
ཡང་ཟེར།	-10874
སྤྲད་དེ་	-10875
གནས་སུ་གྱར་	-10876
མཐུན་ཐབས་	-10877
བཅུ་གཅིག་	-10878
ཡོད་ཚད་ཀྱི་	-10879
བྱས་མོད།འོན་ཀྱང་	-10880
སུ་འཇུག་དགོས།	-10881
▁དེང་རབས་ཀྱི་	-10882
key	-10883
ཧྥུང་	-10884
སེམས་སྡུག་	-10885
ནུས་པ་ཆེ་བའི་	-10886
མཐོར་འདེགས་དང་།	-10887
ཆོག་པ་དང་	-10888
▁བརྩེ་དུང་	-10889
Un	-10890
དངོས་ཁམས་	-10891
▁ཚོགས་པའི་ཁོངས་	-10892
རྒྱུད	-10893
གིས་ཀྱང་	-10894
ཤེས་དཔལ་	-10895
ལས་སྟེགས།	-10896
ནི་ཨ་རིའི་	-10897
བཤུས་	-10898
ལོ་དང་	-10899
▁ཡིན་ནས་	-10900
རྐྱེན་ངན་	-10901
ལས་གཞན་	-10902
དབུལ་སྒྲོལ་	-10903
ཁ་པར་དང་	-10904
སྣང་མེད་	-10905
ག་གེ་མོ་ཞིག་	-10906
རྒྱུ་རྐྱེན་དང་	-10907
རང་འགུལ་ཅན་གྱིས་	-10908
བྱོས་	-10909
ཐད་གཏོགས་	-10910
སྐྱིན་ཚབ་	-10911
སྔ་མོ་	-10912
དྲ་བའི་ཐོག་	-10913
མཐུན་སྦྱོར།	-10914
ཟས་ཐོ་	-10915
སྡེ་ཁུལ་དང་	-10916
པའི་གནད་དོན་	-10917
ཡོང་འབབ་དམའ་བའི་	-10918
བདུན་པར་	-10919
▁g	-10920
གཞན་ལས་	-10921
མཇུག་རྫོགས་	-10922
ཐོན་རྫས་དང་།	-10923
བྱེད་པར་མཁོ་བའི་	-10924
བསྐྱོད་ནས་	-10925
སྒྲིག་ལྷུ་	-10926
བྱང་མའི་	-10927
ཕྱི་ནང་གི་	-10928
བྱ་སྤྱོད་དེ་	-10929
འཐུས་མིའི་	-10930
ཅན་དུ་འགྱུར་བ།	-10931
དབྱི་སི་ལན་	-10932
བྱེད་ཅིང་།	-10933
རྒན་པའི་	-10934
གོ་རིམ་ཁྲོད་ཀྱི་	-10935
Forest	-10936
གནམ་རིག་	-10937
མཇལ་འཕྲད་	-10938
ཁས་ལེན་དང་	-10939
དབྱང་འགྱུར་	-10940
ཡིས་སྨན་བཅོས་	-10941
རིགས་དབྱེ་ནས་	-10942
གལ་ཏེ་གཞི་གྲངས་	-10943
རཱ་	-10944
ལི་ཧྲ	-10945
དེའི་ནང་ནས་	-10946
ག་དུས་ཡིན་ཡང་	-10947
རྒྱུགས་ཆེ་བའི་	-10948
ཐེངས་གཉིས་པའི་	-10949
མིའི་བར་	-10950
ྦྱ	-10951
བྱེད་ནུས།	-10952
རང་ལ་ཡིད་ཆེས་	-10953
མཁོ་འདོན་བྱེད་པ།	-10954
ན་མི་	-10955
ཆབ་སྲིད།	-10956
དྲུང་ཡིག་	-10957
▁ཁོང་གི་སྐུ་	-10958
ཁང་ཆེན་	-10959
སྲིད་ཇུས།	-10960
དཀྲུག་	-10961
ཟ་མ་	-10962
▁དེ་སྔའི་	-10963
ཡ་མ་ཤུན་	-10964
བྱ་ཡུལ་དུ་	-10965
ལས་རོགས།	-10966
འབྲེལ་བ་ཡོད།	-10967
བཅས་ཀྱི་ཐོག་ནས་	-10968
ཕུ་བོ་	-10969
མིན་པར།	-10970
སྒྲོན།	-10971
སྐོར་ཞིག་	-10972
ཤེས་ལྡན་མི་སྣའི་	-10973
མཉམ་སྤྱོད།	-10974
བྱེད་ལས་	-10975
ཁོང་ཡངས་དང་	-10976
ཞིབ་བཤེར།	-10977
ཞིབ་ལྟ་	-10978
བཟོ་གི་ཡོད།	-10979
▁རྒྱུ་རྐྱེན་	-10980
ཁྲོད་ཀྱི་ཆེས་	-10981
ཞུམ་	-10982
▁དང་།	-10983
ཤས་ཆེ།	-10984
འདུན་པ་	-10985
བཤམས་སྟོན་	-10986
མདུན་དུ་ལྷ	-10987
ཧོན་	-10988
ལོ་ལྔ་	-10989
box	-10990
ཤོག	-10991
པ་སངས་	-10992
པྲོག་གསར་གློ་ཚད་	-10993
སྲོག་ཤིང་	-10994
དུས་ཚོད་དམ་འཛིན་	-10995
བྱབས་	-10996
བཀར་ནས་	-10997
ུམ།	-10998
དྲང་ཕྱོགས་ཀྱི་	-10999
ནུབ་ཕྱོགས་ཀྱི་	-11000
བྱས་རྗེས་འཇོག་	-11001
ཆུང་བ།	-11002
བློ་ཁ་	-11003
བསླབ་ཚན་	-11004
▁གསར་འགོད་པས་	-11005
པ་སེ་	-11006
འདོད་ཡོད།	-11007
གསང་སྲུང་	-11008
གྲུབ་མཐའ་	-11009
བྱས་ན་ཁྱོད་ལ་	-11010
ཁ་གསལ་བཟོས་ནས་	-11011
▁ང་ཚོ་	-11012
ལྡེབས་	-11013
སྤྱི་ལེ	-11014
བླང་བྱ་དང་པོ་ནི་	-11015
ཉེས་ཅན་	-11016
རྒྱལ་ཁ་ཐོབ་	-11017
KPI	-11018
ངོ་ཤེས་	-11019
མང་གི་	-11020
ས་འོག་ལྕགས་ལམ་	-11021
ཚོད།	-11022
གཏམ་གླེང་	-11023
རྙིང་ཚབ་གསར་	-11024
ཧྲིལ་བོ་	-11025
obe	-11026
བཤད་ཚུལ་	-11027
ache	-11028
ཚ་པོ་	-11029
རབ་རིབ་	-11030
རྨོ་	-11031
འཁྲབ་སྟོན་པའི་	-11032
དེ།དཔེར་ན་	-11033
ལེགས་སྒྱུར་དང་	-11034
ལས་འགལ་	-11035
ངར་ལྕགས་	-11036
འབྲུམ་	-11037
དེའི་ཁྲོད་	-11038
སིང་ཀ་ཕོར་	-11039
རི་མོ་ནི་	-11040
དམིགས་ཡུལ་ལ་	-11041
ཡག་པོ་བྱས་ནས་	-11042
ཟམ་པ་	-11043
སྤྱོད་པ་	-11044
ཁྱོད་ཀྱིས་ཀྱང་	-11045
བརྗེད་པར་	-11046
ཐབས་ཇུས་ནི་	-11047
ཆེ་རུ་གཏོང་བར་	-11048
སློབ་མ་ཚོར་	-11049
▁Te	-11050
རྩོམ་སྒྲིག་དང་	-11051
འདིའི་རིགས་ཀྱི་	-11052
AUC	-11053
བསམ་འཆར་བཏོན།	-11054
ཉེར་སྤྱོད་ཀྱི་	-11055
སྐྱིད་སྣང་དོད་	-11056
ཁྲབ་	-11057
འབྲིང་ཆུང་	-11058
ནན་ཅིང་	-11059
མ་ལག་ནི་	-11060
དབྱར་དུས་ཀྱི་	-11061
ཁྱབ་སྤེལ་གཏོང་	-11062
ཉིན་རེ་	-11063
དོ་མཉམ།	-11064
གཉིད་པའི་	-11065
འདྲིར་	-11066
ཡུལ་དུས་	-11067
བདུན་པའི་	-11068
སྤྱད་དེ།	-11069
ཚོར་བ་རྣོན་	-11070
མཚེ	-11071
ང་ཚན་	-11072
མིན་འདུག	-11073
དང་གྲངས་གཞི་	-11074
erse	-11075
པའི་སློབ་གནས་	-11076
མེད་ཚེ་	-11077
ཁ་དན་	-11078
ལག་ཆ་ཞིག་ཡིན།	-11079
སའི་གོ་ལ་	-11080
དབྱིང་	-11081
ཐུབ་ཡོད།	-11082
བྱེད་ན་བསམ།	-11083
དུ་ལོག་	-11084
ཡོད་པ་མ་ཟད་	-11085
▁བྱེ་བྲག་ཏུ་	-11086
བསམ་ཕྱོགས་	-11087
ཆེ་ཞིང་།	-11088
དོས་	-11089
འཛིན་གྲྭའི་	-11090
ནམ་ཞིག་ལ་	-11091
བཟའ་བཏུང་དང་	-11092
▁ངའི་གོ་ཐོས་ལ་	-11093
ཉེན་ཁ་སྔོན་དཔག་	-11094
རྩལ་ཁྲིད་པ་	-11095
▁ཝེ་	-11096
བྱ་ཆེད་	-11097
འཐུས་ཀྱི་	-11098
ཆེད་དུ་ཡིན།	-11099
བཟོ་རོགས་	-11100
དགའ་སྤྲོའི་	-11101
རྨང་གཞི་ཡིན།	-11102
གཅིག་པུ་	-11103
ལ་དུས་ཐོག་ཏུ་	-11104
སྙན་གྲགས་	-11105
ཁ་དོག་གི་	-11106
ཡོང་ན་	-11107
སྒྲིག་བཟོ་	-11108
གཉིས་ལྡན་གྱི་	-11109
གནས་ཚུལ་དེ་	-11110
མང་ཆེ་བས་	-11111
འདི་ཡང་	-11112
དགོས།འོན་ཀྱང་	-11113
དུད་སྣེ་	-11114
ཁྱིམ་ལས་	-11115
འཕེལ་རིམ།	-11116
པར་སྐུལ་མ་	-11117
དོན་རྐྱེན་དང་	-11118
apier	-11119
བཀོལ་ན།	-11120
ཚེ་རིང་།	-11121
ཁྱོད་ཀྱིས་ད་དུང་	-11122
མིང་གིས་	-11123
ཚོད་བལྟ་	-11124
ཧ་ཅང་མཐོ་	-11125
▁Ne	-11126
རིན་གོང་ནི་	-11127
གོ་སྐབས་ཐོབ་	-11128
རེ་རེའི་ནང་དུ་	-11129
ལྟེ་གནས།	-11130
མགྱོགས་སུ་གཏོང་	-11131
བཞི་པ།	-11132
▁ལག་ཆ་	-11133
རི་ཡའི་	-11134
ལས་ཀའི་ནང་	-11135
RE	-11136
གནད་དོན་སྣ་ཚོགས་	-11137
མིག་དབང་	-11138
ཁོངས་མིར་	-11139
ངོ་མའི་	-11140
སྤྲོ་བ་ཡོད་པའི་	-11141
བྱས་མི་	-11142
མཐའ་བསྡུར་	-11143
ཆེ་བ་ཞིག་ཡིན།	-11144
བཟང་ངན་	-11145
ence	-11146
ངལ་གསོ་རྒྱག་	-11147
རླུང་གཟུགས་	-11148
ཚོགས	-11149
ནང་སེམས་ཀྱི་	-11150
NumPy	-11151
ཐབས་མེད།	-11152
▁ཧ་	-11153
ལྷུག་	-11154
བཟོ་ཚོང་	-11155
རྨོངས་	-11156
རམ་ཡང་ན་	-11157
འཛམ་གླིང་ཐོག་གི་	-11158
udio	-11159
གི་ཡིན།	-11160
དང་གྲོང་རྡལ་གྱི་	-11161
སྡིག་	-11162
སྦྲུམ་	-11163
མཁའ་རླུང་གི་	-11164
▁གོང་དུ་བཤད་པའི་	-11165
འདུས་རིགས་ཀྱི་	-11166
བདའ་	-11167
ནང་དུ་ཞུགས་	-11168
ཆུང་ང	-11169
ཞིབ་ཚད་	-11170
ས་རྒྱུའི་	-11171
བསམ་གཞིག་གི་	-11172
ཨེ་ཅིབ་	-11173
གང་ཞིག་ལ་	-11174
ཞོག་ཁོག་	-11175
ལས	-11176
བའི་སྒོ་ནས་	-11177
སྤྱོད་པ་དང་	-11178
དཀྱིལ་དུ་	-11179
གནད་དོན་ཡང་	-11180
འགོག	-11181
▁r	-11182
གར།	-11183
སྤྱད་པ་	-11184
སྟེགས་བུ་དང་	-11185
བྲིས་ཡོད།	-11186
མ་དཔེ་དེ་	-11187
RM	-11188
དོན་ཚན་གྱི་	-11189
མིའི་ཐོབ་ཐང་དང་	-11190
Sh	-11191
འགྱུར་ཚད་ཀྱི་	-11192
གཏོང་བའི་ཐབས་ལམ་	-11193
ཉ་འཛིན་	-11194
ལུས་ཀྱི་	-11195
མཐོ་ཚད་སྨི་	-11196
གཞི་རྒྱུ་དང་	-11197
རླངས་འཁོར་དང་	-11198
རྒྱང་སྒྲོག་	-11199
མཁོ་བའི་ཆ་འཕྲིན་	-11200
འདྲི།	-11201
མགོའི་	-11202
གྲོང་མིས་	-11203
ཞིག་བཙུགས་ནས་	-11204
ཕོ་མོའི་བར་གྱི་	-11205
མཁའ་དབུགས་	-11206
▁དཔེ་	-11207
དེ་དག་ལས་	-11208
ལམ་ཐིག་གི་	-11209
བརྟན་བརླིང་	-11210
ལ་དམིགས་ཏེ་	-11211
ལ་ཞུགས།	-11212
བྱེད་ཚུལ་	-11213
དེར།	-11214
ཉེ་དུས་	-11215
འཕྲིན་ལམ་	-11216
འཕྲུལ་འཁོར།	-11217
ཚད་ཡོད་ཀུང་སིས་	-11218
ལ་བག་	-11219
བྱེད་འགོ་བརྩམས།	-11220
ཡོ་རོབ་གླིང་གི་	-11221
སྤྱོད་འགོ་ཚུགས་	-11222
ཆ་ཕྲན་	-11223
ཕན་ཐོགས་པའི་	-11224
MRI	-11225
▁ཧན་	-11226
འཁྲུ་	-11227
དྲག་སྐྱེད་	-11228
He	-11229
acity	-11230
མགྲོན་ཁང་	-11231
པ་ཞིག་ནི་	-11232
▁ཏ་	-11233
སྤྱད་ན།	-11234
ཕྲག་ཁ་ཤས་	-11235
གོམ་གང་	-11236
མཐོང་རྒྱ་	-11237
ཆེན་པོ་ལྡན་ཡོད།	-11238
བ་བཅས་བྱེད་དགོས།	-11239
ཁོང་ཡངས་བཅས་ཀྱི་	-11240
ange	-11241
སྲན་མའི་	-11242
བར་དུ།	-11243
རཱ་ཏར་	-11244
གྲངས་འབོར་ནི་	-11245
སྤྲི་དཀར་གྱི་	-11246
per	-11247
འགོར།	-11248
ང་ཚོས་དེ་བས་	-11249
རྒས་	-11250
མ་གནས་ཀྱི་	-11251
གནད་དོན་གཞན་པ་	-11252
by	-11253
༡༣	-11254
འགྲན་བསྡུར་དེ་	-11255
སེམས་ལ་ཟ	-11256
མ་བྱས་ཚེ་	-11257
ཅུང་དམའ་བའི་	-11258
ཁ་པར་ཨང་གྲངས།	-11259
SA	-11260
ཚད་ལ་སྨི་	-11261
ལོ་རེའི་	-11262
ཐུགས་ཁུར་	-11263
དཔེ་རིས་དང་	-11264
གྲངས་ཚད་དང་	-11265
ཁ་གཏད་འཇལ་དགོས།	-11266
དགེ་རྒན་ཆེན་མོ་	-11267
པ་ཞིག་ཡིན་པ་དང་།	-11268
ཐེངས་འདིར་	-11269
ཧྲའན་ཞི་	-11270
མ་བཟུང་བའི་	-11271
བྱེད་སྟངས་ཤིག་	-11272
IFTT	-11273
ཡག་པོ་འདུག	-11274
མེད་ཅིང་།	-11275
བྱས་པ་དེ་	-11276
ཟས་རིགས་ཀྱི་	-11277
▁གལ་ཏེ་ཁྱེད་ལ་	-11278
པ་ནས་ཟླ་	-11279
ཙམ།	-11280
འགྲིག་གི་	-11281
ཕའེ་	-11282
སྔོ་ཚལ་དང་	-11283
ས་ཆ་དེ་གའི་	-11284
▁དེ་མིན་	-11285
ངེས་ཅན་གྱི་	-11286
ཤ་གནད་ཀྱི་	-11287
ཚོད་སྐོར་གྱི་	-11288
བསྐུར་བའི་	-11289
ཧུར་ཐག་བྱས་ནས་	-11290
བྱེད་དགོས་ཚེ་	-11291
ཏཱ་	-11292
ཚན་རིག་དང་མཐུན་	-11293
ཆུ་བེད་	-11294
ཅཱ་	-11295
གཤམ་གྱི་དཔེ་	-11296
▁ཁྱེད་རང་གི་ངར་	-11297
སི་ཡིས་	-11298
འཚམ་པ་རེད།	-11299
དེ་ཡོངས་ཀྱི་	-11300
སྤྱི་ཚོགས་ནང་	-11301
ཐད་མཐོང་	-11302
སྒྲ་ནུས་	-11303
འདིས་ཁྱེད་ཀྱིས་	-11304
SWOT	-11305
འདི་དག་ཚང་མ་	-11306
▁ཆོག་	-11307
ཚན་པས་	-11308
མ་བཏང་	-11309
TL	-11310
ཅན་བཅས་ཀྱི་	-11311
Text	-11312
དུས་འགོའི་	-11313
མཛེས་སྡུག་དང་	-11314
ཡིད་ཚིམས་པའི་	-11315
དྲན་སྐུལ།	-11316
བྱེད་སའི་	-11317
ཇེ་བཟང་དུ་གཏོང་	-11318
ཆིས་	-11319
འཁོར་བའི་	-11320
སིལ་ཏོག་	-11321
ཨ་སྒོར་ཁྲི་	-11322
སྙིང་དང་	-11323
ཡོང་རྒྱུ་	-11324
ཡུལ་ཤུལ་	-11325
སྐོར་ཞིབ་	-11326
བཅས་ནི་	-11327
ཁག་གཅིག་ལ་	-11328
དྲ་ཚིགས།	-11329
ཤར་མའི་	-11330
གཉིད་ཀྱི་	-11331
སྤྱི་འབྲེལ་	-11332
ཉན་དགོས།	-11333
སྐར་མ་༢༥	-11334
སྐོར་གཡེང་	-11335
བྱས་ནས་གཞི་གྲངས་	-11336
ཤའི་	-11337
སྣུར་	-11338
ཀྱི་ལག་རྩལ་	-11339
གཞུང་ལུགས་ཀྱི་	-11340
ཤའོ་	-11341
འགྲུབ་པར་	-11342
ཕན་ཚུན་བར་གྱི་	-11343
འཐུས་ཚང་དུ་གཏོང་	-11344
ལ་ཤུགས་	-11345
བཅས་ལ་རོགས་རམ་	-11346
ང་ཚོས་ངེས་པར་དུ་	-11347
སློབ་ཆེན་གྱིས་	-11348
པ་ཞིག་ཏུ་འགྱུར་	-11349
si	-11350
ཕྱིར་བསྡུ་	-11351
བརྟན་པོའི་ངང་	-11352
ཆོག་ལ་	-11353
ཡར་ཞུ་	-11354
བྱས་པའི	-11355
སྔོན་ནས་	-11356
ཅན	-11357
ཞིག་ཏུ་བརྩི་	-11358
དུས་ཚོད་བརྩི་	-11359
འོས་སྦྱོར་དང་	-11360
ཚན	-11361
ཤིས།	-11362
དད་མོས།	-11363
ཐོབ་ཐང་ཞིབ་བཤེར་	-11364
ct	-11365
ན་ཡོད།	-11366
སྲུང་སྐྱོང་དང་།	-11367
སྨན་དོན་	-11368
རྒྱུགས་སྤྲོད་	-11369
དུས་གཏན་	-11370
ཚབ་རྩིས་	-11371
བྱས་ཏེ་དེ་བས་	-11372
ཨང་དང་པོ་ཐོབ་	-11373
ཉན་འཇོག་	-11374
ྔོན་	-11375
ཉིན་བཞིན་	-11376
བཏོན་ཡོད།	-11377
ཤར་ཕྱོགས་	-11378
ཡང་བྱ་དགོས།	-11379
ount	-11380
བཅས་བྱེད་ཐུབ།	-11381
བུན་འཛིན་གྱི་	-11382
མོད།འོན་ཀྱང་དེས་	-11383
ཀློག་པ་པོའི་	-11384
ཉོས་ནས་	-11385
དཔྱད་གཏམ།	-11386
གཡས་གཡོན་	-11387
བྱེད་སྲིད་དམ།	-11388
མ་འཇོག་ཐབས་ཇུས་	-11389
ནང་བཅུག་	-11390
འདུགཅེས་	-11391
ཆུར་	-11392
སོགས་སྤྱད་ནས་	-11393
འདོན་པ།	-11394
དཔོད་ཆུང་	-11395
སྔོ་ཚལ།	-11396
བྱེད་པ་ནི་ཧ་ཅང་	-11397
ལག་འགུལ་	-11398
གློག་བརྙན	-11399
ཉེན་ཁ་ཚོད་འཛིན་	-11400
ཅ་ལི་	-11401
འཁོར་རིགས་	-11402
མཐུན་འཕྲོད་	-11403
བདམས།	-11404
ཉེན་མཆོང་	-11405
ཧྲེན་ཀྲེན་	-11406
ཚོང་པའི་	-11407
ཡོང་བ་དང་།	-11408
མིག་དམར་	-11409
རྒྱུར་དགའ་པོ་	-11410
ཀའེ་	-11411
སྔར་ལས་མཐོ་བའི་	-11412
ལ་སློབ་སྦྱོང་དང་	-11413
གདགས་	-11414
དེ་ནི་ཧ་ཅང་	-11415
ཀུ་ཤུའི་	-11416
འདིའི་ནང་གི་	-11417
arch	-11418
▁ཀྲུང་	-11419
ཡིག་དང་	-11420
སུར་པན་	-11421
ཤེས་གསལ་	-11422
མང་པོ་ཐོབ་	-11423
མི་ཡིན།	-11424
ཡིན་ཟེར།	-11425
▁the	-11426
ཁོར་ཡུག་ཏུ་	-11427
བར་མཐོངས་	-11428
ནང་གསེས་	-11429
ཐུབ་པའི་རང་བཞིན་	-11430
ition	-11431
སློབ་གསོ་ནི་	-11432
ཞིག་ཇུས་འགོད་	-11433
མཛའ་གྲོགས་ཀྱི་	-11434
ཇི་ལྟར་གཏན་འཁེལ་	-11435
Adobe	-11436
བྱེད་རིགས་	-11437
བྱེད་སེམས་	-11438
དང་།བརྙན་ལམ།	-11439
ནུས་རྩལ།	-11440
འགྲན་སྡུར་	-11441
མཛུབ་རིས་	-11442
བྱས་པ་སྟེ།	-11443
ར་སྤྲོད།	-11444
འཛུགས་རྒྱུའི་	-11445
གཞུང་ཕྱོགས་ཀྱིས་	-11446
▁y	-11447
དབྱིན་ཀེ་	-11448
མང་དུ་ཕྱིན་	-11449
དང་བར་ཐག་	-11450
ལས་གཞིའི་	-11451
བྱས་ཏེ།སྨན་པས་	-11452
བཞུགས་མོལ་	-11453
རྗེས་འདེད་ཀྱི་	-11454
ཇེ་སྡུག་ཏུ་	-11455
ལོའི་སྔོན་གྱི་	-11456
དབྱར་ཁར་	-11457
གུང་ཁྲན་ཏང་གི་	-11458
ལྟ་བར་	-11459
འདེམ་པར་	-11460
ཀྲུང་གོའི་སྐམ་ས་	-11461
རགས་ཙམ་	-11462
མང་པོ་འདུས་ཡོད།	-11463
བརྟེན་བྱའི་	-11464
ནད་ཕོག་	-11465
བྱེད་ཐབས་མེད།	-11466
ཡང་ན་གྲོང་བརྡལ་	-11467
ཚོར་བ་དང་	-11468
ལས་ཕྱོད་ཆེ་རུ་	-11469
ཀླུ་	-11470
ྨན་བཅོས་	-11471
ལྷོད་གཡེང་དང་	-11472
མདོག	-11473
ཁ་ཕྲལ་	-11474
ལས་གྲོགས་དང་	-11475
སྐད་ཡིག་དང་	-11476
▁ངས་ཤེས་འདོད་	-11477
པར་ཆས་	-11478
LGBT	-11479
ཨིན་	-11480
འཛུགས་རྒྱུ་ནི་	-11481
ཁུག	-11482
ision	-11483
ལོན་ཏོན་	-11484
▁ལོ་ཙཱ་	-11485
ef	-11486
སྲིད་གྲོས་ཀྱི་	-11487
ཡིད་ཆེས་ཡོད་ཅེས་	-11488
གྱི་ཕན་འབྲས་	-11489
so	-11490
གོང་ཁེ་	-11491
ལ་བརྩི་	-11492
GPU	-11493
ཚན་རིག་དང་	-11494
ཧ་ཅང་ཆེ་བའི་	-11495
གནོད་འཚེའི་	-11496
▁frm	-11497
སྐད་ཆའི་	-11498
སྲིད་པ་དཔེར་ན།	-11499
ལི་ཡིས་	-11500
དང་བར་ཆད་	-11501
རྩ་འཛུགས་ལ་	-11502
pon	-11503
note	-11504
འཛུམ་མདངས་	-11505
བཅས་ལ་རྒྱུས་ལོན་	-11506
སྐབས་བསྟུན་གྱིས་	-11507
མ་འདང་	-11508
ཤིག་ནི་	-11509
མང་ཆེ་བར་	-11510
ལ་ཁྱད་པར་	-11511
ནུས་ཤུགས་ཀྱི་	-11512
སྒོ་ལྕགས་	-11513
ཚད་ཡོད་ཀྱི་	-11514
ཚད་མཐུན་ཅན་གྱི་	-11515
མ་ཐུབ་ཚེ་	-11516
ཉེ་ལམ་	-11517
ཟེར་བ་དང་།	-11518
རྩལ་སློབ་	-11519
▁གསུམ་པ།	-11520
དང་མི་མངོན་པའི་	-11521
བཟོར་	-11522
སྙན་ངག་ཅིག་	-11523
འབུར་དུ་ཐོན་	-11524
འདི་དག་ཚང་མ་ནི་	-11525
ནི་དེ་བས་	-11526
གོ་རིམ་དེ་	-11527
ཆོག་པས་	-11528
མངག་ཉོ་	-11529
ber	-11530
ཐེབས་སྲིད་པས།	-11531
ལས་ཀའི་ལས་ཆོད་	-11532
ཁག་དང་	-11533
རྒྱལ་ཁ་ལེན་	-11534
རོལ་དབྱངས་དང་	-11535
ལུས་རྩལ་པ་	-11536
བྲོ་བ་ཞིམ་པའི་	-11537
བུན་འཛིན།	-11538
▁ཁོར་ཡུག་	-11539
▁ཐེ་	-11540
དམག་ཆེན་	-11541
འགྲོ་བ།	-11542
ཤིག་ཀྱང་ཡིན།	-11543
རྒྱ་ཆེར་གཏོང་	-11544
ཀྱང་།	-11545
བྱེད་པའི་དབང་ཆ་	-11546
རང་རང་གི་	-11547
བཏང་བས་	-11548
བློ་ལ་བབས་	-11549
བྱེད་བཞིན་པ།	-11550
བྱེད་དགོས།རང་གི་	-11551
ནན་ཅིན་	-11552
གཞན་པར་	-11553
སོགས་ཚུད་ཡོད་པས།	-11554
སྦག་	-11555
དབྱིབས་རྩིས་	-11556
བརྙས་	-11557
འཁྲུད་	-11558
རང་སོ་སོའི་	-11559
ཆབ་སྲིད་དང་།	-11560
དྲའི་	-11561
མ་ཡིན།	-11562
དམའ་པོ་	-11563
མཇུག་འབྲས་དང་	-11564
མིང་ནི་	-11565
འཁྲུག་ཆ་དོད་པའི་	-11566
གཞིར་བཟུང་།	-11567
འདྲེས་འགྱུར་	-11568
IP	-11569
ཕིག་	-11570
བྱ་བའི་ལས་ཆོད་	-11571
་་	-11572
བརྒྱད་པར་	-11573
ཁ་སྣོན་བྱེད་པ།	-11574
ener	-11575
ྦྱོང་	-11576
མི་དེ་བས་མང་བས་	-11577
▁འོན་ཀྱང་གལ་ཏེ་	-11578
suite	-11579
ངོས་ལེབ་	-11580
ཡོད་པ་མཐོང་	-11581
གཞུག་	-11582
▁ཅིན་	-11583
དེའི་ཐད་	-11584
ལས་ཀ་ནི་	-11585
གདགས་གཤིས་	-11586
སྔར་ལས་མང་	-11587
ལ་འཛེམ་དགོས།	-11588
ཐུབ་པ་བྱ་དགོས།	-11589
འདོན་སྤྲོད་བྱས།	-11590
ཚིག་སྦྱོར་བདེ་	-11591
ག་རེ་ཡོད་དམ།	-11592
སྐྱུ་རུའི་	-11593
དེ་བས་མང་བར་	-11594
ཞུས་པ་རེད།	-11595
སྐྱེད་སྲིང་	-11596
ཁུལ་དུ་གཏོགས།	-11597
ཨུ་ཡོན།	-11598
སྤྱི་རྒྱ་	-11599
བབས་ཚུགས་ཀྱི་	-11600
ཁུངས་འདེད་	-11601
གོ་སླ་	-11602
ཟིང་ཆ་	-11603
འདེམ་ཤོག་	-11604
དེ་དག་བརྒྱུད་	-11605
ཞའོ་མིན་གྱིས་	-11606
དགོས་པས་	-11607
བཅོས་བསྒྱུར་	-11608
མཉམ་ལས་རོགས་ཟླ་	-11609
མཐོ།	-11610
བཟའ་བཅའ།	-11611
angu	-11612
▁num	-11613
མ་དང་།	-11614
འདུག་གམ།	-11615
སྤུས་ཚད་དང་།	-11616
ཉན་མཁན་	-11617
བསྟོད་བསྔགས་	-11618
ཛ་དྲག་ཏུ་	-11619
ཐེངས་གཅིག་ལ་	-11620
སྔོ་ཚོད་	-11621
རྒྱུག་གི་	-11622
རིག་ནུས་ལས་རོགས་	-11623
▁as	-11624
▁ཡང་	-11625
སྤྲོ་སྣང་འཕེལ་	-11626
ལམ་ཆེན་	-11627
བྱས་ན།ང་ཚོས་	-11628
བསྡད་ཡོད།	-11629
འཆར་གཞི་ལ་	-11630
ལོར་སླེབས་སྐབས་	-11631
འཚར་ལོངས་དང་	-11632
གཅིག་མཐུན་གྱི་	-11633
ཡིན་པ་དཔེར་ན།	-11634
གནད་དོན་ཐོན་	-11635
པའི་རྒྱུ་རྐྱེན་	-11636
ཤིའུ་	-11637
སྒྱུར་བཀོད་	-11638
མི་ལ་ལ་ཞིག་གིས་	-11639
དང་འདྲ་བར།	-11640
སྣ་ཚོགས་དང་	-11641
བྱས་ན་ང་ཚོས་	-11642
མངོན་སུམ་གྱི་	-11643
གནས་འཕྲིན་	-11644
མདུན་སྤོས་	-11645
གང་ཐུབ་བྱ་དགོས།	-11646
▁གལ་ཏེ་ཁྱེད་ཀྱི་	-11647
མི་ཚེ་	-11648
བློ་འདྲི་ས་	-11649
rain	-11650
གསར་སྒྱུར་དང་	-11651
ཁ་གཏད་འཇལ་བའི་	-11652
དབང་ཆར་	-11653
བྲོ་རྫས་	-11654
མཁས་པའི་	-11655
འགོག་བཅོས་	-11656
སྟོན་དགོས།	-11657
ཚབ་བྱེད་ཐབས་བྲལ་	-11658
གྲུབ་འབྲས།	-11659
ལ་གཞིགས་པའི་	-11660
དགའ་ཕྱོགས་ལྟར་	-11661
མེད་རེད།	-11662
ཁོའུ་	-11663
ལས་སྒྲོལ་	-11664
བཞིན་ཡོད་པ་རེད།	-11665
རྟོགས།	-11666
nam	-11667
ཐབས་ལམ་དང་	-11668
བརྙན་རིས་ལ་	-11669
གཞན་ཞིག་ཡིན།	-11670
ཕྱི་ཕྱོགས་ཀྱི་	-11671
མི་བདེ་	-11672
》《	-11673
ཤེས་ན།	-11674
དང་།ཡང་ན་	-11675
དམངས་གཙོའི་	-11676
བྱས་ཆོག་།	-11677
ལ་རྒོལ་	-11678
མདུན་ཕྱོགས་སུ་	-11679
རྩིས་རྒྱག་དགོས།	-11680
གང་ལ་གང་འཚམ་གྱི་	-11681
འགྲན་རར་	-11682
ང་ཚབ་	-11683
ཐུག་གི་	-11684
ལག་ཆ་འགའ་	-11685
▁ཐོན་ཁུངས་	-11686
ནས་ཤེས་རྟོགས་	-11687
ཡིག་རིགས་དང་	-11688
ཟས་རིགས་དང་	-11689
མཉམ་འབྲེལ་ལྷན་	-11690
ཙམ་གྱིས་	-11691
ཆུ་འདྲེན་	-11692
ཧྥུའུ་ཅན་	-11693
དང་ལས་ཆོད་	-11694
དེ་དག་ཚང་མས་	-11695
ཡིག་ཚགས་ཀྱི་	-11696
གོམ་པ་དང་	-11697
ཞིག་ཡིན་ལ་	-11698
ཨ་ལན་སློག་	-11699
བཟོ་བཅོས་རྒྱག་	-11700
འགུག་དགོས།	-11701
ལུས་ཕུང་བདེ་ཐང་	-11702
rr	-11703
ནག་པོའི་	-11704
མ་ཟ་	-11705
སྙོམས་ངོས་	-11706
ཁ་པར	-11707
གྲོང་མིར་	-11708
སྤྲད་པ་རེད།	-11709
བྱེད་དགོས།དེ་ནི་	-11710
ཡོན་ཏན་	-11711
ལས་རིགས་ཁྲོད་དུ་	-11712
བཀྲ་བའི་	-11713
ཚོང་འགྲིག་	-11714
དོ་སྣང་བྱ་དགོས།	-11715
ཁམ་བུའི་	-11716
སོམ་	-11717
ལ་བབ་	-11718
སྒོ་བྱང་	-11719
རང་མོས་ངང་	-11720
press	-11721
བལྟ་དགོས།	-11722
བྱ་དགོས་པ་ལས།	-11723
མཉམ་དུ་བསྲེས་	-11724
ཉན་ན་	-11725
སྟོང་གི་	-11726
མང་པོ་དང་	-11727
པའི་རྣམ་པ་	-11728
འགྲན་ཞུགས་	-11729
མིའི་ཐོབ་ཐང་གི་	-11730
འགའ་འདུས་པ་སྟེ།	-11731
ཀྲའེ་	-11732
ཀྲེ་ཅང་ཞིང་ཆེན་	-11733
མཛེས་ཆས་	-11734
འཐུས་ཚང་དུ་	-11735
▁ཐང་	-11736
གཡོ་བཅོས་	-11737
ool	-11738
།།།།	-11739
ཡོད་པས།ང་ཚོས་	-11740
བྱེད་ཐུབ་པ་དང་	-11741
འོས་སྦྱོར་མ་ལག་	-11742
སྤྲད་ན་	-11743
ཚབ་ཨང་དང་	-11744
ཞན་གྱི་	-11745
ཆིག་	-11746
དང་བརྩེ་དུང་	-11747
རིགས་བགར་	-11748
ཏུ་བསྒྱུར་	-11749
ཚད་ལ་གཞིགས་ནས་	-11750
འཇེབས་	-11751
རྩ་ཁྲིམས་	-11752
དང་ཁྱད་ཆོས་	-11753
མི་བདེ་བའི་	-11754
ཆ་ཤས་ཤིག་ཡིན།	-11755
ཞིག་ཡིན་པས།དེས་	-11756
CO	-11757
གཞན་ཞིག་ནས་	-11758
དབུགས་རྔུབ་ལེན་	-11759
URL	-11760
སྟངས་ཀྱི་	-11761
ཡོད་པ་དེས་	-11762
ལྷོ་རྒྱུད་	-11763
བྱེད་ཐབས་འདིས་	-11764
སློབ་གཉེར་	-11765
རང་ལྗོངས་ཀྱི་	-11766
བྱས་ཏེ།གཞི་གྲངས་	-11767
རྩིས་རྒྱག་དང་	-11768
ཆེད་སྤྱོད་	-11769
ld	-11770
པོར་གྱུར་	-11771
ངས་རང་ལ་	-11772
ཚད་ཀྱིས་	-11773
ཕན་འབྲས་ཀྱི་	-11774
འཚོ་བཅུད་ཀྱི་	-11775
དགོང་མོ་	-11776
སྡེ་ཚན་གྱི་	-11777
ཁ་པར་ཨང་གྲངས་	-11778
མ་དངུལ་འཇོག་མཁན་	-11779
ཁུངས་ཀྱི་	-11780
▁ཐེངས་འདིའི་	-11781
དཔོན་པོ་	-11782
བསྡུར་ཚད་ལ་ཟེར།	-11783
གསོག་འཇོག་གི་	-11784
རྒྱུན་ལྡན་ལྟར་	-11785
ཝན་གྱི་	-11786
གང་ཡིན་ནམ།	-11787
པེ་ཅིང་དུ་	-11788
གཉིས་ནས་	-11789
ཧུའུ་ནན་	-11790
འགྲེམ་སྤེལ་	-11791
བྱེད་བདེ་བའི་	-11792
རིགས་དགར་	-11793
སེམས་ལ་ཟུངས།	-11794
བཀོད་པ་	-11795
དང་ནོར་འཁྲུལ་	-11796
བྱེད་པར་བཀོལ་ཆོག	-11797
ཐའེ་དབ	-11798
ལས་ཀ་དང་འཚོ་བའི་	-11799
▁ཆབ་སྲིད་ཀྱི་	-11800
འཕྲད།	-11801
ལྷོ་ཁུལ་	-11802
དེ་སྨན་བཅོས་	-11803
MA	-11804
བ་ལས་	-11805
▁ཞིང་	-11806
དེ་དག་ཚང་མ་ནི་	-11807
འཚོ་རྒྱུ་	-11808
བྱས་པ་དཔེར་ན།	-11809
མ་རྩ་འཇོག་པའི་	-11810
ཁོམ་	-11811
གསལ་སྟོན་	-11812
ཁང་བའི་ནང་གི་	-11813
དྲག་ཤུགས་ཀྱི་	-11814
Keras	-11815
ཧན་གྱི་	-11816
སླར་གསོ།	-11817
ཐབས་ཤེས་འགའ་	-11818
བསམ་འཆ	-11819
ཆུང་དུས་ནས་	-11820
ཐབས་ཇུས་ལག་བསྟར་	-11821
དེའི་མིང་ལ་	-11822
སྐྱེལ་འདྲེན།	-11823
ལ་རོགས་བྱས་ནས་	-11824
input	-11825
ཕྱུག་པོ་	-11826
བརྩེ་སེམས་ཀྱི་	-11827
ལས་ཀ་མ་བྱས་གོང་	-11828
ཞན།	-11829
▁ལུའུ་	-11830
བརྗེ་དགོས།	-11831
འབུའི་	-11832
ཡིས་ནད་པའི་	-11833
མ་ལག་འདིས་	-11834
ལས་བཟོར་	-11835
མཚན་ཉིད་ཀྱི་	-11836
འགྲོ་གྲོན།	-11837
ལྟེ་གནས་ཀྱིས་	-11838
རླབས་ཀྱི་	-11839
ཆོད་སེམས་	-11840
ES	-11841
དངུལ་བ	-11842
ཆུང་བས་	-11843
མིན་ལ་	-11844
ཧ་ཅང་མང་	-11845
བྱས་ནས་རང་གི་	-11846
རིན་མི་དགོས་པར་	-11847
མངགས་ཐོ་	-11848
ཇེ་མཐོར་བཏང་སྟེ།	-11849
གཏོང་མཁན་	-11850
ངོས་འཛིན་གྱི་	-11851
བར་བྱེད་དགོས།	-11852
འདེམ་སྐབས།	-11853
ལྡོག་ཕྱོགས་སུ་	-11854
གནས	-11855
ལྷིང་འཇགས་དང་	-11856
བྱ་དགོས་པ།	-11857
གཤམ་དུ་དེ་ནི་	-11858
རྨས་སྐྱོན་ཕོག་	-11859
བྱ་བའི་ཁྲོད་དུ་	-11860
ཡིག་ཆ་མཉམ་སྤྱོད་	-11861
ཁྱེད་ནི་	-11862
བྱས་པའི་ཆ་འཕྲིན་	-11863
ཁྱབ་གདལ་དང་	-11864
གྲུབ་ཐུབ།	-11865
དང་ལེན་པའི་	-11866
སློབ་ཁྲིད་དང་	-11867
བཀོལ་སྤྱོད་ནི་	-11868
ནང་ཁུལ་དུ་	-11869
བརྒྱད་ཀྱི་	-11870
རྒྱ་ཁྱབ་ཀྱི་	-11871
འཕར་ཡོད།	-11872
གྲིམ་	-11873
གྲོང་ཁྱེར་ལ་	-11874
ཉེས་གསོག་གི་	-11875
དམངས་ཀྱི་	-11876
ཕྱིར་མིག་	-11877
གྲོས་ཆོད་	-11878
cept	-11879
ངོས་ལས་	-11880
བརྗེ་སྤོར་	-11881
འདི་ལོའི་	-11882
སྙན་ཚིག་	-11883
འདྲེ་	-11884
བཞག་སྟེ་	-11885
སྐྲག་མི་དགོས།	-11886
བྱེད་ཐུབ་པ་	-11887
མྱུར་ཚད་ཀྱི་	-11888
མཐོ་སློབ་	-11889
གསར་འགྱུར་དང་	-11890
འབྲེལ་འདྲིས་དང་	-11891
ནར་སོན་པའི་	-11892
རྒྱལ་ནང་དུ་	-11893
བྱ་སྤྱོད་ནི་	-11894
པི་ཡའི་	-11895
དམིགས་ཚད་ལ་	-11896
མི་འདྲ་བ་དང་།	-11897
མེད་པར་བཟོས་ནས་	-11898
འཕེལ་ཕྱོགས་དང་།	-11899
ཚབ་བྱེད་སྲིད་དམ།	-11900
ང་དང་	-11901
ཉུང་ཉུང་	-11902
དགོས་མཁོ་དངོས་	-11903
གསོ་རིག་བརྙན་པར་	-11904
བྱེད་སྲིད་པའི་	-11905
བྱེད་སླ་བ་རེད།	-11906
བྱེད་ཐུབ།དཔེར་ན་	-11907
oop	-11908
མགྱོགས་པོ་	-11909
འཆམ་མཐུན་གྱི་	-11910
རོལ་རྩེད་རྩེ་	-11911
བྱ་གཏ	-11912
བ་དང་།མ་གནས་	-11913
ཐབས་ཇུས་བཀོད་	-11914
ལྟ་སྐུལ་མེད་པའི་	-11915
ཡིག་སྒྱུར་གྱི་	-11916
cur	-11917
གཅིག་ལྕོགས་	-11918
ལ་དོ་སྣང་བྱས་ཏེ།	-11919
ales	-11920
▁and	-11921
བྱ་གཏོལ་	-11922
ནུས་པ་ནི་	-11923
དང་།དཔེར་ན་	-11924
ཟུར་བཀོད་	-11925
ཞིབ་འཇུག་བྱེད་པ།	-11926
ཚོད་འཛིན་བྱས་ཏེ།	-11927
འབྱམས་	-11928
ལག་པར་	-11929
ཕྱི་དབྱིབས་	-11930
སྲས་མོ་	-11931
སྲིད་ལོ་བཅུ་	-11932
འགྲེལ་བཤད་དང་	-11933
བསླུས་	-11934
ལེན་པ་དང་	-11935
གད་སྙིགས་དང་	-11936
▁to	-11937
pr	-11938
ཐོན།	-11939
མཐེབ་གཞོང་	-11940
དམིགས་སུ་བཀར་ནས་	-11941
དུ་དབྱེ་	-11942
མཛོད་ཅིག་	-11943
སྔོན་ཆད་ཀྱི་	-11944
▁འོས་འཚམ་གྱི་	-11945
ཐག་གཅོད་བྱས་ཏེ་	-11946
མེད་པར་བཟོས་ཏེ།	-11947
སྤོས་འགྱིག་	-11948
དཀའ་ཁག་ལ་འཕྲད་	-11949
རྒྱུགས་ལེན་པའི་	-11950
ཨང་སྒྲིག་ནི་	-11951
བྱང་ཕྱོགས་ཀྱི་	-11952
བྲག་ཕུག་	-11953
སྤྲོ་སྣང་དང་།	-11954
འཁོར་སྐྱོད་ཀྱི་	-11955
▁Verse	-11956
པར་གཞི་ཚོད་འཛིན་	-11957
ign	-11958
ཡུས་ཀྱི་	-11959
རྗེས་མཐུད་ཀྱི་	-11960
ནན།	-11961
ཁེ་སི་	-11962
▁རྒྱལ་ཁབ་ཀྱི་	-11963
ཆག་གི་	-11964
བྱས་མེད།	-11965
ཕྱིར་སྡོད་	-11966
ལ་བཀོལ་ཆོག	-11967
དགའ་བསུ་ཐོབ་	-11968
གཏམ་རྒྱུད་དང་	-11969
ETF	-11970
བྱས་ཡོད་ཅིང་།	-11971
ཧྲོང་	-11972
ལ་ཕན་པ་	-11973
▁དེ་ནས།	-11974
ཕྱོགས་པའི་	-11975
མཆན་འགྲེལ་	-11976
འབུ་སྲིན་	-11977
རྒྱལ་ཁབ་ཁག་གི་	-11978
དོགས་གཞི་	-11979
སེང་གེ་	-11980
ལ་བབས་ནས་	-11981
དུས་རྒྱུན་	-11982
ལྕེ་	-11983
ཡིན་ན།ཁྱེད་ཀྱིས་	-11984
བརྡ་གཏོང་	-11985
རྐྱང་པའི་	-11986
▁ལོ་ཙཱ་བ།	-11987
མཁན	-11988
ཐཱན་ཉུང་	-11989
ཤེས་བྱའི་ཐོན་	-11990
སྟེགས་བུ་ཞིག་	-11991
དེའི་ཐོག་	-11992
སྡོམ་ཚིག་	-11993
ང་ཚོས་མཉམ་དུ་	-11994
ལ་ལད་མོ་	-11995
གོ་རིམ་ནི་	-11996
མཐོ་རྒྱུགས་	-11997
བླང་བྱ།	-11998
སྐུད་པ་	-11999
གཞན་ཞིག་གི་	-12000
ཇི་ལྟར་བཀོལ་ནས་	-12001
ཕན་པ་ཡོད།དཔེར་ན།	-12002
དང་རིན་ཐང་	-12003
ཐུབ་པར་རོགས་རམ་	-12004
རྒྱུའི་ཐད་	-12005
ཀྲོའུ་རུ་	-12006
གཉིད་ལོག་	-12007
མཚུངས་པའི་	-12008
ཞིག་ཏུ་གྱུར།	-12009
དང་།གློག་རྡུལ་	-12010
ལམ་ཐག་	-12011
ལྷ་ས་ནས་	-12012
དངངས་སྐྲག་	-12013
རྟགས་བཀོད་	-12014
▁ཡ་	-12015
ལ་སྤྲོ་སྣང་	-12016
II	-12017
འཕར་བ་དང་	-12018
རྗོད་པའི་	-12019
གནད་དོན་དེ་དག་ལ་	-12020
ལིན་གྱིས་	-12021
དཔྱད་འདེམས་	-12022
དབྱེ་ཞིབ་བྱས་ཏེ་	-12023
སྣེ་ཁྲིད་དེ་	-12024
རིམ་པ་དང་པོའི་	-12025
སླ་མོ་	-12026
དོ་དམ་པས་	-12027
==	-12028
འཐད་	-12029
ཞེས་བརྗོད་	-12030
▁གུས་	-12031
སེམས་བཟང་	-12032
བབ་བརླིང་དང་	-12033
འབྲི་བ་དང་།	-12034
བརྙས་བཅོས་	-12035
ལྟད་མོ་བར་	-12036
གཏིང་ཟབ་བྱས་ནས་	-12037
▁Pro	-12038
འདི་ལོ་	-12039
བརྒྱབ་པ་རེད།	-12040
གྲབས་གསོག་	-12041
སྡེ་ལས་	-12042
ཞིང་ཆེན་དང་།	-12043
ྦྱོང་བརྡར་	-12044
ཚོགས་པའི་ནང་གི་	-12045
os	-12046
Toist	-12047
ཁོང་དང་	-12048
འཆར་གཞི་གསལ་པོ་	-12049
sight	-12050
རླུང་ཤུགས་	-12051
ཅི་བྱ་གཏོལ་	-12052
མིང་རྟགས་བཀོད་	-12053
མི་ཐུབ་པ་	-12054
མི་གཞན་པའི་	-12055
ཐོན་ཚད་	-12056
ལྡན་ཡོད་པས་	-12057
ལ་སྔར་ལས་ལྷག་	-12058
ཀང་ཆིན་	-12059
པ་སོགས་ཚུད་ཡོད།	-12060
CSV	-12061
ཏེ་ལི་	-12062
གསུང་རབ་ཀྱི་	-12063
ཆུང་དུ་གཏོང་བའི་	-12064
འདེམས་སྐབས་	-12065
འབྱུང་ཁུངས་ནི་	-12066
བྲེལ་བ་	-12067
གཉིས་པ་ནི་	-12068
▁ཡུལ་སྐོར་	-12069
▁ཁྱེད་རང་ལ་	-12070
ཤེས་རྟོགས་ཀྱི་	-12071
▁༢༠༠	-12072
རྩྭའི་	-12073
རིག་གནས་ཀྱིས་	-12074
རྒྱས་སྤྲོས་	-12075
གཞོན་ནུ་ལོ་ཆུང་	-12076
པོ་ཐེ་	-12077
སློབ་ཡོན་	-12078
ཡིག་རྟགས་ཕྲེང་བ་	-12079
སྐུལ་མ་གཏོང་བའི་	-12080
རེ་རེ་ནི་	-12081
པར་མ་ཟད།ད་དུང་	-12082
གསར་གྱི་	-12083
ཁྱོད་ལ་རོགས་རམ་	-12084
བླང་བྱ་དང་མཐུན་	-12085
སློབ་སྦྱོང་ཁྲོད་	-12086
ཕབ།	-12087
ལོར་གྱི་	-12088
འདྲ་མཉམ་དང་།	-12089
བླང་བྱར་	-12090
file	-12091
ཚོད་ཀྱིས་	-12092
འཕྱུགས་པ་	-12093
Th	-12094
ཧྭའི་	-12095
གསལ་བང་	-12096
ལ་དམིགས་པའི་	-12097
ument	-12098
བསྐྱར་དཔར་	-12099
སྣ་མང་ཅན་དང་	-12100
ཀྲན་མུའུ་སི་	-12101
དབང་ཆ་མ་ཐོབ་པའི་	-12102
གཏིང་ཟབ་བྱེད་པ།	-12103
གཏོང་བ་ནི་	-12104
འཚོ་བ་སྔར་བས་	-12105
རྣམ་ཤེས་	-12106
རྩོམ་ཡིག་ལ་	-12107
ཁ་སྣོན་བྱས་ཆོག	-12108
སེམས་ཁམས་རིག་པ་	-12109
སྤུས་ཚད་འགན་ལེན་	-12110
མངག་ཐོའི་	-12111
ཅེས་བཤད་	-12112
མི་འཕྲུལ་	-12113
གལ་ཆེ་བ་ནི་	-12114
དྲང་བདེན་དང་	-12115
སོགས་ཀྱི་ལས་འགན་	-12116
གནས་ངེས་	-12117
མཛོད་ཀྱིས་	-12118
ཐའེ་དབན་གྱི་	-12119
ད་ཐེངས་	-12120
ཁོར་ཡུག་ཁྲོད་	-12121
བོད་ཡིག་	-12122
▁རི་མོ་	-12123
ཤོག་བྱང་གི་	-12124
ཅུང་ལེགས་པའི་	-12125
འུ	-12126
སྤྲེའུ་	-12127
འཐུས་སྒོ་ཚང་བའི་	-12128
བསྒར་ལྷུའི་	-12129
རྣམ་པར་བསྒྱུར་	-12130
དངོས་ཡོད་ལག་རྩལ་	-12131
བ་དེས་	-12132
དཔེ་དེབ་དང་།	-12133
ཁ་དན་ཚིག་	-12134
ཚེ།ཁྱེད་ཀྱིས་	-12135
གསོས་	-12136
▁ཐོན་རྫས་	-12137
ངེས་པ་མེད།	-12138
འཚམ་མཐུན་གྱི་	-12139
མཚོ་ཁུག་	-12140
iOS	-12141
ལ་སྐྱོན་	-12142
ལོ་གསུམ་	-12143
མིས་ཕན་ཚུན་	-12144
ལྷ་སར་	-12145
ཐོན་རྒྱུ་རེད།	-12146
དང་།ངས་	-12147
དུ་གནས་ཤིང་།	-12148
བྱས་ན་ཁྱོད་ཀྱི་	-12149
རྫིང་བུ་	-12150
རབ་འབྱམས་	-12151
བྱས་ཆོག་པས།	-12152
འདེམས་བསྐོའི་	-12153
uery	-12154
མོ་སི་	-12155
པས	-12156
ཐང་ནི་	-12157
ཞིབ་བཤེར་བྱས་ནས་	-12158
བདེ་མོ།	-12159
▁འགྲན་བསྡུར་	-12160
ལ་ཕབ་	-12161
གླུ་གར་	-12162
ཁ་ཚ་	-12163
ཞིབ་ཐོ་	-12164
མང་པོ་ཡོད་པས།	-12165
orn	-12166
འཕར་བ་དང་།	-12167
བྱེད་པར་ཡང་	-12168
ཧ་ཅང་རྙོག་འཛིང་	-12169
གནས་ཚུལ་ཐག་གཅོད་	-12170
ཡང་།	-12171
ཉིན་བར།	-12172
གཏོང་བའམ་ཡང་ན་	-12173
ལྷག་བསམ་རྣམ་	-12174
གནས་སྐོར་	-12175
གལ་ཏེ་ངས་	-12176
ཡིག་འབྲུ་	-12177
བར་ཁག་ཐེག་	-12178
ཕྲུ་གུའི་	-12179
ཡོད་པའི་འགན་ལེན་	-12180
ཉེན་རྟོག་པ་	-12181
སོམ་ཉིའི་	-12182
▁རང་ཉིད་ཀྱི་	-12183
ཞིབ་གཙིགས་	-12184
རྩིས་ལེན་	-12185
བརྗིད་ཉམས་	-12186
idth	-12187
ཡི་མུག་	-12188
ལྔ་པའི་	-12189
པ་དང་།དེ་ནས་	-12190
པ་མངར་	-12191
ཡིད་སྨོན་	-12192
འགོ་ཚུགས་པ།	-12193
Al	-12194
གཉིས་ཡོད།	-12195
དྲོད་ཚད་དང་	-12196
An	-12197
ཟླར་	-12198
འཁུམ་	-12199
ལོའི	-12200
མི་ཆོས་ཀྱི་	-12201
གསར་འགོད་པའི་	-12202
ref	-12203
ལག་ལེན།	-12204
བརྟོལ་	-12205
༡༠༠	-12206
དྲོད་ཚད་དང་།	-12207
ཁྱེད་རང་གིས་ངར་	-12208
ཆེ་རུ་གཏོང་རོགས་	-12209
ond	-12210
ཚབ་བྱས་ཏེ་	-12211
ནང་ཞུགས་རྒྱུའི་	-12212
བེད་སྤྱད་ནས།	-12213
ཚོང་འགྲུལ་པའི་	-12214
Bu	-12215
ཉུང་གཏོང་	-12216
ལས་འགན་གཞན་དག་	-12217
ཆེད་དམིགས་	-12218
དཀོན་པའི་	-12219
ལྗོན་ཤིང་	-12220
སྣ་མང་གི་	-12221
ནང་གསེས་དོན་ཚན་	-12222
ང་ཚོས	-12223
པ་སོགས་རེད།	-12224
བཏོན་པ་རེད།	-12225
སྤྱོད་སྐབས།	-12226
རིགས་དབྱེ་བ་	-12227
ལྷད་	-12228
སུ་ཞིག་གིས་ཀྱང་	-12229
མགྲོན་པོས་	-12230
ལ་ལྟ་སྐོར་	-12231
utom	-12232
ཕྱོགས་ཁག་གི་	-12233
ལེབ་དང་	-12234
གཏན་འབེབས།	-12235
ཆེས་ཉེ་བའི་	-12236
ཐོག་མ་དེ་	-12237
འཕེལ་རིམ་ལ་	-12238
རྣམ་གྲངས་དེ་	-12239
ནད་པའི་བདེ་ཐང་	-12240
བྱུགས་	-12241
ཚན་པར་	-12242
བསམ་ཚོད་	-12243
▁BI	-12244
རེའུ་མིག་ནང་གི་	-12245
སེམས་ནུས་	-12246
གོ་ལ་ཧྲིལ་པོ་	-12247
དངུལ་ལོར་གྱི་	-12248
རི་མོ་དང་རི་མོ་	-12249
སྔོན་མ་	-12250
ངལ་གསོ་བའི་	-12251
རྒྱུ་རྐྱེན་གྱིས་	-12252
ཤང་གི་	-12253
དང་སྐད་གདངས་	-12254
ནང་ཧུར་ཐག་ཞུགས་	-12255
ལག་བསྟར་བྱས་ནས་	-12256
ཡི་ཐོག་	-12257
ཞུགས་མཁན་	-12258
མེ་ཏོག	-12259
ཁུ་ཚུར་	-12260
ཞིག་མ་རེད།	-12261
སོམ་ཉིའི་དྲ་བར་	-12262
ཡུལ་སྐད་	-12263
དང་ཞབས་ཞུ་	-12264
གྲུབ་པ་ཡིན།	-12265
ལས་འགན་ཚང་མ་	-12266
སྦྱོང་བརྡར་དང་།	-12267
དུས་ཚོད	-12268
ཚང་འཛོམས་	-12269
ལྡན་པའི་ནང་དོན་	-12270
▁ང་ནི་	-12271
སུམ་ཅ	-12272
འདྲུད་	-12273
ཡིན་པའི་ཆ་ནས།	-12274
བའི་མཐོང་ཆུང་ནི་	-12275
ལས་མངོན་པ་ལྟར་ན།	-12276
▁རི་	-12277
བཤད་པ་ལྟར།	-12278
སྐྱེས་སྐར་	-12279
བསྡུས་པའི་	-12280
ཀུང་སི་དེའི་	-12281
བྱས་ཉེས་	-12282
ལས་རིགས་ནང་	-12283
loW	-12284
ཆེ་རུ་གཏོང་ཆོག་	-12285
དོ་དམ་ཡོ་བྱད་	-12286
རྩིས་བཤེར།	-12287
བུད་མེད་ནི་	-12288
དོན་རྐྱེན་བྱུང་	-12289
གྲངས་ཀར་	-12290
ཚེས་ཉེར་	-12291
གསར་བརྗེ།	-12292
ལ་བརྟེན་ན་	-12293
ཟློས།	-12294
སོབ་	-12295
ཚོགས་ཞུགས་	-12296
ཧྲན།	-12297
འབྲལ་	-12298
ལྔ་པར་	-12299
ཐབས་བྱེད་དགོས།	-12300
ལ་བསྒྱུར་	-12301
བསྐོས་	-12302
བག་ཆགས་ཟབ་མོ་	-12303
ཙམ་ཡང་	-12304
མི་དགའ་	-12305
དུ་གྱུར།	-12306
ནས་རང་ཉིད་ཀྱི་	-12307
འབྲེལ་མཚམས་ཀྱི་	-12308
པར་རིས་རྣམས་ཀྱི་	-12309
བདེ	-12310
▁དང་ཐོག་	-12311
མཐའ་གཅིག་ཏུ་	-12312
མཛོད་ཉར་དོ་དམ་	-12313
ནི་རིན་མེད་ཀྱི་	-12314
སྒྲ་སྦྱོར་	-12315
བསྒྲུབ་ཐུབ།	-12316
ལིའོ་	-12317
རིག་གནས་ཤིག་	-12318
DA	-12319
▁my	-12320
anguage	-12321
མདོར་ན།	-12322
རྒྱུར་སྐུལ་ལྕག་	-12323
ango	-12324
ཤར་རྒྱུད་	-12325
ཞབས་ཞུར་	-12326
ཁྲག་རྩའི་	-12327
འགྱུར་ལྡོག	-12328
སློབ་བསྡུའི་	-12329
གསར་པ་འཚོལ་ཞིབ་	-12330
ལྡན་པས་	-12331
),	-12332
▁གློག་རྡུལ་	-12333
▁ཀྲུང་གོ་དང་	-12334
འདུས་ཚད་	-12335
ཁས་མ་བླངས་	-12336
set	-12337
ཙན་	-12338
ཆ་ནས་	-12339
vernote	-12340
མ་ཐག་པའི་	-12341
ཚེག་རྟགས་	-12342
སྐུལ་འདེད།	-12343
དངུལ་བརྗེས་	-12344
པ་དང་དེ་བས་	-12345
འབྲེལ་གཏུག་བྱོས།	-12346
འཁྲིད་	-12347
ཕྱིར་གཏོང་གི་	-12348
གྲོང་ཁྱེར་རྙིང་	-12349
ལ་ལན་	-12350
ཆེན་པོ་དང་	-12351
ཚོར་སྣང་ཞིག་	-12352
བྱེད་དབང་	-12353
འགྲོ་བ་དང་	-12354
གྲོགས་པོར་	-12355
ཚི་སྣ་	-12356
ཁོ་ནའི་	-12357
ཚིག་ཉུང་	-12358
གླིང་ཚོམ་	-12359
ོང།	-12360
ཡལ་ག་	-12361
འཕེན་གཏོང་	-12362
དབྱེ་ཞིབ་ལག་རྩལ་	-12363
སྔོན་ལ་གཏན་འཁེལ་	-12364
མཛེས་པའི་	-12365
ཨང་དང་པོར་	-12366
མྱོང་ཚོར།	-12367
སྒོར་དབྱིབས་	-12368
འོད་འཕྲོའི་	-12369
ཞོར་ཟས་	-12370
ཡང་བའི་	-12371
ཆ་འཕྲིན་དེ་	-12372
ཐོར་ཞིག་ཏུ་	-12373
ཞེས་འབོད།	-12374
སྡོམ་རྩིས་རིག་པ་	-12375
བྲིས་དང་།	-12376
ཆི	-12377
མི་རེ་ངོ་རེར་	-12378
བྱེད་འདོད་པའི་	-12379
གཞུ་	-12380
ཁྱབ་བསྒྲགས་བྱས།	-12381
ཐད་ད་དུང་	-12382
ཕྱིར་སྡུད་ཚད།	-12383
ཙམ་ཡོད།	-12384
གཏན་སྲོལ་	-12385
llo	-12386
མ་ཐུབ་པར་	-12387
འགག་རྩའི་ཚིག་	-12388
སོགས་ཀྱི་ཕྱོགས་	-12389
བྱེད་ནུས་ཀྱིས་	-12390
མ་ནིང་	-12391
གསར་དུ་ཐོན་པའི་	-12392
ཝང་གི་	-12393
གྱིས་ཁེངས་	-12394
མུའུ་སི་ལིན་གྱི་	-12395
འཐོབ་	-12396
ཡང་ཧ་ཅང་	-12397
དོགས་གནད་	-12398
ལིམ་	-12399
ནས་ཡོང་	-12400
ལ་ཚོད་ལྟ་	-12401
རྩལ་ནུས་ཀྱི་	-12402
ཐ་སྙད་དང་།	-12403
བྱེད་སྲིད་པས།	-12404
ཞིང་ཆེན་གྱིས་	-12405
མི་འདྲ་བ་མང་པོ་	-12406
hone	-12407
དམ་པོར་	-12408
ཇུས་གཞི་བཟོ་	-12409
རེ་བའི་	-12410
ཟིན་གྱི་	-12411
བསྡུར་ཚད།	-12412
སློབ་མ་ཚོས་	-12413
གཤམ་གྱི་ཐབས་ལམ་	-12414
ཐོན་ཁུངས་དོ་དམ་	-12415
ཤེས་རབ་	-12416
ཉིང་ལྷེབ་	-12417
སྤྱི་ཁྱབ་པུའུ་	-12418
ཤལ་	-12419
བཟོ་ལས་ཀྱི་	-12420
དོན་དངོས་དང་	-12421
ཁུའེ་	-12422
ཨར་ཁང་	-12423
ཁྱིམ་བདག་གིས་	-12424
ཚོགས་ཁང་	-12425
བྱས་ན་འགྲིག	-12426
ཚོང་རྟགས་ལ་	-12427
▁ལས་ཀའི་	-12428
༡༤	-12429
amp	-12430
Udacity	-12431
དགའ་སའི་	-12432
མཇུག་འབྲས།	-12433
▁ཚབ་ཨང་	-12434
སུས་	-12435
མཆིན་	-12436
སུ་བཅུག	-12437
ས་མཐོའི་	-12438
བཞིན་ཡོད་།	-12439
ལྟོས་བཅས་ཀྱི་	-12440
ཡིག་ཆའི་ནང་དུ་	-12441
གཅིག་བསྡུས་ཀྱི་	-12442
བསྙལ་	-12443
ཐེངས་མང་པོར་	-12444
བྱ་བའི་ཁྲོད་	-12445
གསར་སྤེལ་མི་སྣ་	-12446
▁མཁའ་	-12447
ཁྲོམ་རའི་ཐོག་གི་	-12448
▁var	-12449
དུས་ཆེན།	-12450
དགའ་བསུ་ཞུ།	-12451
མཚོན་རྟགས་དང་	-12452
མཛའ་མཐུན་གྱི་	-12453
བསྟན་ཡོད།	-12454
སྒྲོག་ཙེའི་	-12455
བརླན་བཤེར་	-12456
དྲ་ཚིགས་སམ་	-12457
ཡོད་དམ་མེད།	-12458
ལ་ཁ་གཏད་འཇལ་བའི་	-12459
དཔྱད་དཔོག་དང་	-12460
ལྕམ་	-12461
དཔེར་ན།ང་ཚོས་	-12462
ལེགས་སྐྱེས་ཕུལ་	-12463
ཁེ་ལི་	-12464
གནའ་ཤུལ་	-12465
ཀུན་སློང་	-12466
པའི་ལོ་རབས་	-12467
བསྡུ་ལེན་དང་	-12468
གསར་འགྱུར་ཁང་གི་	-12469
གྲངས་དང་	-12470
རང་གཅུན་	-12471
སུའེ་ཏེན་	-12472
aggle	-12473
གླས་པའི་	-12474
དཔེ་དེབ།	-12475
ནི་ལོ་	-12476
གནད་དོན་ཞིག་ཡིན།	-12477
ABC	-12478
ལྭ་བ་	-12479
མེས་རྒྱལ་	-12480
གྲངས་ཀ་དང་	-12481
ཡི་སྨན་བཅོས་	-12482
བྱས་ནས་ཁོང་ཚོར་	-12483
གཉན་	-12484
སྤྱི་ཁོག་	-12485
རྩོམ་ཡིག་དང་	-12486
བགྲེས་སོང་	-12487
པོའི་ངང་	-12488
ཡན་ལག་གི་	-12489
ཕྱོགས་འགལ་	-12490
ཚོར་བ་ཞིག་	-12491
ཐེན།	-12492
སྲབ་	-12493
བརྙན་འཕྲིན་གྱི་	-12494
བཏབ།	-12495
དུས་ཚད་	-12496
དུས་འགྱངས་	-12497
ལྦ	-12498
འབྲེལ་བ་ཡོད་པའི་	-12499
ཁྲག་གི་	-12500
རྗེས་སྙེག	-12501
གཉིས་བར་གྱི་	-12502
ཐབས་བྲལ་	-12503
སེམས་གསོ་	-12504
བཞུར་ཚད་ལ་	-12505
བྱེད་པར་སྤྱོད་	-12506
ལུང་།	-12507
ཟོལ་མེད་	-12508
འཆམ་འཆམ་དུ་འགྲོ་	-12509
དེ་ཟླ་	-12510
དུམ་ཚན་	-12511
ཧྥི་ལི་	-12512
ཡུའེ་ཧན་	-12513
སྐུལ་རེས་	-12514
གནང་བ་དང་།	-12515
བསྐྲུན་པའི་	-12516
འབྲེལ་མཐུད།	-12517
ཁེ་བཟང་	-12518
པར་སྨོན།	-12519
འགྲན་ར་	-12520
མཁན་ཞིག་	-12521
ལྟ་སྡོམ་	-12522
གཅིན་པ་མངར་	-12523
བྱས་ནས་སྨན་བཅོས་	-12524
ཡོང་འབབ།	-12525
ཁྱིམ་དུ་ལོག་	-12526
ཨ་ཕ་	-12527
འཁོལ་	-12528
ལ་ཕན་པ་ཡོད།	-12529
གློག་ཀླད་ཀྱི་	-12530
སྤེལ་བ་	-12531
ལན་འདེབས་པ།	-12532
ཁྱིམ་རྒྱུད་ཀྱི་	-12533
ལུས་སེམས་བདེ་ཐང་	-12534
ཁུངས་སྣེ་	-12535
ཞིག་ཡིན་ཏེ།	-12536
གཏན་འབེབས་དང་།	-12537
སྒོར	-12538
ཡང་དག་པའི་ཚད་དང་	-12539
གཉའ་གནོན་	-12540
འབོར།	-12541
རིག་ནུས་ཅན་	-12542
ཤུག་	-12543
རྩིས་ཁྲའི་	-12544
དམིགས་ཚད་དེ་དག་	-12545
མཐོ་ན་	-12546
སེལ་བར་	-12547
དབང་སྒྱུར་	-12548
sy	-12549
ཞི་ལའི་	-12550
བུ་མོའི་	-12551
བླང་བྱ་དང་	-12552
འཆར་ཤེལ་	-12553
ཕྱོགས་སྡོམ་	-12554
ཕྱོགས་གཅིག་ནས་	-12555
རིགས་དབྱིབས་	-12556
དྲ་ངོས་ཇུས་འགོད་	-12557
ie	-12558
csv	-12559
འགྲིག་གམ་།	-12560
འཕེལ་ཕྱོགས་ལ་	-12561
ལེགས།	-12562
ཤོང་ཚད་	-12563
གནས་ཚུལ་གྱི་	-12564
ལ་བརྟེན་དགོས།	-12565
བསྙེགས་	-12566
གྲོས་ཁང་	-12567
རང་སོའི་	-12568
གལ་ཆེ་ཤོས་དེ་	-12569
GI	-12570
མེད་ལ་	-12571
གོང་བུ་	-12572
ཉིན་དེའི་	-12573
ཧ་ཞི་	-12574
མཚམས་འཇོག་པའི་	-12575
རྒྱལ་མཚམས་	-12576
ལག་རྩལ་གསར་སྤེལ་	-12577
སྨོན་འདུན་ཞུ་	-12578
ཨོ་ལིམ་	-12579
ལྡན་པ་ཞིག་ཡིན་	-12580
ནུས་པར་ཚོད་སྐོར་	-12581
མཚན་མོའི་	-12582
ཕྱོགས་གཉིས་པོའི་	-12583
orld	-12584
སྟོད་དུ་	-12585
གཙོ་ཁྲིད་	-12586
ལས་ཐར་	-12587
ཨུ་ལྷན་གྱིས་	-12588
ཡོད་ན།ཁྱོད་ཀྱིས་	-12589
སུའུ་ལེན་	-12590
ཕྱི་ནས་ཡོང་བའི་	-12591
ཤིང་འབྲས།	-12592
འབྲེལ་གཏུག་དང་	-12593
དུས་མཇུག་ཏུ་	-12594
བཀྱ	-12595
▁གནའ་བོའི་	-12596
སྒྱོགས་	-12597
དམའ་རིམ་	-12598
ཆེ་རུ་ཕྱིན་	-12599
inn	-12600
ཏིག་	-12601
དེའི་ཟླ་	-12602
མིང་གྲགས་	-12603
ཡིན།དེ་ནི་	-12604
ཐོན་ཁུངས་ལ་	-12605
གྲུའི་	-12606
བམ་པོ་	-12607
▁ཧ་ཅང་ཡག་པོ་འདུག	-12608
Spark	-12609
སྡོད་ཁང་གི་	-12610
སྔར་ལས་ལེགས་པོ་	-12611
སྲི་	-12612
ཁྱབ་སྟངས་	-12613
མཉམ་འདུས་	-12614
གལ་འགངས་ཆེ་བ་	-12615
གང་དག་སྤྱད་ནས་	-12616
དྲ་བ་དང་	-12617
རྒྱལ་ཕམ་	-12618
▁U	-12619
དང་མི་ཤུགས་	-12620
དེ་དང་འཚམ་པའི་	-12621
བྱས་ནས་ཐག་གཅོད་	-12622
དང་།གྲོགས་པོ།	-12623
ohn	-12624
པར་བརྟེན་	-12625
མཛེས་བཟོ་	-12626
འཁྲུངས།	-12627
བརྟན་སྐར་	-12628
ཆད་ལུས་	-12629
སྐྱེ་འཕེལ་	-12630
འདིའི་རིགས་ལ་	-12631
མི་བྱེད་པ་	-12632
རྫུ་འཕྲུལ་གྱི་	-12633
དངོས་རྫས་དང་	-12634
རྒྱུ་ཡིན་ཞེས་	-12635
རྒྱུ་ཡིན་པ་དང་།	-12636
aa	-12637
ux	-12638
དང་པོ	-12639
གྲུབ་པ་	-12640
ཞེས་པར་བསྒྱུར།	-12641
མ་གནས་གྲོན་ཆུང་	-12642
ལོགས་	-12643
མཚམས་ཐང་	-12644
རྗེས་ལུས་	-12645
ཁྱོན།	-12646
མི་ཆོག་པའི་	-12647
འཇལ་བའི་	-12648
བརྗེ་རེས་ཀྱི་	-12649
སྦྲག་རྫས་བསྐུར་	-12650
གྱིས་ཁྱེད་ལ་	-12651
ཡོད་པ་བྱེད་དགོས།	-12652
བྱུང་ཞིང་།	-12653
དགེ་འོས་	-12654
ལོ་ལྔའི་	-12655
སྟོན་གྱི་	-12656
Pr	-12657
▁class	-12658
གནམ་གྲུས་	-12659
ཞི་ལྷོད་དང་	-12660
དཔོན།	-12661
གཤམ་དུ་ངས་	-12662
ཐེབས་རྩ།	-12663
ནང་སྒྲིག་	-12664
བྱེད་པའི་རྣམ་པ་	-12665
འགུལ་མེད་	-12666
བརྗོད་ཡོད།	-12667
ཧྲི།	-12668
གཙོ་གནད་དུ་	-12669
ཆ་ཤས་ཤིག་ཏུ་	-12670
འཕར་ཡོད་པ་རེད།	-12671
སྤུས་ཀར་	-12672
ཕྱོགས་ཁག་	-12673
ཁྱེད་རང་གི་ང་ལ་	-12674
མཐའ་འཁོར་གྱི་	-12675
རྒྱུ་རྐྱེན་ནི་	-12676
ངས་པའི་	-12677
བར་གནས་ཀྱི་	-12678
མིས་རང་ཉིད་ཀྱི་	-12679
རྩོམ་བྲིས་	-12680
མིང་ཐོག་ནས་	-12681
རྩོམ་སྒྲིག་པའི་	-12682
lement	-12683
ཁུ་སིམ་	-12684
སྣང་དང་	-12685
ཕྱུག་གི་	-12686
▁རྒྱལ་སྤྱིའི་	-12687
སྡེ་ཁག་ལ་	-12688
བརྡ་ཁྱབ་གཏོང་	-12689
གོ་གནས་དང་	-12690
ཏུ་གྱུར་	-12691
གསར་པ་གཏོད་	-12692
བློ་ཡུལ་ལས་འདས་	-12693
ངལ་གསོ།	-12694
དཔྱིད་ཀ་	-12695
སྤྱོད་རྒྱ་ཧ་ཅང་	-12696
▁རྫོང་	-12697
རོ་མའི་	-12698
སྤོ་སྒུལ་	-12699
ཉུང་ཤས་ཀྱི་	-12700
མ་བྱུང་བའི་	-12701
ཏན་གྱི་	-12702
སྒོ་ངའི་	-12703
བདེ་སྐྱིད་ཚོར་	-12704
མེད	-12705
ཐབས་རྩལ་དང་	-12706
མི་འབྱུང་བ་	-12707
[...]
